\,	208279
▁the	203472
.	184513
▁	155631
▁of	109344
▁is	103423
▁and	87352
▁to	87201
2	77291
-	75311
<2te-Computer_science>	70571
▁a	62389
te	56416
▁<	56167
>	56152
Mathematics	55871
▁in	48502
▁that	44441
▁are	35705
▁you	35646
▁this	33711
▁we	32960
1	29564
▁it	27277
s	26516
▁can	25557
▁be	24833
▁for	24473
▁or	22658
▁have	21428
▁as	21196
0	20162
▁by	19727
▁one	19595
▁will	19031
▁which	17504
▁So	16686
▁with	16618
▁on	15104
▁I	14378
▁The	14362
▁data	12584
So	12484
▁two	12121
▁x	11655
3	11493
▁not	11376
'	11313
▁so	11123
▁from	10846
▁(	10785
▁an	10574
ing	10549
▁also	10168
▁=	10082
▁if	10011
▁equal	9987
▁-	9655
▁A	9400
:	9375
▁all	9307
▁at	8748
▁equation	8356
▁see	8152
▁then	8122
▁what	8083
▁just	7907
▁here	7891
4	7665
▁value	7631
▁there	7542
5	7444
▁zero	7278
▁)	7202
▁into	7104
▁these	7035
▁has	6816
▁used	6590
▁Now	6587
▁n	6558
?	6523
▁first	6500
▁In	6322
▁system	6216
▁do	6213
’	6177
▁know	5883
▁other	5836
▁And	5709
▁use	5671
▁very	5650
▁but	5648
▁more	5498
▁number	5491
▁about	5463
▁minus	5354
▁means	5342
▁different	5134
▁This	5062
▁some	5048
▁It	5022
▁like	5018
/	5007
x	4917
▁your	4906
▁they	4896
▁plus	4731
▁square	4722
▁using	4691
▁method	4682
▁point	4661
▁example	4623
▁us	4583
▁given	4562
▁y	4559
6	4548
▁going	4510
▁because	4476
▁G	4454
▁information	4452
▁time	4443
▁now	4434
▁any	4371
▁where	4322
▁same	4305
▁go	4241
▁get	4223
▁function	4219
▁three	4196
▁P	4189
▁how	4164
▁values	4127
▁+	4028
▁called	4019
▁when	3975
▁right	3963
▁only	3917
▁matrix	3911
▁X	3821
▁than	3722
▁should	3712
▁between	3681
▁such	3601
▁each	3598
▁We	3589
▁its	3580
▁f	3543
▁u	3531
▁let	3505
▁set	3435
▁graph	3428
▁find	3428
8	3410
▁five	3394
=	3356
▁solution	3335
▁second	3290
9	3288
▁C	3271
▁may	3205
7	3203
▁up	3177
d	3146
▁r	3123
▁important	3082
(	3064
▁need	3056
▁e	3036
▁B	3005
+	3001
▁case	2982
▁form	2975
▁computer	2945
▁If	2920
ed	2892
▁part	2884
▁actually	2852
▁was	2843
▁b	2835
▁well	2825
▁their	2806
▁security	2793
▁i	2790
▁over	2786
▁Let	2782
▁c	2773
The	2765
▁make	2765
▁four	2753
▁would	2709
▁way	2687
▁order	2686
▁S	2682
▁mean	2640
▁del	2631
▁module	2619
▁out	2586
▁t	2574
▁For	2569
▁process	2562
▁problem	2529
▁work	2501
▁many	2501
▁p	2499
▁no	2495
▁through	2469
▁particular	2454
▁next	2449
t	2444
▁formula	2436
▁select	2394
ly	2391
▁them	2387
▁based	2387
▁R	2387
▁k	2316
▁our	2308
)	2294
▁income	2291
▁been	2289
▁various	2273
▁DNA	2250
▁after	2235
▁column	2234
▁D	2229
▁take	2226
▁E	2196
▁known	2161
▁office	2153
▁level	2131
y	2104
▁type	2102
▁probability	2095
▁v	2090
And	2085
▁most	2084
▁table	2065
▁variable	2065
▁new	2062
▁model	2062
▁money	2061
▁sample	2044
▁another	2035
▁distribution	2030
▁look	2028
▁user	2024
▁V	2017
▁network	2000
▁non	1990
▁key	1983
▁test	1970
▁analysis	1964
▁want	1947
▁am	1947
▁access	1937
▁size	1931
▁must	1926
▁types	1915
▁every	1901
▁F	1886
▁software	1879
▁power	1868
▁That	1867
▁again	1854
▁methods	1846
ll	1844
▁click	1839
▁change	1835
▁).	1831
▁systems	1771
▁capital	1767
▁protein	1766
▁T	1757
▁You	1754
▁control	1750
▁written	1747
▁light	1738
▁discuss	1738
▁put	1735
▁difference	1721
▁third	1718
▁both	1715
al	1714
▁while	1701
▁move	1699
▁less	1697
▁d	1692
▁group	1691
▁communication	1685
▁does	1678
▁even	1677
▁z	1664
▁There	1664
▁thing	1663
▁cell	1658
n	1656
▁people	1654
▁divided	1650
▁learning	1647
▁done	1646
▁standard	1644
▁course	1639
▁calculate	1633
▁m	1630
▁expression	1627
▁database	1617
▁vertices	1603
Now	1599
▁following	1597
▁discussed	1593
▁who	1589
▁help	1575
▁small	1573
▁M	1572
▁But	1564
▁line	1557
▁much	1553
▁say	1538
▁single	1519
▁increase	1513
▁high	1506
▁understand	1503
▁six	1484
▁equations	1476
▁H	1475
▁Here	1465
▁rate	1465
▁last	1459
▁Y	1456
▁Then	1454
▁N	1453
▁simple	1447
▁file	1443
▁good	1414
It	1397
▁linear	1394
▁These	1387
▁application	1385
▁things	1378
▁becomes	1378
▁Next	1375
▁image	1359
▁vertex	1350
▁terms	1348
▁edge	1347
▁variables	1347
▁xi	1341
▁possible	1340
▁error	1338
▁available	1330
▁required	1329
▁already	1319
▁being	1319
▁step	1315
▁consider	1311
▁could	1309
▁To	1307
^	1304
▁business	1301
▁kind	1297
▁What	1282
▁series	1282
▁total	1280
▁tool	1275
▁applications	1274
▁design	1267
▁technology	1266
▁polynomial	1262
▁bar	1257
;	1251
▁users	1248
▁cells	1240
▁session	1239
▁They	1233
▁gives	1229
▁internet	1225
▁large	1221
▁end	1219
▁mining	1218
▁interest	1213
▁As	1210
▁differential	1208
▁seen	1206
▁web	1201
▁management	1200
▁condition	1196
▁shall	1196
a	1195
▁algorithm	1194
▁basically	1192
▁under	1190
▁demand	1185
▁multiple	1183
▁text	1183
e	1180
▁term	1180
A	1177
▁create	1172
▁real	1169
▁result	1166
▁elements	1165
▁row	1164
▁start	1163
▁those	1163
out	1157
▁etc	1152
▁specific	1146
▁space	1146
▁why	1145
▁obtain	1142
▁output	1136
▁okay	1136
▁seven	1134
▁When	1132
▁edges	1123
▁cyber	1122
▁give	1122
▁better	1121
▁class	1121
▁obtained	1117
▁eight	1115
▁product	1111
▁degree	1110
▁Therefore	1109
▁were	1108
▁fine	1105
▁points	1102
▁techniques	1101
▁back	1099
▁:	1091
▁services	1089
▁program	1088
▁positive	1088
▁proteins	1085
▁random	1080
*	1079
▁functions	1078
▁something	1076
▁deviation	1076
▁ok	1075
▁side	1072
▁defined	1071
▁path	1062
▁common	1061
▁students	1059
This	1059
▁digital	1055
▁tools	1051
In	1049
▁twenty	1047
▁study	1046
▁Hence	1045
▁general	1043
▁sequence	1041
▁root	1035
▁taken	1035
▁integration	1035
▁curve	1030
▁devices	1028
▁range	1026
▁add	1026
▁solve	1025
▁inverse	1024
▁within	1023
▁normal	1019
▁independent	1016
▁[	1011
▁colour	1005
▁certain	1002
▁upon	1001
▁relation	999
▁files	997
▁sum	992
▁consumption	991
▁nothing	990
▁organization	986
▁phi	983
▁having	980
▁nine	980
▁shown	977
▁frequency	976
▁amount	972
▁cycle	970
▁vector	969
▁integral	969
▁results	964
▁constant	963
▁correlation	962
▁``	961
▁whole	958
▁percentage	958
If	956
▁definition	952
▁Data	952
▁h	950
▁storage	949
▁able	944
▁layer	942
▁g	942
▁left	941
▁bit	939
▁made	939
h	936
▁q	936
▁contains	935
▁place	934
▁phase	934
▁object	934
I	931
▁dash	931
▁connected	929
▁input	929
▁come	929
▁provide	928
▁either	927
▁times	927
▁include	924
▁present	921
▁initial	920
▁don	916
▁message	915
▁color	914
▁w	912
▁K	912
▁interval	912
▁regression	910
▁technique	906
▁quite	905
▁always	905
▁hand	905
▁main	905
▁numbers	902
▁before	901
▁working	900
▁view	896
▁easily	892
▁coefficient	892
▁section	889
▁population	889
▁hypothesis	886
▁negative	885
−	884
▁factor	883
▁today	880
▁weight	880
▁RNA	877
▁Q	874
▁Thus	874
▁computers	873
▁open	873
▁he	872
▁mode	872
re	869
▁related	867
▁week	865
▁knowledge	863
▁Time	862
▁problems	861
▁structure	858
▁basic	857
▁little	856
▁ten	853
▁First	852
▁contain	852
▁operating	850
▁online	848
▁comes	847
▁attacks	840
▁price	839
▁hundred	839
▁person	838
▁derivative	837
We	832
▁purpose	830
▁down	828
th	828
▁think	824
▁low	823
▁name	821
▁state	820
▁O	817
▁element	817
▁least	814
▁physical	812
▁Z	811
▁L	810
▁above	810
▁records	809
▁individual	808
▁unit	807
k	804
▁components	804
▁theorem	804
▁Σ	804
▁doing	802
▁programs	802
▁tree	799
▁lot	798
▁operations	797
▁entire	797
▁therefore	796
▁per	796
▁getting	795
▁cost	795
▁&	793
▁box	793
▁surface	792
▁whether	790
▁minimum	787
▁psi	786
▁One	785
▁forms	784
You	781
▁theta	779
▁call	778
▁authentication	778
▁memory	777
▁denote	774
▁concept	773
▁public	773
▁previous	772
▁area	770
r	768
▁groups	768
▁paper	768
▁significant	765
c	765
▁ninety	765
▁U	764
▁write	761
▁apply	761
▁consist	761
▁media	760
▁taking	758
▁)\,	758
▁resources	757
▁policy	756
▁animation	756
▁several	755
▁similar	755
▁complete	753
▁server	753
▁often	753
▁usually	752
▁learn	752
▁λ	751
▁economy	747
▁option	746
▁my	746
▁depends	744
▁had	742
▁top	742
▁considered	741
▁stored	739
▁run	739
).	739
▁try	738
▁uses	738
▁keep	737
▁making	737
▁features	737
▁warehouse	735
▁easy	731
▁further	731
▁world	729
▁partial	729
▁multiplied	727
▁mu	727
▁wave	726
▁An	724
▁conditions	723
▁W	721
▁provides	720
▁field	720
▁ways	720
▁figure	720
▁flow	720
▁helps	719
f	717
▁higher	716
▁j	714
▁government	713
▁attack	713
▁best	711
▁transformation	710
▁show	710
▁Maya	709
▁own	709
▁material	709
▁effect	708
▁factors	708
▁sin	706
▁Since	703
▁during	701
Refer	700
▁needs	699
▁machine	699
▁graphs	698
▁development	697
▁aggregate	697
▁average	695
▁lower	693
▁index	691
▁maximum	690
▁relationship	690
▁activities	687
▁service	686
▁After	685
▁device	684
▁processing	682
▁due	681
▁separation	679
▁inside	675
▁boundary	675
▁alpha	675
▁refer	674
▁content	674
▁really	673
▁property	671
▁once	670
▁basis	668
▁along	667
▁useful	666
▁iteration	666
▁primary	665
▁his	664
▁still	662
▁operation	662
▁original	661
▁education	660
▁central	658
▁email	656
m	654
▁changes	654
▁search	653
▁corresponding	652
▁applied	652
▁major	652
▁said	651
▁render	651
▁transform	650
▁long	649
▁shows	647
▁source	646
D	645
▁sure	645
▁found	645
▁together	644
▁exactly	642
▁assume	642
▁complex	641
▁greater	640
▁cipher	638
▁language	637
▁ratio	636
▁visual	635
▁require	634
▁pi	634
▁region	632
▁me	628
▁happens	626
▁gel	626
▁thousand	624
▁hence	624
▁investment	623
▁networks	622
▁lines	622
▁length	620
▁social	620
▁By	620
▁support	619
▁press	619
▁become	619
For	618
▁thirty	618
▁shift	617
▁human	616
▁|	615
▁cases	614
▁determine	614
▁perform	614
▁supply	613
▁chromatography	612
▁Similarly	611
▁]	611
▁slide	609
▁finally	609
▁earlier	608
▁quality	607
▁statistical	607
▁since	606
▁check	606
▁objects	606
▁includes	604
▁variance	604
i	603
▁idea	602
▁forward	599
▁interpolation	599
▁represents	598
▁sometimes	597
▁measure	596
▁columns	595
▁might	592
▁address	592
▁position	589
▁few	587
▁choose	587
▁makes	585
▁respect	585
▁final	582
▁approach	581
|	581
▁lecture	580
▁cannot	580
▁gene	580
▁half	579
▁off	578
)=	578
''	577
▁according	575
▁examples	574
▁block	574
▁sequencing	574
▁record	572
▁sigma	572
▁rank	572
As	571
▁dot	571
▁screen	570
▁scale	570
▁created	570
▁character	569
▁addition	569
▁cos	569
▁mobile	568
▁proper	566
▁calculated	566
▁J	565
▁theory	563
▁sector	563
▁Example	562
▁video	560
▁effective	560
▁goods	560
▁chapter	559
▁Some	558
▁attribute	555
▁save	553
▁items	553
▁lambda	553
▁focus	552
▁separate	551
▁reference	551
▁median	551
▁current	548
▁instead	548
▁words	548
▁exchange	548
▁credit	546
▁among	545
ic	545
▁etcetera	545
▁role	544
▁around	543
▁define	543
b	543
▁production	543
▁item	542
▁sub	541
▁steps	540
▁produce	540
▁images	539
▁code	539
▁matrices	538
▁×	538
▁depend	537
▁quantity	537
▁free	534
▁null	533
▁performance	532
xi	532
▁allows	531
ve	531
▁nineteen	531
▁infinity	528
▁developed	527
▁selected	527
▁distance	526
▁associated	526
But	524
▁All	523
▁base	523
▁added	523
▁parts	522
▁document	521
▁multi	521
▁question	521
▁got	521
▁fifty	520
▁designed	519
▁understanding	519
▁issues	518
▁ensure	518
▁experiment	518
▁takes	517
▁directly	517
▁company	515
▁direction	513
▁confidence	512
▁compared	512
▁research	510
▁component	509
▁training	508
▁necessary	508
▁true	507
▁documents	507
▁correct	507
▁diagram	507
▁follows	506
▁temperature	506
▁double	506
▁log	505
▁life	505
▁virtual	504
▁word	504
▁fourth	503
▁pair	503
▁characteristics	502
▁year	501
▁market	501
▁difficult	500
▁represent	499
▁store	499
▁commonly	498
▁short	498
▁employees	497
▁bank	497
▁weights	496
▁<?>	496
▁private	495
▁generate	495
▁measures	495
▁plot	494
▁environment	493
▁itself	493
▁list	492
▁crime	492
▁later	492
▁website	491
▁speed	491
▁fall	490
▁advantages	489
▁How	489
▁encryption	488
▁characteristic	488
▁identity	487
▁rule	486
us	486
▁Slide	485
▁absolute	485
▁Office	485
▁un	484
▁clear	484
▁prime	483
▁identify	481
▁including	481
▁{	481
▁prove	481
▁approximate	481
▁page	480
That	480
▁dx	479
▁happen	478
▁properties	477
▁student	477
▁rather	477
▁read	477
▁affect	476
▁rules	476
▁shape	475
▁involved	475
▁detection	475
▁mass	475
▁errors	475
▁customer	473
▁transactions	473
▁samples	472
▁told	471
▁generated	471
▁works	471
▁personal	471
▁sets	471
▁generation	471
▁kinds	470
▁evidence	470
▁event	470
▁continuous	469
▁electronic	469
▁With	468
▁provided	467
▁cloud	467
▁Another	467
▁feature	467
▁finite	467
▁talk	466
▁fit	466
▁relative	466
▁texture	466
▁Second	465
▁attributes	465
▁parameters	465
▁appropriate	465
▁allow	464
▁principle	463
▁expenditure	463
</?>	462
▁Student	461
▁day	460
▁≤	460
▁gradient	459
▁answer	459
▁processes	459
▁Because	457
▁remember	457
▁Newton	457
▁Information	456
▁special	456
▁levels	456
▁roots	456
B	455
in	454
▁task	454
▁false	454
▁national	454
▁water	452
▁needed	451
▁looking	450
▁statistics	450
▁binding	450
▁node	449
▁dependent	448
▁delta	448
▁summation	448
▁concentration	448
▁mentioned	447
▁forty	446
▁medium	445
▁decision	444
▁Solution	444
most	443
▁molecules	443
▁too	442
▁operator	442
▁UV	442
▁*	441
▁across	440
▁fixed	440
▁eighty	439
▁combination	438
▁years	438
▁loss	438
▁rise	437
▁representation	436
▁plane	436
▁collection	435
▁Internet	434
▁version	433
▁keys	433
▁antibody	433
ary	432
▁importance	432
▁law	431
▁subject	431
▁limit	431
▁generally	430
▁tau	430
▁direct	429
▁action	429
▁coming	429
▁α	429
▁India	428
▁transfer	428
▁Note	427
▁period	427
▁fact	427
▁goes	427
▁location	425
▁involves	425
▁molecule	424
▁spann	423
▁nature	423
▁threats	423
▁simply	422
▁future	422
▁red	422
▁sense	421
▁close	421
▁face	421
▁job	420
▁expressed	420
▁details	419
▁entity	418
▁post	418
▁selection	418
▁moment	418
▁picture	417
▁far	417
▁play	417
▁l	417
▁pattern	416
▁send	415
▁disk	414
▁site	414
▁percent	414
▁meaning	414
▁definitely	414
▁models	414
▁units	413
▁cross	412
▁μ	412
▁buffer	411
▁everything	411
▁exact	411
▁sources	410
▁events	409
▁against	408
▁remove	408
▁upper	408
▁significance	407
▁unique	407
▁learned	407
▁regard	407
▁increased	407
▁account	406
▁domain	406
▁raised	405
▁unknown	403
▁hardware	403
▁lead	403
▁trying	402
▁secondary	402
▁finding	401
▁Also	401
▁described	400
▁Step	400
▁scene	399
▁editor	399
▁whatever	399
▁learners	398
▁patterns	398
▁host	397
▁differences	397
▁below	397
▁history	397
▁interesting	397
▁manner	396
▁instruction	396
▁dimensional	395
▁activity	395
▁button	395
▁determined	395
▁target	394
▁hard	394
▁requires	394
▁simplification	394
▁integrity	393
▁symmetric	393
▁potential	393
▁format	392
▁objectives	392
▁GDP	392
▁whenever	391
▁However	391
▁sixty	391
▁diagonal	391
▁prices	390
▁somehow	389
▁manager	388
▁convert	388
based	388
)\,	388
▁At	388
▁distributed	385
▁decrease	385
▁density	384
▁interaction	384
▁cut	383
▁panel	383
▁objective	383
▁vectors	382
▁tell	382
▁al	381
▁camera	380
▁On	380
▁σ	380
▁center	379
▁rows	378
▁produced	378
er	377
▁actual	376
▁copy	375
▁freedom	375
se	374
▁bits	374
▁areas	374
▁increasing	373
▁Welcome	373
▁did	373
▁detail	373
▁expected	373
▁messages	372
▁presentation	371
▁moving	371
▁solutions	370
▁essential	369
▁started	369
▁extreme	369
▁substitute	369
▁algorithms	368
▁heat	368
▁department	367
▁requirements	367
▁mod	367
C	366
▁pre	366
▁coordinate	366
▁increases	366
▁gets	365
▁discussion	365
▁gamma	365
▁factorial	365
▁says	364
▁thus	363
▁belong	362
▁computing	362
▁represented	362
▁front	361
▁password	361
▁Excel	360
▁sites	360
▁binary	360
▁mouse	357
There	357
▁printing	357
▁manual	357
▁statement	356
▁blue	356
▁Security	356
▁planning	355
▁follow	355
▁Suppose	355
▁matching	355
▁Laplace	355
▁acid	355
▁educational	354
▁reading	354
▁transaction	354
▁fi	354
to	353
▁∈	352
▁questions	352
▁scheme	351
▁explain	350
▁filing	350
▁Δ	350
▁controls	349
▁creation	349
▁volume	349
▁reduces	349
▁cover	348
▁others	348
▁sampling	348
▁composition	347
▁From	347
▁Computer	346
▁window	346
▁Rs	346
▁omega	346
▁letters	345
▁options	345
▁association	345
▁classification	344
▁Hello	343
▁critical	343
▁networking	343
▁molecular	343
▁yi	343
▁body	342
▁resolution	342
▁eta	342
▁followed	341
▁achieve	341
▁everyone	340
▁towards	339
▁detect	339
▁orthogonal	339
▁Number	339
▁rest	339
▁letter	339
▁modules	339
▁axis	339
▁note	338
▁client	337
▁proof	337
▁bound	337
▁arithmetic	337
▁CorelDRAW	336
▁Hamiltonian	336
Let	336
%	336
able	335
▁protocol	335
▁goal	335
▁investigation	335
▁graphics	335
▁elementary	335
▁θ	335
▁leads	334
▁reason	334
▁middle	334
▁chi	334
▁Mean	334
▁popular	333
▁reduce	333
▁delete	333
▁products	333
▁reaction	333
▁lighting	332
▁intensity	332
▁vers	332
▁Okay	331
▁Once	331
▁organizations	331
on	330
v	329
▁explained	328
▁card	328
▁transpose	328
▁Act	328
▁sales	327
!	327
▁natural	327
▁typically	326
ion	326
▁reach	325
▁instructions	325
▁implies	324
▁performed	324
▁efficient	324
▁substituting	324
▁adjacent	322
▁interface	322
▁connection	322
an	322
▁hope	321
▁especially	321
es	320
▁else	320
▁conclude	320
▁wide	320
▁highly	320
ensity	320
λ	320
▁connect	319
▁System	319
▁report	319
▁measurement	319
▁testing	319
▁otherwise	319
scal	319
▁Technology	318
▁Web	318
▁plaintext	318
▁full	318
ity	318
▁CPU	318
▁prop	318
▁country	317
▁share	317
▁classified	317
▁cause	317
dimensional	316
▁databases	316
▁numerical	316
▁secure	315
▁live	315
θ	315
▁Third	314
▁employee	314
▁risk	314
▁classes	314
▁parallel	314
▁behavior	314
▁beta	314
▁ability	313
▁solving	313
▁book	313
▁industry	313
▁respectively	313
∆	313
▁matter	312
▁suppose	312
These	312
▁compare	312
▁backward	312
▁traditional	311
p	311
▁advantage	310
▁pages	310
▁project	310
▁biology	310
▁fluorescent	310
▁arbitrary	309
▁signal	309
▁background	309
▁suitable	309
▁recombinant	309
▁pH	309
▁summary	308
X	307
▁transmission	306
▁Photoshop	306
▁Gaussian	306
▁frame	306
▁individuals	306
▁referred	305
▁writing	305
▁dimension	304
▁care	304
▁calculation	303
▁bring	303
▁green	303
▁Indian	302
▁signature	302
▁parameter	302
–	302
▁nonlinear	302
▁hours	301
▁star	301
▁multiplication	301
▁avoid	301
▁analyze	301
▁nu	301
▁machines	300
▁programming	300
▁fundamental	300
▁happening	300
▁practice	300
learning	299
▁interested	298
▁larger	298
▁arguments	298
▁providing	297
▁map	297
▁starting	297
u	297
▁tables	296
▁display	296
▁Each	296
▁procedures	296
▁develop	296
▁drug	296
▁divide	295
▁internal	295
▁IP	294
▁self	294
▁Microsoft	294
j	293
▁logical	293
▁principles	293
▁Today	293
▁categories	293
▁Again	293
▁dimensions	292
...	292
▁virus	292
▁ticket	292
▁forensic	291
▁tend	291
▁employment	291
▁architecture	290
▁National	290
▁exist	290
▁changed	290
▁concepts	290
▁crimes	289
▁re	289
▁Find	289
▁plan	288
▁raise	288
▁overall	288
▁indicates	288
▁stage	287
▁rotate	287
▁customers	287
▁multiply	287
▁observation	286
E	285
▁languages	285
▁draw	285
▁charge	285
dx	285
P	284
▁prior	284
▁creating	284
▁covered	284
▁anything	284
▁scientific	284
▁planar	283
▁variety	283
▁studies	283
▁whereas	283
▁menu	283
ntil	283
▁big	282
▁studied	282
▁nodes	282
▁meet	282
▁economic	282
▁enzyme	282
▁technologies	281
linear	281
▁talking	281
▁raw	281
▁According	281
▁maintain	280
▁layers	280
▁expert	280
q	280
▁converted	279
▁measured	279
▁mathematical	279
▁geometric	279
▁xn	279
▁compute	278
▁savings	278
▁argument	278
▁discrete	278
▁occur	277
▁Consider	277
▁adding	277
▁existing	277
▁outside	277
▁introduction	277
▁financial	276
▁giving	276
▁head	276
▁update	275
▁cycles	274
▁smaller	274
What	274
▁Theorem	274
▁strong	273
▁bottom	273
▁vulnerability	273
▁huge	273
st	273
▁shadow	273
*(	273
▁chance	272
▁technical	272
▁net	272
▁reduced	272
▁mechanism	271
▁receiver	271
▁issue	271
▁repeated	271
▁growth	271
▁dr	271
▁never	270
▁logic	270
▁standards	270
▁aspects	270
▁story	269
Then	269
▁changing	269
"	269
▁tests	269
▁wrong	269
▁criminal	269
▁determinant	269
▁act	268
▁understood	268
Here	268
▁gain	268
▁degrees	268
▁While	268
▁currency	267
▁variation	267
▁drag	267
▁entry	267
▁equipment	266
▁modified	266
▁saving	265
▁black	265
▁local	264
▁fast	264
▁effects	264
▁science	264
▁seventy	264
N	264
▁onto	264
▁observed	264
▁Money	264
▁processor	263
▁legal	263
▁assign	263
▁organisation	263
▁default	263
▁assumed	263
▁doesn	263
▁construct	262
▁protection	262
▁white	262
▁hold	261
▁days	261
▁CD	261
▁response	260
▁enter	260
▁Control	260
▁widely	260
▁clearly	260
▁consume	260
▁biological	260
▁φ	260
yi	260
▁layout	259
▁mainly	259
▁integer	259
▁turn	259
▁maybe	259
▁≥	258
▁manage	258
▁contents	258
▁odd	258
▁policies	258
▁)/	258
▁equilibrium	258
▁dy	258
▁polynomials	258
▁additional	257
▁decide	257
▁introduced	257
▁dispersion	257
▁properly	257
▁approximation	257
S	257
▁age	256
▁great	256
▁straight	256
▁derived	256
▁perspective	256
▁estimate	256
▁style	255
▁Google	255
▁chosen	255
▁coin	255
R	255
▁fifteen	255
▁equivalent	255
▁bind	255
▁staff	254
▁art	254
▁collected	254
▁automatically	254
▁welcome	253
▁places	253
▁analyte	253
▁setting	252
▁rates	252
▁mesh	252
▁modern	252
▁multiplier	252
▁cancer	252
▁treatment	251
▁SQL	251
▁request	251
▁sender	251
▁perfect	251
o	251
π	251
▁actions	250
▁sensitive	250
▁assessment	250
▁No	250
▁instance	250
▁remains	250
▁namely	250
▁efficiency	250
▁success	250
▁dataset	250
▁malicious	249
▁impact	249
▁occurs	249
▁allowed	249
▁Problem	249
▁authority	248
▁exists	248
▁applying	248
▁websites	248
▁spending	248
▁epsilon	248
▁fluorescence	248
▁books	247
▁force	247
▁He	247
▁certificate	247
▁talked	247
▁drawn	247
▁rotation	247
▁deposits	247
▁laser	247
ourier	247
▁Every	246
▁edit	246
▁situation	246
▁saw	246
▁describe	246
▁settings	246
▁tail	246
▁fields	245
▁colors	245
▁genome	245
▁observations	245
▁limited	245
▁prevent	245
▁desired	245
▁disease	245
▁enable	244
▁audio	244
▁enough	244
▁extract	244
test	244
▁probably	244
▁separated	244
▁channel	243
▁Management	243
▁banks	243
▁DBMS	242
▁tab	242
▁running	242
▁satisfy	242
)+	242
δ	242
▁formed	241
▁procedure	241
▁frequencies	241
▁PCR	241
▁protect	240
▁challenges	240
▁improve	240
▁though	240
▁companies	239
▁topic	238
▁sharing	238
▁showing	238
×	238
Y	237
▁implementation	237
▁remain	237
▁relational	237
▁ordinary	237
▁motion	237
▁AB	237
▁kept	236
▁designing	236
▁relevant	236
▁cash	236
▁electrophoresis	236
▁external	235
▁attention	235
V	235
▁came	235
▁pass	235
▁insert	234
Thus	234
▁chart	234
▁modification	234
▁tissue	234
▁affinity	234
▁vulnerabilities	233
▁mind	233
▁learnt	233
▁cube	233
▁outliers	233
▁minutes	233
▁scatter	233
▁blood	233
▁Poisson	233
▁link	232
▁duplicate	232
▁paint	232
▁query	232
▁communicate	232
▁incident	232
▁express	232
▁Xi	232
▁switch	232
▁bone	232
▁patient	232
To	231
▁Institute	231
▁limitations	231
▁command	231
They	231
▁β	231
▁quadrature	231
▁subgroup	231
▁approaches	230
▁servers	230
▁print	230
▁sequences	230
▁away	230
▁accuracy	230
▁requirement	230
▁comma	230
▁chain	230
▁stationary	230
▁mechanisms	229
▁easier	229
▁shared	229
▁old	228
▁choice	228
▁faster	228
▁disadvantages	228
▁received	228
▁proportion	228
One	227
▁ordered	227
▁highest	227
▁decimal	227
▁Module	227
▁ring	227
▁rises	227
lt	227
▁hash	226
▁alternative	226
▁pressure	226
▁Gauss	226
▁characters	225
▁expansion	225
▁secret	225
▁valid	225
▁persons	225
▁quartile	225
▁label	224
▁notation	224
▁pick	224
▁blocks	224
▁achieved	224
▁goals	224
▁obviously	224
▁depth	224
▁tasks	223
▁comparison	223
▁building	223
▁drawing	223
▁particles	223
▁taxes	223
^(	223
▁microscope	223
▁cards	222
▁colours	222
▁strategy	222
▁interactions	222
▁concerned	222
▁functional	222
▁experiments	222
▁ideas	221
▁included	221
▁ion	221
▁movement	220
▁date	220
▁forensics	220
▁Us	220
▁usage	220
)*	220
▁extraction	219
▁substitution	219
ta	219
̄	219
▁likely	218
▁mail	218
▁looks	218
▁stability	218
▁operational	217
▁monetary	217
▁width	217
▁performing	217
▁sixteen	217
▁membrane	217
▁genes	216
▁capacity	216
▁visible	216
▁sent	216
▁load	216
▁buy	216
▁trust	215
▁radio	215
T	215
▁identification	214
▁brief	214
▁handle	214
▁teaching	214
▁round	214
▁percentile	214
▁Department	213
▁structures	213
▁walk	213
▁materials	213
▁lies	213
▁eleven	213
▁foreign	213
▁library	213
▁score	213
▁δ	213
▁nuclei	213
When	212
▁observe	212
▁Why	212
▁charged	212
▁skills	211
▁Most	211
l	211
▁reports	211
▁Green	211
▁resulting	210
▁normally	210
▁Where	210
▁expensive	210
▁√	210
▁}	209
▁Many	209
▁beginning	209
▁drive	209
▁contrast	209
▁probe	209
▁privacy	208
▁responsible	208
▁resource	208
▁specified	208
▁pay	208
▁fraction	208
▁covering	208
Φ	208
▁graphic	207
▁ask	207
▁replaced	207
▁producing	207
▁IT	207
▁analytical	207
▁polar	207
▁compound	207
▁assay	207
▁sufficient	206
▁remaining	206
▁build	206
▁assumption	206
▁Windows	206
▁longer	205
▁film	205
▁Finally	205
▁creates	205
▁man	205
▁track	204
▁lights	204
▁linked	204
Which	204
▁maintained	204
▁blot	204
▁applicable	203
▁intelligence	203
▁distinct	203
▁tax	203
▁liquid	203
▁stands	203
▁fifth	203
▁gas	203
▁developing	202
▁assets	202
▁cluster	202
▁paths	202
▁frequently	202
▁offers	201
▁summarize	201
▁outlier	201
▁completely	200
▁car	200
▁pairs	200
▁infinite	200
z	200
▁Definition	200
▁coefficients	200
▁centrifugation	200
▁via	199
▁decisions	199
Okay	199
▁commands	199
▁squared	199
▁binomial	199
▁acts	198
▁traffic	198
▁updated	198
▁aspect	198
▁quickly	198
▁permutation	198
Therefore	198
▁passwords	197
▁context	197
▁modify	197
▁core	197
▁Proof	197
▁falls	197
▁optical	197
▁stem	197
▁combined	197
▁holding	197
▁advanced	197
▁browser	197
▁moments	197
▁executed	196
▁phases	196
▁replace	196
▁smooth	196
▁solved	196
▁magnetic	196
▁presence	196
▁Fisher	196
▁likelihood	196
▁conduct	195
▁identifying	195
▁signals	195
▁attached	195
▁velocity	195
w	195
▁Income	195
▁antigen	195
▁mn	195
▁evolution	194
▁category	194
▁sort	194
▁team	194
▁Word	194
▁subset	194
▁selecting	194
▁directed	194
▁courses	194
▁commercial	194
▁stable	194
▁removed	194
▁collect	193
▁histogram	193
▁adjust	193
▁regular	193
ory	193
▁eighteen	193
⇒	193
▁benefits	193
▁twelve	193
▁Or	193
▁kappa	193
▁keyboard	192
▁Students	192
∞	192
▁brush	192
▁air	192
▁co	192
\,...\,	191
▁behind	191
▁learner	191
▁PowerPoint	191
M	191
▁quick	191
▁isolation	191
▁sensitivity	191
▁bad	190
▁vary	190
▁integrated	190
▁accurate	190
▁repeat	190
▁acids	190
▁presented	189
‘	189
▁identified	189
▁cryptography	189
▁laws	189
▁satisfied	189
▁cybercrime	188
▁children	188
▁offices	188
▁affected	188
▁relations	188
▁unauthorized	188
▁viruses	188
▁ii	188
▁division	188
▁interact	188
▁largest	188
▁printed	187
key	187
▁experience	187
▁practices	187
▁papers	187
till	187
▁count	187
▁ELISA	187
▁sign	186
▁availability	186
▁origin	186
▁introduce	186
▁Like	186
▁placed	186
γ	186
axis	186
▁microscopy	186
▁interpretation	185
▁profile	185
▁Bas	185
▁eigenvalues	185
▁satisfies	185
▁ligand	185
▁Such	184
▁ground	184
▁controlled	184
▁continue	184
▁engine	184
▁maintenance	184
▁marks	184
▁successful	184
▁energy	184
▁balance	184
▁peak	184
Because	183
▁Music	183
▁branch	183
▁purposes	183
▁detector	183
▁curves	183
▁∫	183
▁community	182
▁circle	182
▁closed	182
▁clicking	182
▁Before	182
▁influence	182
▁ray	182
▁match	182
▁please	182
▁biometric	182
▁imaging	182
▁discovery	181
▁trees	181
▁Coefficient	181
▁hierarchy	180
▁enables	180
▁specify	180
▁strategies	180
▁mixture	180
▁payment	180
▁teachers	180
▁inputs	180
▁active	180
▁famous	180
▁explore	179
▁deal	179
▁states	179
▁dynamic	179
▁representing	179
▁outcome	179
▁photo	179
▁typical	179
▁Un	179
▁interpolat	179
▁copies	178
▁lack	178
▁scanning	178
▁malware	178
▁conclusion	178
▁antibodies	178
▁maintaining	177
▁situations	177
▁she	177
▁artificial	177
▁magnitude	177
▁powerful	177
▁IO	177
▁exports	177
▁Distribution	177
▁partition	176
▁enterprise	176
▁weighted	176
▁fx	176
▁Cyber	175
▁rendering	175
▁mapping	175
▁discussing	175
▁intrusion	175
ian	175
one	175
▁profiling	175
▁evidences	175
▁evaluation	175
▁identical	175
▁conventional	174
▁happened	174
▁moves	174
▁explicit	174
▁begin	174
▁hidden	174
▁cubic	174
▁Pearson	174
▁Runge	174
▁Two	173
▁broad	173
▁contact	173
▁fill	173
▁keeping	173
▁protocols	173
▁transport	173
▁absorption	173
▁pivot	173
▁constants	173
▁departments	172
▁reverse	172
▁leading	172
and	172
▁Real	172
▁anti	172
▁aim	171
▁tutorial	171
▁teacher	171
▁extra	171
▁execution	171
▁Tool	171
▁trade	171
▁lt	171
▁calculating	171
▁assuming	171
▁entities	170
▁built	170
▁confidentiality	170
▁pure	170
▁noise	170
▁Analysis	170
▁complicated	170
▁wants	170
▁proportional	170
▁starts	170
▁statements	170
▁discovered	170
▁dye	170
▁Bessel	170
▁names	169
▁links	169
▁poor	169
▁global	169
▁hackers	169
▁Of	169
▁telephone	169
▁register	169
▁magazine	169
▁spread	169
▁purchase	169
▁distributions	169
▁particle	169
▁quantitative	169
▁home	168
▁New	168
▁sections	168
▁causes	168
▁examine	168
▁arranged	168
▁Any	167
▁definitions	167
▁decryption	167
▁assigned	167
▁Under	167
▁transferred	167
▁appears	167
▁considering	167
▁correspond	167
▁gt	167
▁Mode	167
▁indirect	167
▁].	167
▁illustrate	167
▁Lagrange	167
▁quantities	166
▁editing	166
▁managers	166
▁capable	166
▁obvious	166
▁cable	166
▁encrypted	166
▁isomorphic	166
▁workers	166
▁domestic	166
▁economics	166
ness	165
▁Even	165
▁See	165
▁banking	165
xn	165
▁artist	164
▁AI	164
▁agent	164
▁break	164
▁defines	164
Ok	164
▁outcomes	164
▁lesser	164
▁leave	163
▁ready	163
▁painting	163
▁effectively	163
▁permanent	163
▁minimize	163
▁fix	163
▁connectivity	163
▁combine	163
▁fair	163
▁tells	163
▁Product	163
∩	163
▁Network	162
▁implemented	162
▁accounts	162
▁circuit	162
▁reporting	162
▁interactive	162
While	162
▁structured	162
▁manipulate	162
▁compar	162
▁uniform	162
▁daily	162
▁proved	162
▁near	162
▁experimental	162
▁episode	161
▁Protocol	161
▁someone	161
▁clustering	161
▁neur	161
▁relationships	161
▁assumptions	161
▁waves	161
▁oriented	161
▁carry	161
▁mostly	161
▁skewness	161
▁motive	160
▁appear	160
▁detailed	160
▁countries	160
▁rho	160
▁forth	160
▁bacteria	160
▁chemical	160
▁triangular	160
▁zeta	160
▁deals	159
▁sheet	159
▁Just	159
▁height	159
▁previously	159
▁micro	159
▁solid	159
▁payments	158
▁Learning	158
▁personnel	158
▁vertical	158
▁Sometimes	158
▁printers	158
▁stock	158
▁generating	158
▁digits	158
▁derive	158
▁failure	158
▁independence	158
▁house	158
▁except	157
▁damage	157
▁guess	157
▁deep	157
▁manipulation	157
▁complement	157
▁handling	157
▁feel	157
▁explanation	157
▁ideal	157
▁cumulative	157
▁remote	156
▁phone	156
▁multimedia	156
▁multiplying	156
▁Frequency	156
▁references	156
▁exclusive	156
▁xy	156
▁threshold	156
ξ	156
▁ANOVA	156
▁past	155
▁room	155
▁forming	155
▁early	155
▁weak	155
▁holds	155
▁published	155
▁SDS	155
▁hyperbolic	155
ρ	155
▁produces	154
▁Eulerian	154
▁integrate	154
▁carrie	154
▁digit	154
▁squares	154
or	154
▁dz	154
▁Legendre	154
▁audience	153
▁managing	153
▁implement	153
▁risks	153
▁instrument	153
▁calculations	153
▁auto	153
▁sequential	153
▁slow	153
ation	152
▁friends	152
▁putting	152
▁reached	152
▁usual	152
▁IoT	152
≠	152
▁blockchain	151
▁transformed	151
▁Do	151
▁similarly	151
▁particularly	151
▁soft	151
▁mental	151
▁recent	151
▁attempt	151
▁intervals	151
▁exponential	151
▁shortest	150
▁Euler	150
▁addresses	150
▁route	150
▁grid	150
▁storing	150
▁interpret	150
▁facts	150
▁however	150
▁codes	150
▁scope	150
▁purification	150
▁transcription	150
▁angle	149
▁assignment	149
▁title	149
▁monitor	149
▁sound	149
▁reasons	149
▁norm	149
▁convenient	149
▁passes	149
▁convergence	149
▁equally	149
▁mid	149
▁tube	149
▁Jacobi	149
▁accessed	148
▁engineering	148
▁yes	148
▁members	148
▁Select	148
▁macro	148
First	148
▁Method	148
▁bounded	148
▁Types	148
▁alone	148
▁detected	148
▁amino	148
▁compounds	148
▁harmonic	148
▁Fourth	147
▁missing	147
▁practical	147
▁predict	147
Just	147
g	147
▁labeled	147
▁affecting	147
▁clusters	147
▁verify	147
▁significantly	147
▁eye	147
=-	147
▁determines	146
▁determining	146
up	146
▁printer	146
▁touch	146
▁naturally	146
▁copyright	146
▁her	146
▁attacker	146
▁libraries	146
▁inflation	146
▁dyes	146
▁marginal	146
▁Figure	145
▁isolated	145
▁rights	145
▁Kruskal	145
▁interior	145
▁safe	145
▁processed	145
▁scenario	145
▁party	145
▁telling	145
▁radius	145
▁circular	145
▁World	145
▁fitting	145
)/	145
▁Hankel	145
▁concern	144
▁school	144
▁organized	144
▁Access	144
▁metal	144
▁subjects	144
▁plate	144
▁nucleus	144
▁string	144
▁loop	144
cellular	144
▁plays	143
▁integers	143
▁timeline	143
▁automated	143
▁organic	143
▁constructed	143
▁expect	143
▁Matrix	143
Σ	143
▁Kut	143
▁city	142
▁reduction	142
▁serve	142
▁marketing	142
▁facilities	142
▁portion	142
▁frequent	142
▁nominal	142
▁Probability	142
▁warehousing	142
▁throughout	142
▁induced	142
▁determination	142
▁plasmid	142
▁formal	141
▁recorded	141
▁Although	141
▁receive	141
▁infrastructure	141
▁integrating	141
▁audit	141
▁anywhere	141
zero	141
▁logs	140
▁schema	140
▁modeling	140
▁ciphertext	140
▁translation	140
▁hour	140
▁evaluate	140
▁biometrics	140
▁horizontal	140
▁Bayes	140
▁watching	140
▁deviations	140
▁probes	140
▁sides	139
▁wireless	139
▁sphere	139
▁agents	139
▁delivery	139
▁trends	139
▁saying	139
▁trial	139
▁twice	139
▁preparation	138
▁teach	138
▁stop	138
▁Remember	138
▁offer	138
▁graphical	138
▁Introduction	138
▁topics	138
▁skill	138
▁respective	138
α	138
▁Prism	138
▁primer	138
▁statistic	138
▁keeps	137
▁batch	137
▁hacking	137
▁University	137
▁platform	137
▁tag	137
▁alphabet	137
▁professional	137
mail	137
▁scan	137
▁denominator	137
▁Central	137
▁Standard	137
ω	137
▁mammalian	137
▁nucleotide	137
)*(	137
▁Explain	136
▁description	136
▁execute	136
▁ends	136
▁eliminate	136
▁plug	136
▁solvent	136
▁blotting	136
▁parabolic	136
▁emails	135
▁filter	135
▁propagation	135
▁limits	135
▁criteria	135
▁systematic	135
▁located	135
▁jobs	135
▁symbol	135
▁health	135
▁capture	135
▁manually	135
▁aware	135
▁denotes	135
▁topology	135
)^	135
▁MPC	135
▁opposite	134
▁ID	134
▁stores	134
▁guidelines	134
▁meaningful	134
time	134
▁him	134
▁de	134
▁replication	134
▁shader	134
▁parametric	134
▁classical	134
▁noted	134
▁commodity	134
▁imports	134
▁polymerase	134
▁Wide	133
▁totally	133
▁extension	133
▁helpful	133
▁Digital	133
▁choosing	133
point	133
▁Whereas	133
▁yellow	133
▁faces	133
▁accept	133
▁describes	133
▁protected	133
▁operate	133
▁slides	133
▁Net	133
▁slope	133
▁established	133
▁occurrence	133
▁ab	133
▁approximately	133
▁PET	133
▁ranks	133
▁yeast	133
▁reciprocal	133
▁efficiently	132
▁updates	132
▁prediction	132
▁subgraph	132
▁queries	132
▁benefit	132
▁extend	132
▁yet	132
▁pressing	132
▁MS	132
▁lowest	132
▁sorry	132
▁communications	132
▁studying	132
▁beyond	132
▁spend	132
▁singular	132
▁quadratic	132
▁effort	131
▁dealing	131
▁enjoyed	131
way	131
▁bus	131
bit	131
Select	131
▁psychological	131
▁threat	130
▁construction	130
▁entries	130
▁joint	130
▁ball	130
▁Mail	130
All	130
▁classroom	130
▁inter	130
▁controlling	130
▁bias	130
▁minimal	129
▁counter	129
▁piece	129
▁electric	129
▁safety	129
▁wall	129
▁wavelength	129
▁leaf	129
▁living	129
▁prepared	129
▁extent	129
▁maximal	128
▁spreadsheet	128
▁cache	128
▁During	128
▁reflect	128
▁immediately	128
▁serious	128
▁stick	128
▁Education	128
▁clients	128
▁removal	128
▁measuring	128
▁responsibility	128
eous	128
▁administrative	127
▁minute	127
▁saved	127
▁facilitate	127
▁symbols	127
▁feedback	127
▁eccentricity	127
▁initially	127
▁consistent	127
▁import	127
▁segment	127
ok	127
▁desktop	127
▁yourself	127
fully	127
the	127
▁fitted	127
▁downward	127
▁cloning	127
Thank	127
▁reserves	127
▁Chebyshev	127
▁conjugate	127
▁discover	126
▁moved	126
less	126
▁variations	126
▁thought	126
▁eigenvectors	126
▁specifically	126
▁suggest	126
▁cryptographic	126
▁mark	126
▁}.	126
▁congruent	126
▁Cos	126
Make	125
▁soon	125
▁Business	125
_	125
▁lost	125
▁efforts	125
Some	125
▁coordinates	125
▁Sin	125
▁GraphPad	125
▁cytometry	125
▁status	124
▁sun	124
▁differentiate	124
▁relate	124
▁Communication	124
▁spline	124
▁return	124
▁bridge	124
“	124
▁firewall	124
▁indicate	124
▁Equation	124
▁∑	124
▁port	123
▁Dear	123
▁certificates	123
▁impossible	123
▁overview	123
▁tendency	123
▁progress	123
▁bi	123
▁Colour	123
▁figures	123
▁upward	123
▁theft	123
▁dominant	123
▁skewed	123
▁nonparametric	123
▁becoming	122
▁operators	122
▁packet	122
▁retrieve	122
▁sectors	122
ally	122
nless	122
▁simultaneous	122
▁subsequent	122
▁labels	122
▁Vector	122
▁reasoning	122
▁Correlation	122
^-	122
▁cybersecurity	121
An	121
▁Arnold	121
▁productivity	121
▁computation	121
▁intended	121
▁game	121
▁master	121
▁lie	121
▁connections	121
▁crucial	121
”	121
▁consumer	121
▁measurements	121
▁biased	121
▁diffusion	121
▁establish	120
▁opponent	120
▁Advantages	120
▁sky	120
▁Different	120
▁articles	120
▁retrieval	120
▁hit	120
▁disconnected	120
▁algebraic	120
▁MAC	120
▁spherical	120
▁bracket	120
erated	120
▁Median	120
After	119
▁semi	119
▁believe	119
▁technological	119
▁Cipher	119
▁Other	119
▁Pen	119
▁Till	119
▁fragments	119
▁named	119
▁Test	119
▁formulas	119
▁possibility	118
▁plain	118
▁capabilities	118
▁supports	118
▁effectiveness	118
▁analyzing	118
▁combinations	118
▁diagrams	118
▁Work	118
▁separating	118
▁passing	118
▁Open	118
▁family	118
▁completed	118
▁cardinality	118
▁loan	118
▁Series	118
▁hands	117
▁gave	117
▁accessible	117
▁creative	117
▁computed	117
▁smallest	117
▁peaks	117
▁induction	117
▁experts	117
▁controller	117
▁divid	117
▁literature	117
▁Price	117
∪	117
▁investments	117
▁enhance	116
▁review	116
▁parent	116
▁views	116
▁complexity	116
▁thereby	116
▁Non	116
▁society	116
▁illustration	116
▁ultimately	116
▁centrifuge	116
▁Deviation	116
▁cyberspace	115
Next	115
▁Science	115
▁setup	115
▁owner	115
ers	115
▁bipartite	115
▁corporate	115
▁methodology	115
▁Cartesian	115
▁thinking	115
▁prepare	115
▁intermediate	115
▁CIET	115
▁...	115
▁equivalence	115
▁Sanger	115
▁Kurtosis	115
▁themselves	114
▁opportunities	114
▁signatures	114
▁pictures	114
▁gone	114
▁videos	114
you	114
▁led	114
▁growing	114
▁receiving	114
▁simultaneously	114
▁PC	114
▁reader	114
▁pixels	114
▁simplest	114
▁di	114
▁fourteen	114
▁Calculate	114
▁variability	114
▁eigen	114
▁Economics	114
▁+...	114
▁institutions	113
At	113
▁authorized	113
▁engines	113
▁translate	113
▁probabilities	113
▁allowing	113
ive	113
How	113
▁cyclic	113
▁restriction	113
▁predictor	113
▁quasi	113
▁trials	113
▁isolate	112
▁Design	112
▁million	112
▁intelligent	112
▁yeah	112
▁contradiction	112
▁validation	112
▁Bank	112
▁treated	112
▁chromatic	112
▁strength	112
▁visualization	112
▁rupees	112
±	112
▁categorical	111
▁somewhere	111
▁directions	111
▁beam	111
▁wages	111
▁transmitted	111
▁coloring	111
▁fluid	111
▁scanner	111
▁bond	111
▁buying	111
▁hair	111
▁grad	111
With	111
▁held	111
▁statistically	111
▁gauss	111
▁script	110
▁answers	110
▁font	110
▁travel	110
▁hierarchical	110
▁optimization	110
▁drop	110
▁randomly	110
▁frames	110
▁hide	110
▁glass	110
▁existence	110
▁momentum	110
▁autonomous	110
▁Whenever	110
▁qualitative	110
▁involve	110
▁correction	110
▁polygon	110
▁contribute	110
▁predicted	110
▁Show	110
▁wealth	110
▁ions	110
▁hydrogen	110
orthern	110
▁privileges	109
▁photograph	109
▁mathematics	109
▁sizes	109
▁capability	109
▁Unit	109
▁Adobe	109
▁Application	109
By	109
▁driven	109
▁extracted	109
▁diameter	109
▁gap	109
▁analyzed	109
▁gradients	109
▁High	109
▁replacement	109
▁poly	109
U	109
▁bucket	109
▁Market	109
ur	109
▁extended	109
▁peer	109
▁derivatives	109
▁commodities	109
▁decided	108
▁currently	108
▁recall	108
▁Software	108
▁profit	108
▁download	108
▁patients	108
▁although	108
▁slightly	108
▁trail	108
arious	108
▁criminals	108
▁employed	108
▁o	108
▁trace	108
▁rendered	108
▁Text	108
▁reject	108
▁homogeneous	108
uthern	108
▁rising	108
▁CT	108
▁smart	107
▁reliable	107
▁facility	107
Each	107
▁became	107
▁issued	107
▁accessing	107
▁utilize	107
▁labour	107
ous	107
▁recovery	107
▁finance	107
▁child	107
▁Kerberos	107
▁More	107
▁Taylor	107
▁aqu	107
▁kurtosis	107
▁communicating	106
▁Thank	106
▁rename	106
▁genetic	106
▁researchers	106
▁reduc	106
▁ethical	106
▁arrive	106
▁took	106
▁flat	106
▁news	106
▁Hi	106
▁centre	106
Z	106
▁instruments	106
▁lastly	106
▁rapid	106
▁dots	106
▁distances	106
five	106
▁analytics	106
▁modul	106
▁formation	106
▁Swayam	106
▁tissues	106
▁completion	105
▁performs	105
▁installed	105
▁prefer	105
▁watch	105
▁photographs	105
▁Research	105
▁pheromone	105
▁recognize	105
▁expectation	105
▁ink	105
▁Lambert	105
▁wish	105
▁clinical	105
cal	105
▁reporter	105
▁blots	105
▁Use	104
▁Simpson	104
▁Scholar	104
▁algebra	104
▁thousands	104
▁matters	104
▁examination	104
Right	104
▁charts	104
▁absorb	104
▁automatic	104
▁expressions	104
▁Records	104
▁Delhi	104
▁destination	104
▁lots	104
gt	104
▁Government	104
▁Both	103
▁guide	103
▁consideration	103
ial	103
▁electro	103
]	103
▁board	103
▁fraud	103
▁focusing	103
▁locations	103
▁international	103
▁fire	103
▁chat	103
▁Authentication	103
▁opened	103
▁reality	103
▁allocation	103
▁bonds	103
▁loans	103
▁Eigenvalues	103
▁insulin	103
▁radioactive	103
▁marker	103
▁aid	102
▁serial	102
▁listed	102
▁plant	102
▁zoom	102
▁maps	102
▁disadvantage	102
▁seeing	102
▁recognition	102
▁monitoring	102
▁formats	102
ability	102
▁victim	102
▁recording	102
▁modes	102
▁displayed	102
▁exploit	102
▁loaded	102
▁pn	102
▁tangent	102
▁electron	102
▁Direct	102
▁PDE	102
▁Hope	101
▁intellectual	101
▁classify	101
G	101
▁functioning	101
▁defining	101
▁positions	101
▁exposure	101
▁English	101
▁television	101
▁carefully	101
▁Can	101
▁salary	101
▁SSL	101
▁transit	101
▁culture	101
▁chordal	101
▁texturing	101
▁passed	101
▁absolutely	101
▁generates	101
▁planned	101
▁phenomena	101
▁union	101
▁firms	101
▁Eigenvalue	101
)-	101
▁Tukey	101
square	101
▁binds	101
▁cities	100
▁MOOC	100
▁computational	100
▁familiar	100
▁involving	100
▁drives	100
▁Not	100
Data	100
distribution	100
▁incorrect	100
▁vice	100
▁Type	100
▁meant	100
▁ui	100
▁species	100
▁dt	100
▁stranded	100
▁tracking	99
▁spent	99
▁remov	99
▁costs	99
▁panels	99
degree	99
▁transformations	99
▁throw	99
▁header	99
▁anyone	99
▁descent	99
▁optimal	99
▁candidate	99
log	99
▁hybrid	99
▁household	99
▁regions	99
▁Harmoni	99
▁install	98
▁deleted	98
▁asymmetric	98
▁exposed	98
▁Given	98
▁interfaces	98
▁taught	98
▁wanted	98
▁Encryption	98
▁empty	98
▁continuously	98
▁monitors	98
▁empirical	98
▁boxes	98
▁successive	98
▁aij	98
▁iii	98
▁normality	98
▁disjoint	97
▁Prof	97
▁confidential	97
▁challenge	97
▁paid	97
▁covers	97
▁shading	97
▁ever	97
▁knows	97
▁roles	97
▁People	97
▁stream	97
▁colorable	97
tries	97
▁designs	97
▁gold	97
▁century	97
▁RAM	97
▁Mathematical	97
▁pretty	97
See	97
▁Macro	97
▁specificity	97
▁Discret	97
▁bacterial	97
▁nucleotides	97
▁rely	96
▁simplified	96
▁Table	96
▁covariance	96
▁prototyping	96
▁won	96
▁month	96
▁grouped	96
▁Professor	96
▁seem	96
▁runs	96
▁Operat	96
▁zeros	96
χ	96
▁tri	96
▁stated	96
▁retention	96
▁differ	96
▁isomorphism	96
▁paired	96
▁enzymes	96
▁sine	96
▁insect	96
\,...	96
▁Skewness	96
▁trusted	95
▁serves	95
▁varies	95
▁currencies	95
▁synthesis	95
▁assignments	95
▁firm	95
▁''	95
▁pen	95
▁router	95
▁LAN	95
▁elimination	95
▁outline	95
▁tape	95
H	95
▁heterogeneous	95
▁switching	95
▁Transfer	95
▁flexible	95
▁shapes	95
▁absorbance	95
▁finished	94
▁compose	94
▁medical	94
▁searching	94
▁utility	94
▁food	94
▁syntax	94
▁essentially	94
▁Generally	94
▁movie	94
▁intersection	94
lying	94
▁OLAP	94
Since	94
▁rich	94
▁Database	94
▁late	94
▁adequate	94
▁collecting	94
▁sigmoid	94
▁contingency	94
▁industrial	94
scending	94
▁gross	94
▁approximated	94
eq	94
▁tumor	94
▁surfaces	93
▁versions	93
coming	93
▁ethics	93
▁programmer	93
▁overcome	93
▁keyword	93
▁File	93
▁numerous	93
▁supported	93
▁ease	93
▁marked	93
▁super	93
▁pieces	93
▁viewport	93
▁kernel	93
like	93
▁detecting	93
▁residual	93
▁outliner	93
tatistical	93
▁connects	93
▁thirteen	93
Δ	93
▁corrector	93
▁chromatograph	93
homogeneous	93
▁rough	92
▁incidence	92
▁acceptable	92
▁spaces	92
▁notes	92
▁specialized	92
▁yield	92
▁historical	92
▁games	92
est	92
▁Manager	92
▁ensuring	92
▁Bayesi	92
▁arc	92
▁Graph	92
▁Theory	92
▁mixed	92
▁seventeen	92
▁unknowns	92
▁OY	92
▁lens	91
▁blank	91
▁hacker	91
▁requests	91
▁Follow	91
▁channels	91
▁mechanical	91
▁package	91
▁array	91
▁contained	91
''\,	91
▁menus	91
▁publishing	91
▁primarily	91
▁Actually	91
▁decreases	91
▁infected	91
▁mutual	91
▁grow	91
▁vital	91
▁plates	91
▁Continuous	91
▁restricted	91
No	91
▁tan	91
▁devote	91
▁profits	91
▁released	91
▁cap	91
/(	91
▁bases	91
▁incomes	91
▁Chi	91
▁Mell	91
▁liquidity	91
▁Quartile	91
▁filtration	91
▁prototype	90
▁lighter	90
▁markers	90
▁experiences	90
▁spectrum	90
▁analyse	90
▁Insert	90
▁arrow	90
▁competition	90
▁careful	90
▁absence	90
▁wire	90
▁precise	90
▁projects	90
▁calculator	90
▁possess	90
▁differentiation	90
▁overlap	90
▁separately	90
rought	90
▁estimation	90
▁fe	90
aphs	90
∇	90
▁salt	90
▁CPS	89
▁Fifth	89
▁clean	89
▁rapidly	89
▁focused	89
▁mention	89
▁valuable	89
▁pixel	89
▁calls	89
▁proportions	89
▁Linux	89
▁Organisation	89
▁User	89
▁Statistics	89
▁Geometric	89
▁immobilized	89
▁Dispersion	89
▁ad	88
▁playing	88
Hence	88
▁unchanged	88
▁et	88
▁Usually	88
▁thin	88
is	88
▁grouping	88
▁NCERT	88
▁duties	88
▁occurred	88
▁implicit	88
▁peripheral	88
▁sick	88
▁ai	88
▁hat	88
▁colored	88
▁formulae	88
▁yn	88
▁emission	88
▁reagent	88
▁purified	88
▁Phi	88
▁Systems	87
responsibilities	87
▁businesses	87
▁correspondence	87
▁orders	87
▁trend	87
▁promote	87
▁packages	87
▁accounting	87
▁stationery	87
▁viewed	87
▁static	87
▁wash	87
▁ReLU	87
▁perfectly	87
▁land	87
▁sentence	87
▁auxi	87
▁tested	87
▁Individual	87
▁returns	87
▁complementary	87
▁undergo	87
▁cleaning	87
▁goodness	87
▁drugs	87
▁Spearman	87
▁proteomics	87
▁Forms	86
▁constraints	86
▁Electronic	86
looked	86
elecommunication	86
▁managed	86
▁convey	86
ted	86
▁activated	86
▁plans	86
▁drawings	86
▁fragment	86
▁decoder	86
▁mere	86
▁spoken	86
▁agencies	86
▁article	86
parametric	86
▁provider	86
σ	86
▁bin	86
▁closely	85
▁routine	85
▁animate	85
▁invention	85
▁slowly	85
▁mistake	85
▁locate	85
▁merge	85
▁corner	85
▁bigger	85
▁broadcast	85
▁workplace	85
▁author	85
▁folder	85
▁Due	85
▁opening	85
▁wise	85
▁dark	85
▁chances	85
Another	85
▁clique	85
liar	85
▁textures	85
▁transparent	85
▁Basically	85
▁Multi	85
▁constraint	85
▁stay	85
▁Com	85
▁termed	85
abular	85
▁XY	85
▁Kd	85
▁AX	85
▁px	85
▁instructional	84
▁correctly	84
▁adopted	84
▁metrics	84
▁Change	84
▁expand	84
▁Policy	84
▁descriptive	84
▁utilized	84
▁decrypt	84
▁Service	84
▁authorization	84
▁linearly	84
▁leaves	84
▁Li	84
▁digest	84
However	84
▁asking	84
▁behaviour	84
▁framework	84
▁comfortable	84
▁counted	84
▁HTTP	84
▁lab	84
▁fashion	84
▁explains	84
▁Functions	84
▁multiplicative	84
rose	84
▁cDNA	84
▁ionization	84
▁platforms	83
▁numeric	83
ants	83
▁deliver	83
▁captured	83
▁sophisticated	83
▁respond	83
▁Primary	83
▁animated	83
▁Graphs	83
▁CA	83
▁bands	83
▁reveal	83
▁forum	83
▁legitimate	83
▁stress	83
latest	83
▁organisational	83
▁offline	83
▁heuristic	83
▁estimated	83
▁imagine	83
▁demanded	83
set	83
Again	83
▁falling	83
▁designers	83
▁OS	83
▁TCP	83
▁enhanced	83
▁arise	83
F	83
Hope	83
▁packets	83
▁heart	83
▁dynamics	83
▁evolved	83
▁schedule	83
▁th	83
▁solute	83
▁neutron	83
▁serum	83
▁ak	83
▁independently	82
▁Group	82
▁centralized	82
▁Public	82
▁ill	82
▁handled	82
▁arrange	82
▁Organization	82
▁conferencing	82
▁carrying	82
▁trivial	82
▁IDS	82
▁Chinese	82
▁caused	82
▁blend	82
▁reliability	82
▁reported	82
▁configuration	82
▁enforcement	82
▁shortcut	82
▁publication	82
▁relaxation	82
▁journalism	82
▁investigator	82
▁appearance	82
ne	82
Or	82
▁trap	82
▁organism	82
▁Supply	82
[	82
▁numerator	82
▁flexibility	81
▁Ok	81
▁traveling	81
▁wait	81
▁heavy	81
▁insurance	81
▁functionality	81
▁dealt	81
▁manuals	81
▁invented	81
necessarily	81
▁comprehensive	81
▁heads	81
▁abstract	81
▁ventilation	81
▁Virtual	81
▁distinguish	81
▁Value	81
L	81
▁encoder	81
▁join	81
▁Be	81
▁eyes	81
▁symmetry	81
▁Summary	81
▁securities	81
▁beads	81
▁Consumption	81
▁calcium	81
▁ct	81
▁Key	80
▁indexing	80
▁arrangement	80
▁academic	80
▁Relationship	80
Most	80
▁organizational	80
▁adds	80
▁erase	80
▁partitions	80
▁lifecycle	80
▁eventually	80
▁verification	80
▁phishing	80
▁rays	80
▁retain	80
▁loading	80
▁treat	80
▁suffer	80
▁branches	80
▁resistance	80
▁tubes	80
hemiluminescence	80
)/(	80
idal	80
▁workstation	79
▁dead	79
▁constitute	79
▁magazines	79
▁split	79
▁injection	79
▁accepted	79
▁illegal	79
▁consumers	79
▁metadata	79
▁View	79
granting	79
▁notice	79
▁compositing	79
▁Yes	79
▁realistic	79
▁lakh	79
▁Online	79
Control	79
ting	79
▁playblast	79
▁uv	79
▁adjusted	79
▁Though	79
▁highlight	79
▁standardized	79
▁Dr	79
▁investigations	79
▁gram	79
▁claim	79
▁minor	79
▁survey	79
▁odds	79
▁joined	79
▁visualize	79
▁Economic	79
▁expectations	79
▁routinely	79
▁transferr	78
▁canvas	78
▁asked	78
▁assess	78
▁powers	78
▁warehouses	78
▁voice	78
▁replicate	78
▁embedded	78
▁harm	78
▁backup	78
▁Objectives	78
▁cast	78
▁template	78
▁scientists	78
▁valued	78
▁utilization	78
▁segments	78
ies	78
▁extrude	78
▁purchased	78
▁spots	78
▁Manual	78
▁spot	78
AB	78
▁buffers	78
▁picking	78
▁populations	78
▁fallacy	78
▁nanopore	78
▁eigenfunction	78
▁weeks	77
▁stochastic	77
▁travell	77
sets	77
▁illusion	77
▁periodic	77
▁Obviously	77
▁checking	77
▁Multiple	77
▁intervention	77
▁brain	77
▁Services	77
▁worry	77
▁Remark	77
▁Examples	77
▁amplification	77
▁fo	77
▁installation	77
▁retained	77
▁strictly	77
▁cylindrical	77
▁consistency	77
▁Moore	77
▁repetitions	77
▁Multiplier	77
▁TLC	77
/√	77
▁Nu	77
▁cosine	77
▁supporting	76
▁electrical	76
▁darker	76
▁browsers	76
▁recover	76
▁Social	76
▁perception	76
▁budget	76
▁environments	76
▁transmit	76
▁awareness	76
▁principal	76
▁ordinal	76
▁administrator	76
um	76
▁expanded	76
▁filled	76
▁Message	76
▁reflection	76
▁modifications	76
▁stages	76
▁substituted	76
▁boundaries	76
▁improper	76
▁portable	76
▁dice	76
▁Calculation	76
▁plasma	76
▁Credit	76
▁substrate	76
▁fatt	76
ross	76
▁narrow	75
▁Index	75
▁privilege	75
▁purchasing	75
▁deliberate	75
▁encourage	75
▁dictionary	75
▁proceed	75
▁evaluated	75
▁export	75
le	75
▁Kn	75
▁Meaning	75
▁strand	75
▁vulnerable	75
▁dragging	75
▁tried	75
▁exterior	75
▁]\,	75
▁saturated	75
▁cylinder	75
▁envelope	75
▁none	75
▁pro	75
▁emitter	75
▁Limitations	75
▁era	75
▁Kar	75
▁Investment	75
▁specimen	75
▁phenol	75
▁deficit	75
▁hydrophobic	75
▁eluted	75
▁kth	75
*∑	75
▁Prim	74
▁universal	74
▁scans	74
going	74
▁Hav	74
▁IBM	74
▁tutoring	74
▁permission	74
▁improving	74
▁conducted	74
▁dou	74
▁skin	74
▁applies	74
▁adjustment	74
▁forces	74
▁PGP	74
ized	74
▁permit	74
▁tiny	74
▁Demand	74
▁Apriori	74
▁partitioning	74
▁Good	74
▁manufacturing	74
wise	74
▁unity	74
▁everyday	74
▁seconds	74
▁bye	74
▁western	74
▁reserve	74
▁OER	74
▁deposit	74
▁Cn	74
▁immun	74
▁rectangular	74
▁Cauchy	74
singular	74
▁analytes	74
▁spectrometry	74
▁OK	73
▁Assume	73
▁knowing	73
ment	73
▁alphabets	73
▁www	73
▁hundreds	73
▁simpler	73
▁custom	73
▁enabled	73
▁recommended	73
▁token	73
▁neurons	73
▁webpage	73
▁costly	73
Does	73
▁SPSS	73
▁defense	73
▁precision	73
▁Editor	73
▁Section	73
▁AND	73
▁turns	73
▁Factor	73
ization	73
▁decomposition	73
▁substance	73
▁sorting	73
▁Rate	73
▁IES	73
Whitney	73
▁imaginary	73
llary	73
▁Domestic	73
▁abelian	73
▁mRNA	73
▁promoter	73
▁Keynes	73
▁organelles	73
▁dp	73
▁complimentary	72
▁converting	72
▁mart	72
▁Filing	72
▁sessions	72
▁introduc	72
▁visitors	72
▁encrypt	72
▁delivered	72
▁broken	72
▁Human	72
▁typeface	72
▁estimates	72
▁DES	72
▁designer	72
▁debt	72
▁URL	72
▁ahead	72
▁infect	72
▁eigenvector	72
▁foundation	72
▁pull	72
▁improved	72
▁bars	72
▁versa	72
▁bones	72
ak	72
▁nor	72
▁Eigenvector	72
▁Simple	72
▁Exercise	72
▁radiation	72
▁df	72
▁squaring	72
β	72
...\,	72
▁faced	71
▁Engineering	71
▁developers	71
▁Size	71
▁structural	71
▁Warehouse	71
▁Symmetric	71
▁proposed	71
▁characterize	71
▁train	71
▁finds	71
▁Through	71
▁organizing	71
▁release	71
▁professionals	71
▁entirely	71
▁conclusions	71
ocal	71
▁USB	71
▁identifie	71
▁rid	71
▁subsets	71
▁revenue	71
▁Eigen	71
▁passive	71
▁trained	71
▁eigenvalue	71
▁displays	71
▁phones	71
▁supplied	71
▁preferred	71
▁preserving	71
▁worth	71
▁opt	71
▁attend	71
▁environmental	71
▁Illustration	71
▁confirm	71
rithmetic	71
▁subsequently	71
▁preceding	71
▁plots	71
▁speculati	71
▁residuals	71
▁biotin	71
▁berth	71
▁glucose	71
▁Celsius	71
▁gateway	70
▁recipient	70
▁ant	70
▁preference	70
▁father	70
▁basics	70
▁lectures	70
▁migration	70
▁offenses	70
▁specifies	70
▁shifting	70
▁plastic	70
▁organize	70
▁prevention	70
▁Cloud	70
▁Point	70
▁court	70
▁improves	70
▁asset	70
▁inserted	70
▁Autodesk	70
▁contraction	70
▁enjoy	70
▁meta	70
▁birth	70
▁copied	70
▁denial	70
▁wage	70
▁adopt	70
▁Sigma	70
▁Otherwise	70
▁generator	70
▁permutations	70
▁probable	70
▁Dirichlet	70
▁ml	70
▁resin	70
▁Binomial	70
▁everybody	69
▁Deep	69
▁govern	69
▁verified	69
▁Moreover	69
▁alter	69
▁attempts	69
▁highlighted	69
▁road	69
▁theories	69
▁hyper	69
▁tutorials	69
▁TV	69
▁immediate	69
▁centers	69
▁machinery	69
▁placement	69
▁filters	69
▁Merge	69
▁creativity	69
▁Only	69
▁excess	69
▁tagged	69
▁blur	69
▁obtaining	69
▁credentials	69
▁wherever	69
▁bio	69
▁native	69
▁inner	69
▁Object	69
▁political	69
▁Sample	69
▁spectroscopy	69
=(	69
▁staining	69
▁begins	68
▁Ma	68
▁administration	68
▁instant	68
▁nowadays	68
▁Three	68
▁millions	68
▁softwares	68
▁committed	68
▁flaws	68
▁elsewhere	68
▁Well	68
▁hot	68
▁coding	68
▁supplement	68
▁accordingly	68
▁college	68
▁incorporated	68
▁Development	68
▁preferences	68
▁possibilities	68
▁merits	68
▁nearest	68
magnetic	68
▁coated	68
▁labelled	68
▁limitation	68
▁confo	68
▁Friedman	68
crowding	68
▁ICT	67
▁spam	67
▁stand	67
▁windows	67
aided	67
▁shifts	67
▁briefly	67
▁offered	67
▁regularly	67
▁facilitates	67
▁Linear	67
▁specially	67
▁procedural	67
▁OR	67
▁occurring	67
▁illustrations	67
▁John	67
▁perhaps	67
▁Model	67
▁robust	67
▁member	67
▁Error	67
▁Planning	67
▁negatively	67
</	67
▁choices	67
▁Regression	67
▁International	67
▁nice	67
▁Bi	67
▁optimum	67
▁Range	67
▁HPLC	67
▁Xn	67
▁Pf	67
affi	67
▁neighbor	66
▁comprises	66
▁US	66
▁recently	66
▁incomplete	66
▁showed	66
▁Click	66
▁HTML	66
▁signs	66
▁Cost	66
▁mapped	66
▁decay	66
▁abstraction	66
▁<?></?>	66
▁iterations	66
▁corrected	66
▁prescribed	66
▁industries	66
▁TGS	66
en	66
▁fac	66
ir	66
▁iterative	66
▁preserve	66
▁Right	66
▁unsupervised	66
▁parties	66
▁slower	66
▁permissible	66
▁successfully	66
▁Post	66
▁curl	66
▁difficulties	66
▁react	66
▁sell	66
▁entertainment	66
▁intuitive	66
▁additive	66
▁diagnosis	66
▁positively	66
▁Approach	66
▁nuclea	66
ui	66
▁microarray	66
▁unemployment	66
▁Fisc	66
▁Chip	66
▁whisker	66
▁excitation	66
▁Lecture	65
▁frauds	65
▁closer	65
▁precisely	65
▁death	65
▁healthy	65
▁advertising	65
▁unstructured	65
▁productive	65
▁General	65
▁implementing	65
▁participat	65
▁preserved	65
▁satellite	65
▁opportunity	65
lease	65
▁schemes	65
▁possibly	65
el	65
by	65
▁conceptual	65
▁cables	65
user	65
▁improvement	65
▁apart	65
▁spacing	65
▁classifier	65
▁registers	65
▁compact	65
▁pause	65
▁diverse	65
▁composite	65
▁activation	65
▁relat	65
▁sciences	65
▁Average	65
▁gels	65
▁Mann	65
ggregate	65
)(	65
▁tone	64
▁beautiful	64
▁wheel	64
▁initialization	64
▁clone	64
▁secured	64
▁incidents	64
▁incorporate	64
▁acyclic	64
▁massive	64
▁assist	64
▁families	64
▁entered	64
▁paradigm	64
▁happy	64
▁caus	64
▁simplicity	64
▁unlike	64
▁opacity	64
▁seek	64
▁sparse	64
▁programmers	64
▁Effect	64
▁responses	64
▁folders	64
▁consequences	64
▁targets	64
▁newspaper	64
Suppose	64
▁Sciences	64
▁ranges	64
▁phenomenon	64
▁Output	64
ental	64
Second	64
▁reconstruction	64
▁mistakes	64
▁Level	64
▁periods	64
▁absent	64
▁offender	64
▁vi	64
▁driver	64
▁male	64
▁Schro	64
▁inference	64
▁toss	64
▁bn	64
▁iso	64
ominal	64
ezo	64
trivial	63
▁Visual	63
▁authenticate	63
▁restrict	63
▁partitioned	63
ised	63
Go	63
▁appreciate	63
▁focuse	63
▁tags	63
▁wireframe	63
▁typography	63
▁Processing	63
▁typing	63
▁funds	63
▁furniture	63
▁Physical	63
▁joining	63
▁convolution	63
▁Adam	63
▁realize	63
▁drawback	63
▁Basic	63
▁preparing	63
▁motivation	63
▁excellent	63
▁Look	63
▁ij	63
▁men	63
reaches	63
▁abundant	63
▁coins	63
▁tenth	63
▁consuming	63
▁diseases	63
▁elaborate	63
▁reads	63
▁Total	63
▁purity	63
dinger	63
▁reactions	63
▁genomic	63
▁OQ	63
▁chloroform	63
▁lysis	63
่	63
ε	63
▁nanometer	63
▁chromatin	63
▁Permutation	63
▁homomorphism	63
▁geographical	62
▁subordinates	62
▁convenience	62
Will	62
▁accurately	62
▁speech	62
▁attractive	62
▁dedicated	62
▁exercise	62
▁Depending	62
▁providers	62
▁cloth	62
▁amounts	62
▁Priva	62
▁mix	62
▁speak	62
▁Standards	62
▁tips	62
▁achieving	62
▁basket	62
▁bouncing	62
▁describ	62
▁prone	62
▁copper	62
▁neither	62
▁conflict	62
▁inconsistent	62
▁medicine	62
yn	62
▁augmented	62
▁acidic	62
▁recurrence	62
onical	62
▁capi	62
Wallis	62
▁literacy	61
▁align	61
▁spatial	61
▁collaboration	61
▁encoded	61
▁scripts	61
▁Boolean	61
O	61
▁retrieved	61
▁compromise	61
▁films	61
▁updating	61
▁categorized	61
▁terminal	61
▁Search	61
▁initialize	61
▁worked	61
end	61
▁GIS	61
▁visuals	61
▁rectangle	61
▁xj	61
▁indices	61
wanted	61
▁station	61
▁gate	61
▁difficulty	61
▁mission	61
▁transfers	61
▁challenging	61
▁entering	61
▁subscript	61
▁concentrate	61
▁speaking	61
▁factory	61
▁logarithm	61
▁purchases	61
▁worldwide	61
▁skew	61
▁Measure	61
▁ex	61
▁happiness	61
▁Relative	61
arter	61
diagonal	61
▁symmetrical	61
▁commutative	61
▁OM	61
▁Modern	60
▁launch	60
▁checked	60
▁agency	60
▁visit	60
ry	60
▁superior	60
▁transition	60
▁salesman	60
▁constructing	60
▁Resource	60
▁thumb	60
▁Line	60
▁Memory	60
▁modal	60
▁Doctor	60
▁Conclusion	60
▁slash	60
▁enormous	60
▁Mathematica	60
▁placing	60
▁freeze	60
▁earth	60
▁Properties	60
▁profiles	60
▁Biology	60
▁counting	60
▁interchange	60
▁young	60
▁pore	60
▁recessive	60
▁disposable	60
▁unequal	60
▁refine	59
▁Art	59
▁institution	59
▁adjacency	59
▁grant	59
▁collective	59
▁dis	59
▁Out	59
▁SET	59
▁participation	59
▁readers	59
▁Storage	59
▁lesson	59
▁max	59
▁somebody	59
▁trick	59
▁inherent	59
▁Language	59
Many	59
▁Case	59
▁transforms	59
ng	59
▁inventory	59
synchronous	59
▁instances	59
▁subtract	59
▁ca	59
▁physics	59
Example	59
▁Edit	59
▁signed	59
▁inquiry	59
▁inspection	59
▁substances	59
▁regulatory	59
text	59
→	59
▁Low	59
▁illustrated	59
▁voltage	59
▁pores	59
rd	59
▁strands	59
▁molar	59
▁rotor	59
▁purify	59
▁pq	59
∴	59
▁deleting	58
▁WAN	58
|.	58
La	58
▁Apart	58
▁dangerous	58
▁launched	58
▁selling	58
▁finish	58
▁participate	58
▁conditional	58
▁checks	58
▁deployment	58
▁Phong	58
▁ESP	58
▁attachment	58
▁rational	58
▁gun	58
PG	58
▁rain	58
▁movements	58
▁individually	58
▁Function	58
▁mask	58
tic	58
▁icon	58
▁fails	58
▁Mac	58
▁communities	58
▁Importance	58
▁intersect	58
▁ply	58
▁Blinn	58
▁outer	58
▁ac	58
▁Studies	58
▁tender	58
▁Laplac	58
▁deflation	58
▁denature	58
▁immunoassay	58
▁xyz	58
▁nonspecific	58
▁sulfate	58
▁Instead	57
▁sixth	57
▁Integrity	57
▁scanners	57
▁Disadvantages	57
▁ITS	57
▁viewing	57
▁domains	57
▁developments	57
▁shorter	57
▁incoming	57
▁disturb	57
▁rigging	57
▁went	57
so	57
▁animal	57
▁inequality	57
▁recognized	57
▁Add	57
▁orange	57
ranging	57
▁suggests	57
▁encoding	57
▁adapt	57
▁Algorithm	57
▁Tools	57
▁assembly	57
▁unusual	57
▁depression	57
▁billion	57
▁eliminated	57
▁simulate	57
▁Anti	57
▁suffix	57
▁door	57
▁welfare	57
▁balls	57
▁bell	57
▁Bn	57
▁Burger	57
▁Tn	57
▁zai	57
∊	57
▁feed	56
▁contract	56
▁auditing	56
▁atmosphere	56
▁Vi	56
∈	56
Before	56
▁finger	56
▁investigators	56
ance	56
▁physically	56
▁buckets	56
▁Ray	56
Today	56
▁shifted	56
▁State	56
▁epoch	56
▁interference	56
creasingly	56
▁scalar	56
▁workflow	56
▁interacting	56
▁Techniques	56
▁fonts	56
▁styles	56
▁MD	56
▁continues	56
▁female	56
▁Go	56
▁matched	56
▁labeling	56
▁AD	56
▁heterogeneity	56
mpirical	56
▁cf	56
▁summarization	56
▁ungraded	56
▁positron	56
▁exponent	55
▁antivirus	55
▁specification	55
▁weaknesses	55
▁aids	55
▁thank	55
▁lose	55
▁exploring	55
▁ETL	55
▁uniquely	55
▁fed	55
▁representations	55
▁ciphers	55
▁strokes	55
▁compatible	55
▁avoided	55
level	55
▁secur	55
▁flash	55
▁targeted	55
▁executive	55
Well	55
▁RBI	55
▁Trojan	55
▁player	55
▁Layer	55
▁commit	55
▁authenticity	55
▁Applications	55
▁maintains	55
▁proxy	55
▁straightforward	55
▁whom	55
▁transmitting	55
▁suggested	55
▁downloaded	55
▁depreciation	55
▁atomic	55
▁failures	55
▁Paper	55
▁precaution	55
▁milk	55
▁smoke	55
▁fluctuations	55
ray	55
▁disrupt	55
▁wonderful	55
▁absorbed	55
▁pie	55
▁amplified	55
▁diagnostic	55
order	55
▁differently	54
▁confusion	54
▁advance	54
▁Re	54
▁operated	54
▁employ	54
▁coupled	54
▁Structure	54
▁dialogue	54
tiary	54
▁receives	54
▁earn	54
▁repetition	54
▁jurisdiction	54
▁inductive	54
two	54
▁Alice	54
▁automation	54
▁viral	54
turned	54
▁duplication	54
▁rooms	54
▁Corel	54
▁gravity	54
▁shaped	54
▁feet	54
keys	54
▁Take	54
▁comprehend	54
▁ultimate	54
▁Al	54
▁wherein	54
▁sharp	54
▁agree	54
▁IDEA	54
Learning	54
▁physiological	54
▁Class	54
▁music	54
▁regularization	54
▁accomplish	54
▁reservation	54
▁informal	54
▁dear	54
▁resolve	54
▁extensive	54
▁silver	54
▁journals	54
▁eliminat	54
▁simplify	54
▁}\,	54
▁cameras	54
▁subjected	54
▁pool	54
▁Measures	54
▁contamination	54
▁Yi	54
▁truncati	54
▁detectors	54
▁paperless	53
▁browsing	53
▁underscore	53
▁gathering	53
▁endpoint	53
▁coordination	53
▁severe	53
▁listening	53
▁vendors	53
▁mails	53
▁Computers	53
▁talks	53
▁worms	53
▁XOR	53
▁Cyberspace	53
▁explicitly	53
▁processors	53
▁transparency	53
▁priority	53
▁Sum	53
▁amendments	53
▁ALU	53
▁blocking	53
▁Blur	53
▁duration	53
▁predictive	53
▁transforming	53
▁Trust	53
▁Box	53
▁retrieving	53
▁positives	53
▁initiated	53
▁regulations	53
▁vacuum	53
▁Shift	53
▁app	53
▁statistician	53
▁paste	53
▁intact	53
▁gains	53
▁engagement	53
▁tapes	53
▁charges	53
▁Clearly	53
▁grey	53
▁dual	53
ai	53
▁tridiagonal	53
Nase	53
▁reagents	53
▁bead	53
▁chloride	53
▁primers	53
▁typefaces	52
▁span	52
▁jump	52
▁Logic	52
▁Methods	52
▁forums	52
▁artwork	52
▁expanding	52
▁terminology	52
▁explaining	52
▁stylometry	52
▁multivariate	52
size	52
▁fewer	52
▁preventing	52
face	52
▁directory	52
▁headings	52
▁Privacy	52
▁ensured	52
▁constantly	52
▁circulation	52
▁Email	52
▁hoc	52
▁buttons	52
▁roll	52
▁disruption	52
at	52
▁flip	52
▁concerns	52
▁kit	52
▁silica	52
▁band	52
▁replac	52
▁streptavidin	52
▁Biostatistics	52
)=(	52
▁Charpit	52
=∑	52
▁antibiotic	52
immunoprecipitat	52
man	51
gan	51
lways	51
▁Corollary	51
▁referring	51
▁gender	51
▁months	51
▁meeting	51
aims	51
assisted	51
▁attackers	51
▁sale	51
▁scientist	51
▁stories	51
▁beings	51
▁stack	51
▁bandwidth	51
▁corollary	51
▁helped	51
▁validity	51
ite	51
▁retail	51
▁disc	51
nearly	51
▁Problems	51
▁bump	51
▁presentations	51
▁discipline	51
▁personality	51
▁pace	51
▁Eigenvectors	51
▁maximize	51
▁modulus	51
▁discussions	51
▁flows	51
▁sheets	51
▁Normal	51
▁popularity	51
Like	51
▁beauty	51
▁rare	51
▁CBC	51
▁Cam	51
▁met	51
▁My	51
▁consumed	51
▁assigning	51
▁redundancy	51
▁outputs	51
▁specifications	51
▁breaking	51
▁PA	51
▁Firstly	51
▁subtracted	51
▁volumes	51
▁Bernoulli	51
▁interpreted	51
▁unbiased	51
▁decline	51
▁fusion	51
rank	51
▁cn	51
▁Cash	51
▁residues	51
▁cleave	51
▁sodium	51
▁radioactivity	51
▁peptide	51
▁albumin	51
▁determinants	51
coli	51
▁comparative	50
▁lock	50
▁ROM	50
first	50
▁Entity	50
▁expertise	50
▁picked	50
▁transactional	50
▁victims	50
▁requested	50
▁readable	50
▁supplies	50
▁subtracting	50
▁push	50
▁Eraser	50
▁Those	50
▁ordering	50
▁theorems	50
▁indicated	50
▁Role	50
▁Geographic	50
▁glow	50
▁judge	50
▁stretch	50
▁participants	50
▁blow	50
▁Conversely	50
▁bulk	50
▁IIT	50
▁coded	50
▁demonstrate	50
▁Hall	50
▁desirable	50
▁emit	50
▁stat	50
▁ignored	50
▁acquisition	50
▁leakages	50
▁Short	50
▁grown	50
▁engage	50
▁compensation	50
▁truly	50
▁PCA	50
▁Column	50
▁correlated	50
▁mono	50
▁plants	50
▁deductive	50
▁atoms	50
▁triple	50
term	50
▁graded	50
].	50
▁immuno	50
▁polyacrylamide	50
∑	50
⁄	50
▁desk	49
▁sensors	49
▁players	49
dras	49
▁Sir	49
▁Server	49
▁visualisation	49
▁SMS	49
▁laundering	49
▁messaging	49
▁drill	49
▁worksheet	49
▁FTP	49
▁equipments	49
▁license	49
▁Increase	49
ar	49
▁authentic	49
▁bold	49
▁st	49
▁experienced	49
▁viewer	49
▁fur	49
▁humans	49
▁staging	49
▁largely	49
▁animals	49
▁director	49
▁Optical	49
▁termination	49
▁worker	49
▁demerits	49
▁owners	49
▁horse	49
▁temporary	49
▁newly	49
dvanced	49
ter	49
▁personalized	49
▁expenses	49
oolean	49
▁Rn	49
it	49
▁displacement	49
▁Exchange	49
▁injections	49
▁fail	49
▁Random	49
▁Large	49
▁overlapping	49
▁comfort	49
▁carbon	49
▁inspect	49
▁elliptic	49
▁Medical	49
▁sugar	49
▁transfection	49
▁Interval	49
▁recession	49
hebyshev	49
▁phosphate	49
▁FITC	49
▁multiplicity	49
+(	49
▁parity	48
▁vast	48
▁plagiarism	48
▁combin	48
▁simulation	48
▁indicat	48
cetera	48
▁Classification	48
▁pointer	48
▁foot	48
▁spreadsheets	48
▁audits	48
▁emphasize	48
▁generalization	48
▁weather	48
▁newspapers	48
▁Users	48
▁night	48
▁formatting	48
▁Flow	48
▁comments	48
▁official	48
▁disposal	48
▁heard	48
▁cursor	48
▁acting	48
▁flaw	48
▁tolerance	48
▁economists	48
▁offset	48
office	48
▁border	48
▁intercept	48
▁conversion	48
▁messenger	48
▁laboratory	48
▁communicated	48
▁copying	48
OR	48
nd	48
▁datasets	48
▁curved	48
▁Choos	48
▁Brush	48
▁discarded	48
▁departmental	48
▁interfere	48
▁submit	48
▁abroad	48
▁Edge	48
▁subdivision	48
▁fragmented	48
▁Production	48
▁sold	48
▁lift	48
▁Part	48
▁bills	48
▁downstream	48
▁fluorophores	48
▁lysate	48
xy	48
▁bivariate	48
▁alkali	48
fi	48
▁ligands	48
▁centrifug	48
▁pellet	48
▁phenotype	48
'(	48
pra	47
▁registered	47
▁permissions	47
▁com	47
▁greatly	47
▁neutral	47
▁laterwards	47
as	47
▁enterprises	47
▁university	47
▁restaurant	47
▁fresh	47
▁cars	47
▁Fill	47
▁newer	47
▁laptop	47
▁citation	47
▁provision	47
▁unnecessary	47
▁regards	47
▁guys	47
Computer	47
▁Authority	47
▁boards	47
▁Everyone	47
▁reasonable	47
▁movies	47
▁analyzer	47
▁stolen	47
ack	47
▁Purchase	47
▁negatives	47
▁AA	47
▁beneficial	47
Yes	47
▁Sub	47
▁Start	47
▁arises	47
▁pipeline	47
▁truth	47
▁deletion	47
▁presenting	47
▁spin	47
▁belonging	47
commerce	47
▁balanced	47
▁sometime	47
▁BA	47
▁logistic	47
▁decreased	47
▁accelerate	47
▁infrared	47
▁decreasing	47
▁revolution	47
▁Negative	47
▁Substituting	47
▁organisms	47
▁cleavage	47
sin	47
▁anion	47
▁ionic	47
▁denaturation	47
▁APC	47
▁Wi	46
▁Animation	46
▁fingerprint	46
▁tossing	46
line	46
▁friendly	46
▁Power	46
▁hole	46
▁roughly	46
▁everywhere	46
▁prey	46
▁older	46
▁Caesar	46
▁keyboards	46
▁accessibility	46
▁Reserve	46
▁compromised	46
▁exchang	46
▁gather	46
▁documentation	46
▁scheduling	46
▁insight	46
▁establishing	46
▁hazards	46
▁chemistry	46
▁regulation	46
▁login	46
▁Among	46
peech	46
▁carries	46
▁altered	46
▁breach	46
▁mathematician	46
▁Financial	46
▁Co	46
IP	46
▁boot	46
▁archive	46
▁visiting	46
▁lung	46
▁bake	46
▁du	46
▁dependence	46
▁commercially	46
▁inferences	46
electric	46
▁Lognormal	46
▁Absolute	46
▁taxation	46
onetary	46
̅	46
▁LU	46
▁fractionation	46
▁organelle	46
▁cabinets	45
▁granted	45
▁genetics	45
▁attitude	45
▁analysing	45
▁eviden	45
▁digraph	45
▁CAI	45
▁bytes	45
Social	45
▁Create	45
▁aligned	45
▁anomaly	45
▁financing	45
▁pop	45
▁qualities	45
▁unlimited	45
▁irregular	45
atic	45
▁situated	45
▁intuition	45
▁triangle	45
▁impression	45
▁scaling	45
▁mini	45
▁internally	45
▁tuple	45
▁firewalls	45
▁omni	45
▁associative	45
▁bitmap	45
▁Form	45
▁Pi	45
▁interests	45
field	45
▁transmits	45
▁infection	45
Two	45
▁distribute	45
▁visited	45
▁assumes	45
▁questionnaire	45
▁lists	45
▁mandatory	45
▁ended	45
▁doctor	45
▁rotating	45
▁JPEG	45
Click	45
▁attachments	45
▁authoring	45
▁Definitions	45
▁sentences	45
▁accident	45
▁repository	45
▁modifying	45
▁inclusive	45
▁AT	45
▁Technical	45
▁States	45
▁Last	45
Of	45
▁Ei	45
▁doubt	45
▁adj	45
▁executives	45
▁derivation	45
▁geometrical	45
▁Moments	45
▁resolved	45
ih	45
▁quantification	45
umulative	45
▁quartiles	45
▁PE	45
▁qx	45
▁pivoting	45
▁fault	44
▁destruction	44
▁PDF	44
▁AES	44
▁definite	44
▁thick	44
▁rent	44
▁establishment	44
▁altering	44
▁geometry	44
▁feeling	44
▁floor	44
four	44
▁naught	44
▁Measurement	44
▁fetch	44
▁necessity	44
▁positional	44
▁multimodal	44
Also	44
▁divisions	44
▁win	44
▁Secure	44
▁DBA	44
W	44
▁handy	44
▁Image	44
▁Naiv	44
▁dry	44
▁greatest	44
▁instantly	44
▁forget	44
▁aggregation	44
▁neighbors	44
▁military	44
off	44
▁pencil	44
▁understandable	44
▁fundamentals	44
▁distinction	44
▁unable	44
▁selective	44
▁stereo	44
▁Week	44
▁examining	44
▁blind	44
▁attach	44
▁Apple	44
▁totals	44
▁transportation	44
▁reconstruct	44
▁joystick	44
▁trans	44
▁equality	44
▁heights	44
cos	44
▁infer	44
ck	44
pad	44
▁wavelengths	44
▁np	44
▁Quantitative	44
▁plotted	44
▁GFP	44
▁Quantity	44
▁fdx	44
▁concentrations	44
▁seq	44
▁lipid	44
▁cytometer	44
▁variances	44
▁bait	44
▁Laspeyres	44
▁stratum	44
elon	44
▁amp	43
Kha	43
▁fax	43
▁preset	43
▁instructor	43
▁attract	43
▁belief	43
▁baseline	43
▁Single	43
▁delivering	43
▁uncertainty	43
▁Lead	43
▁Elements	43
▁intensive	43
▁indexed	43
▁cold	43
▁flag	43
▁Quick	43
▁readily	43
▁losses	43
▁violation	43
▁linking	43
▁priori	43
▁Hill	43
▁variants	43
▁listen	43
▁quantum	43
▁Association	43
▁OJ	43
▁ignore	43
▁converges	43
▁tuples	43
▁guarantee	43
▁contrasting	43
▁interview	43
Q	43
bridge	43
▁scanned	43
▁Distributed	43
▁keywords	43
▁teams	43
▁moderate	43
▁De	43
▁hierarchies	43
▁undirected	43
▁Indirect	43
▁American	43
▁scroll	43
▁alt	43
▁Ir	43
▁extensively	43
▁commerce	43
▁Fit	43
▁stuff	43
▁validate	43
▁rings	43
▁Networks	43
▁deciding	43
▁Compar	43
▁subsystem	43
▁solvents	43
▁tricky	43
▁metric	43
▁Day	43
▁hybridization	43
▁schematic	43
▁Course	43
▁washing	43
▁IPR	43
▁Objective	43
▁damaged	43
▁Maxam	43
▁Rank	43
▁covalent	43
▁stratifi	43
▁quadrupole	43
)]	43
▁ethanol	43
▁confounding	43
▁stain	43
▁ASCII	42
▁bridges	42
▁booking	42
▁acquire	42
down	42
▁arts	42
▁destroy	42
▁thickness	42
▁MOLAP	42
▁reputation	42
bound	42
▁parents	42
▁Gradient	42
unched	42
▁programmed	42
▁appeal	42
▁Bob	42
▁precautions	42
▁classic	42
▁shot	42
▁topologies	42
▁friend	42
▁strongly	42
▁posterior	42
▁mutation	42
▁suited	42
▁shoulder	42
▁foreground	42
▁ISO	42
▁differs	42
▁remainder	42
▁travels	42
▁interrupt	42
▁optional	42
▁logging	42
▁candidates	42
▁hypertext	42
▁safeguard	42
▁edition	42
▁arm	42
▁relie	42
▁illumination	42
▁Difference	42
mpact	42
▁alternate	42
▁confused	42
▁dissemination	42
▁quantify	42
▁undertake	42
▁colouring	42
▁gaps	42
▁Banks	42
▁Felix	42
▁estimating	42
▁Later	42
▁deeper	42
▁Square	42
▁Variables	42
▁deduce	42
▁Diagrams	42
▁pulse	42
▁Sector	42
▁False	42
▁Factors	42
▁summariz	42
▁biases	42
▁Equations	42
▁Interest	42
▁NGS	42
▁chemicals	42
▁cation	42
▁spectrometer	42
▁magnification	42
▁Expenditure	42
▁Marshall	42
▁seidel	42
▁dissipation	42
▁antigens	42
▁RNase	42
▁∫-	42
▁qy	42
<	42
▁coset	42
▁sketch	41
▁street	41
negative	41
▁Drop	41
▁waiting	41
▁administrators	41
▁Trade	41
▁bodies	41
▁Bitmap	41
▁generic	41
▁intent	41
▁visibility	41
▁BC	41
▁suspension	41
▁stroke	41
▁theoretical	41
▁sit	41
▁Confidentiality	41
▁accomplished	41
▁Attribute	41
▁leaving	41
▁Set	41
▁discretisation	41
▁ransomware	41
▁vn	41
▁Space	41
▁bigge	41
▁Very	41
▁stealing	41
▁listing	41
hand	41
▁Version	41
▁Similar	41
▁manufacture	41
▁wood	41
▁exploration	41
▁manipulated	41
▁monthly	41
urthermore	41
▁LMS	41
▁Over	41
▁Ratio	41
▁filed	41
▁Query	41
▁dialog	41
▁Lab	41
▁asynchronous	41
value	41
▁repeatedly	41
▁Transmission	41
▁prerequisites	41
▁Mesh	41
▁ranking	41
▁guy	41
▁Merits	41
▁pack	41
▁Call	41
▁harmful	41
▁addressed	41
▁deduction	41
▁gathered	41
▁layouts	41
▁gradual	41
ase	41
▁estimator	41
▁container	41
▁receipts	41
▁markets	41
▁templates	41
packed	41
▁heavily	41
▁nitrogen	41
▁holder	41
▁tight	41
▁representative	41
▁Ci	41
▁housekeeping	41
▁defective	41
cy	41
▁RNAs	41
▁elution	41
▁invertible	41
Pa	41
▁Obtain	41
inferiority	41
▁economical	40
▁Address	40
▁backbone	40
▁salaries	40
▁advancement	40
▁mis	40
public	40
name	40
▁initiate	40
▁registration	40
tory	40
side	40
▁advertisements	40
▁consecutive	40
HER	40
▁informed	40
▁alphabetical	40
▁Auto	40
▁contacts	40
▁philosophy	40
▁Latin	40
▁corners	40
▁Mr	40
▁worm	40
▁Effects	40
▁workstations	40
▁harder	40
▁universities	40
▁noisy	40
▁imperative	40
▁shelf	40
From	40
everal	40
▁strip	40
▁counts	40
▁RGB	40
known	40
▁suspect	40
▁bought	40
▁GUI	40
FB	40
▁boost	40
▁anytime	40
▁hashing	40
▁exit	40
▁comparisons	40
▁subtraction	40
▁marts	40
▁Man	40
▁bounce	40
▁matches	40
▁alignment	40
▁cheaper	40
▁Who	40
▁AC	40
▁snapshot	40
▁accommodate	40
▁brand	40
▁suit	40
▁scattering	40
▁diffuse	40
▁catch	40
▁women	40
▁exceed	40
rth	40
▁photos	40
▁Media	40
▁Formula	40
▁kilo	40
data	40
▁Project	40
▁visualized	40
shi	40
▁OP	40
∀	40
▁ace	40
▁integrable	40
▁plasmids	40
▁GC	40
zone	40
▁xp	40
▁prevalence	40
dt	40
▁electrophoret	40
▁bx	40
▁angles	39
▁specialization	39
▁designate	39
▁bill	39
Students	39
▁vertically	39
▁consensus	39
▁cultural	39
▁genuine	39
▁logo	39
▁enhances	39
▁Back	39
▁Final	39
▁volatile	39
▁primitives	39
▁CMYK	39
▁misuse	39
▁Personal	39
▁dummy	39
▁protects	39
▁advancements	39
▁returned	39
▁concentrated	39
▁spyware	39
▁ROLAP	39
▁MUSIC	39
▁sensor	39
▁enroll	39
▁brightness	39
▁authenticated	39
▁alcohol	39
▁alert	39
▁geographic	39
▁shop	39
▁played	39
▁stopped	39
▁Proper	39
▁suite	39
aid	39
▁Further	39
▁adverse	39
▁possession	39
▁rigid	39
▁promising	39
▁behave	39
▁habits	39
Only	39
▁fraudulent	39
▁engaged	39
▁optics	39
▁innovation	39
▁Interface	39
▁mirror	39
▁calling	39
mesh	39
▁claims	39
▁RSA	39
Us	39
▁interconnect	39
▁Weight	39
▁operates	39
▁relevance	39
▁DDL	39
▁Have	39
▁Certain	39
▁dial	39
▁authors	39
▁quizzes	39
ities	39
▁graphically	39
▁pointing	39
▁Record	39
ble	39
▁winning	39
▁explored	39
▁pseudo	39
▁bc	39
▁barriers	39
▁minimiz	39
▁alternat	39
▁electronics	39
▁continuity	39
▁accidents	39
▁attain	39
▁RT	39
▁swing	39
▁Book	39
▁bright	39
▁subjective	39
▁Pn	39
▁ratios	39
▁Solve	39
▁observing	39
abla	39
sum	39
▁melting	39
▁vivo	39
▁percentiles	39
▁Variance	39
xj	39
▁Cov	39
▁biostatistics	39
methyl	39
▁exchanger	39
▁myself	39
▁manipulating	38
▁develops	38
▁freely	38
▁inexpensive	38
▁typewriter	38
▁collaborative	38
▁Will	38
▁excited	38
▁Mining	38
▁Files	38
▁arrived	38
▁overhead	38
▁Big	38
▁Apply	38
▁neuron	38
▁approval	38
ever	38
▁former	38
▁disclosure	38
▁Nowadays	38
▁summarized	38
▁chip	38
▁love	38
▁rais	38
▁photography	38
▁brushes	38
▁hiding	38
▁equ	38
▁compression	38
▁DTP	38
▁journal	38
▁inventions	38
▁peripherals	38
▁formulation	38
▁preservation	38
▁projection	38
▁dollars	38
hapter	38
ubtitles	38
▁ASR	38
FE	38
▁entropy	38
▁satisfaction	38
▁possesses	38
▁warm	38
▁Books	38
▁Graphic	38
▁distinguished	38
▁Say	38
▁makers	38
▁Employees	38
▁cricket	38
▁initiative	38
▁amplitude	38
▁cutting	38
▁recommend	38
▁Need	38
▁en	38
On	38
▁boys	38
▁demands	38
▁computations	38
▁navigation	38
▁lag	38
▁tokens	38
▁resistant	38
▁Uniform	38
▁Java	38
▁Fix	38
▁progression	38
▁Component	38
▁Process	38
▁wheat	38
▁iv	38
▁tension	38
scopic	38
▁breadth	38
▁divisible	38
very	38
▁erroneous	38
▁homogenous	38
bi	38
▁cloned	38
▁precipitate	38
▁Ac	38
▁pK	38
▁sedimentation	38
▁endogenous	38
▁assays	38
▁acrylamide	38
▁promoters	38
▁exogenous	38
▁integrals	38
bx	38
▁ech	38
Internet	37
▁enforce	37
▁opens	37
▁tour	37
▁Vn	37
▁floating	37
▁steal	37
▁diagnose	37
▁tutor	37
▁subsection	37
▁Vertex	37
▁brute	37
▁insertion	37
▁highlights	37
▁serif	37
▁analyst	37
▁novel	37
▁engineers	37
▁compliance	37
gaining	37
▁Knowledge	37
security	37
▁tabs	37
▁reply	37
▁spray	37
Web	37
▁brackets	37
▁Page	37
▁surround	37
▁comprise	37
▁Code	37
▁nin	37
▁emotions	37
▁uniqueness	37
▁cognitive	37
▁cheap	37
▁dependency	37
Once	37
▁phrases	37
Information	37
▁texts	37
▁resolutions	37
▁wider	37
▁Block	37
▁buses	37
▁cabinet	37
▁drawbacks	37
▁exclusively	37
▁rejected	37
▁primitive	37
▁varieties	37
▁couple	37
▁filtering	37
▁recurrent	37
▁generalized	37
▁caustics	37
▁lay	37
▁schools	37
▁rotations	37
day	37
▁Red	37
▁achievement	37
▁vendor	37
▁widespread	37
▁ON	37
▁sens	37
Finally	37
▁contour	37
▁excel	37
▁sorted	37
▁Analytical	37
▁Sampling	37
▁carrier	37
▁Ti	37
▁analogous	37
▁amplify	37
▁governments	37
▁girls	37
of	37
▁steady	37
▁Supposing	37
▁hypotheses	37
▁Hyperbolic	37
▁....	37
▁cotes	37
▁GM	37
▁conduction	37
▁transcriptome	37
▁Positive	37
Section	37
▁scores	37
+....+	37
▁Mendel	37
▁tilde	37
▁impurities	37
~	37
▁pI	37
▁apoptosis	37
▁complexes	37
▁enclosed	36
▁clerical	36
▁downloading	36
▁walls	36
▁Bitcoin	36
▁answering	36
▁moral	36
▁cyclical	36
▁strings	36
▁acquired	36
▁refinement	36
▁transitive	36
▁realm	36
▁duplicated	36
▁id	36
▁minima	36
▁Presentation	36
▁Availability	36
▁Blue	36
▁hits	36
▁stations	36
▁depict	36
▁Order	36
▁predefined	36
▁scales	36
▁Creat	36
hether	36
▁prerequisite	36
▁reflects	36
▁pad	36
▁sight	36
▁pose	36
▁converge	36
▁Rather	36
▁fund	36
▁trigger	36
▁motivated	36
▁postage	36
▁Transform	36
▁nCloth	36
▁prism	36
▁raster	36
▁proposition	36
▁rounds	36
▁evolving	36
▁temporal	36
▁resolv	36
▁Alt	36
ipped	36
▁propagate	36
▁paying	36
▁loops	36
▁dome	36
door	36
▁rarely	36
▁modem	36
People	36
▁complet	36
▁mailing	36
▁Jordan	36
▁circuits	36
▁advertisement	36
▁census	36
▁emotion	36
▁Major	36
▁cool	36
ard	36
▁optimize	36
▁publish	36
▁spoofing	36
▁taste	36
▁formally	36
▁breaks	36
▁semantic	36
▁arrows	36
▁certification	36
▁shares	36
▁interacts	36
▁temporarily	36
▁operandi	36
▁eighth	36
▁Proteins	36
sh	36
▁villages	36
bus	36
▁Face	36
▁replicates	36
go	36
▁Inter	36
onal	36
ualitative	36
▁phage	36
▁spaced	36
▁breast	36
▁degraded	36
▁Wilcoxon	36
▁uij	36
▁Tris	36
√	36
▁Uranium	36
▁mutations	36
▁transfect	36
!+	36
▁linker	36
▁tubing	36
▁typographic	35
▁HI	35
▁lemma	35
▁directional	35
▁RNN	35
▁scenes	35
▁paragraph	35
▁hospital	35
▁Center	35
▁encountered	35
▁proving	35
▁dollar	35
▁analog	35
▁advice	35
▁criticism	35
▁Front	35
demand	35
▁Creation	35
▁artists	35
▁Row	35
▁alternatives	35
filling	35
▁Likewise	35
▁collision	35
▁inches	35
▁linkage	35
▁Mass	35
ia	35
▁unstable	35
▁outsourcing	35
▁manufacturers	35
▁GA	35
▁Sixth	35
▁inclusion	35
▁Dynamic	35
▁opinion	35
▁Identify	35
▁merged	35
▁Curve	35
▁Selection	35
agnetic	35
use	35
▁competitive	35
▁sorts	35
▁redundant	35
▁quiz	35
▁Micro	35
▁clip	35
▁tracks	35
son	35
▁SELECT	35
▁conjecture	35
▁Understanding	35
▁occupied	35
▁Determine	35
▁exchanged	35
▁findings	35
▁Stage	35
▁Are	35
▁lifetime	35
▁vision	35
▁Customer	35
▁genomics	35
▁chapters	35
▁clock	35
▁cons	35
▁submitted	35
▁locked	35
▁viewers	35
▁clicked	35
▁synthesize	35
▁emphasis	35
▁circumstances	35
▁Register	35
▁balances	35
▁evaluating	35
▁prominent	35
▁Gilbert	35
▁distant	35
▁indicator	35
▁balloon	35
▁Often	35
SS	35
▁AR	35
ent	35
▁WiFi	35
▁afford	35
▁Render	35
related	35
▁disks	35
▁Kam	35
▁mimic	35
am	35
▁POP	35
▁con	35
▁fluids	35
▁zonal	35
▁decades	35
▁fantastic	35
▁oil	35
▁reviewing	35
▁birthday	35
▁oh	35
▁Earlier	35
dy	35
▁orientation	35
▁wi	35
Is	35
▁completes	35
ated	35
▁meter	35
▁firstly	35
lesh	35
▁tails	35
hemiluminiscence	35
▁pseudoscience	35
▁ligase	35
▁sediment	35
▁quotient	35
▁CRISPR	35
▁)/√	35
▁biomarkers	35
▁cancell	35
▁ROUT	35
▁phenotypes	35
▁cytosine	35
▁Mahar	35
▁Rohtak	35
▁ar	35
▁ir	34
▁leg	34
▁exhibit	34
▁usefulness	34
▁Thomas	34
▁neglect	34
▁indeed	34
▁coordinating	34
▁anyway	34
▁painted	34
▁apple	34
▁desire	34
▁exploits	34
▁Identification	34
▁Chart	34
▁balancing	34
▁blog	34
▁Ctrl	34
▁inherit	34
▁promotion	34
▁editors	34
▁garbage	34
▁healthcare	34
▁scams	34
▁Prezi	34
▁addressing	34
▁walks	34
he	34
▁compares	34
▁Sequence	34
▁handles	34
▁Traditional	34
▁impart	34
▁Neumann	34
▁feasibility	34
▁DNS	34
▁girl	34
▁synchronize	34
▁browse	34
▁Evolution	34
▁fun	34
▁British	34
▁relay	34
▁recipients	34
▁Fiber	34
▁disaster	34
▁checker	34
▁classrooms	34
▁Press	34
▁payroll	34
▁postman	34
▁compris	34
▁timely	34
▁owned	34
▁Save	34
▁career	34
▁Stat	34
▁creator	34
▁Greek	34
▁mined	34
▁educators	34
▁coaxial	34
▁shaded	34
▁Recall	34
▁twisted	34
▁configured	34
▁shield	34
forced	34
▁metallic	34
▁eavesdropping	34
▁Virus	34
▁SMTP	34
▁calculates	34
▁offspring	34
K	34
▁depicted	34
Co	34
▁Loop	34
▁CG	34
ical	34
▁scenarios	34
▁conform	34
▁sake	34
ley	34
▁annealing	34
▁producers	34
ine	34
▁vehicle	34
ist	34
inverse	34
▁inert	34
fluorescence	34
▁Biochemistry	34
!*	34
▁Grubbs	34
▁dNTPs	34
▁tild	34
ohistochemistry	34
▁EDTA	34
Tn	34
western	34
▁αβ	34
aij	34
▁Creativity	33
▁assure	33
▁apps	33
▁propriet	33
▁visitor	33
▁Review	33
▁Disney	33
▁crypto	33
▁Diagram	33
▁compressed	33
▁regulate	33
ctively	33
▁Title	33
▁classifications	33
▁aggregates	33
▁Android	33
▁scalability	33
▁coloured	33
▁shaders	33
▁manipulations	33
▁Ribbon	33
▁inform	33
▁gaming	33
▁Hardware	33
▁RFC	33
▁Additionally	33
▁agreement	33
▁Photo	33
▁reviewed	33
▁identifier	33
▁AH	33
▁meetings	33
▁manufacturer	33
rchitectural	33
▁failed	33
▁slight	33
▁vanish	33
▁Light	33
▁Support	33
▁Facebook	33
Mobil	33
▁Mark	33
▁cutoff	33
etter	33
▁accidentally	33
▁expose	33
▁OpenPGP	33
▁ownership	33
Move	33
▁enumeration	33
▁calculus	33
▁Mumbai	33
▁Floyd	33
▁heating	33
▁provisions	33
▁II	33
▁emerging	33
▁strategic	33
▁researcher	33
ither	33
▁circles	33
▁Provide	33
▁forest	33
▁appearing	33
▁Mechanical	33
▁tip	33
▁Website	33
▁Technologies	33
▁assurance	33
partite	33
▁specular	33
ij	33
▁producer	33
▁Move	33
▁pertain	33
▁centered	33
▁foremost	33
▁Expression	33
▁Cross	33
▁Observe	33
▁motives	33
▁selectively	33
▁seventh	33
J	33
▁blocked	33
▁ties	33
▁Input	33
▁drum	33
▁Shapes	33
▁liter	33
▁Write	33
▁Name	33
▁noticed	33
▁annual	33
▁HMAC	33
▁surveillance	33
▁scattered	33
▁interpreting	33
▁intersecting	33
▁cancel	33
▁elastic	33
▁abundance	33
▁Ex	33
▁Moving	33
▁DML	33
▁LC	33
▁marble	33
escriptive	33
▁differing	33
▁reversal	33
▁Southern	33
▁equate	33
▁cancers	33
)!	33
▁PVDF	33
▁qPCR	33
▁Jn	33
▁residue	33
▁metabolism	33
▁SRAS	33
▁coagulation	33
▁resins	33
▁hx	33
▁Vulnerability	32
▁reset	32
▁suggestions	32
Mit	32
esh	32
▁repair	32
▁Certificates	32
▁comprehension	32
▁useless	32
▁capturing	32
regulated	32
▁adult	32
▁His	32
▁revise	32
▁screens	32
Such	32
▁MOOCs	32
▁south	32
▁shadows	32
▁pins	32
▁KDD	32
▁modular	32
▁buildings	32
ROM	32
▁Whatever	32
▁conjunct	32
▁MAN	32
▁eliminates	32
▁unlabel	32
▁Header	32
▁accountability	32
▁exhaustive	32
▁conference	32
▁casting	32
▁trademark	32
▁spoke	32
▁predicting	32
▁etiquette	32
▁Head	32
▁nearby	32
▁Program	32
▁distribut	32
▁baking	32
▁sculpture	32
▁enabl	32
▁holes	32
▁Blend	32
▁Classical	32
▁wires	32
▁issuing	32
▁alteration	32
Computers	32
▁generations	32
▁Along	32
▁electronically	32
▁intrinsic	32
▁Common	32
▁matte	32
path	32
▁revision	32
▁Color	32
▁minimax	32
▁subtle	32
▁Europe	32
▁Slides	32
▁customized	32
▁tweaking	32
▁drawer	32
age	32
▁burden	32
▁joints	32
▁bundle	32
▁typed	32
atch	32
▁CS	32
▁ei	32
seven	32
em	32
▁skeleton	32
▁emergency	32
▁concluded	32
▁curvature	32
▁subgraphs	32
▁Corporation	32
▁Layout	32
▁Risk	32
we	32
▁publications	32
▁zone	32
▁Functional	32
▁bullet	32
▁tablet	32
▁Prove	32
▁advent	32
▁equat	32
▁droplets	32
▁Miss	32
▁shock	32
▁inhibit	32
▁Plot	32
▁perpendicular	32
▁crore	32
▁economies	32
leaf	32
▁nonzero	32
▁nitro	32
cellulose	32
▁biochemistry	32
▁isopycnic	32
▁SStotal	32
▁tX	32
▁fertilized	32
▁denatured	32
▁hydrodynamic	32
▁enhancer	32
▁vitro	32
▁Remarks	32
ȳ	32
▁Gakhar	32
▁Moment	32
▁divisors	32
▁penicillin	32
Hamiltonian	31
▁Area	31
▁weakness	31
▁Tables	31
▁horizontally	31
▁Principle	31
Other	31
▁clarity	31
▁Window	31
computer	31
ce	31
▁incremental	31
▁himself	31
visited	31
▁injury	31
▁acquiring	31
▁retaining	31
▁locks	31
▁satellites	31
aperless	31
▁exam	31
▁inch	31
Communication	31
▁LANs	31
▁hacked	31
▁animations	31
▁greedy	31
</?>.	31
▁AS	31
▁German	31
Those	31
▁refresh	31
▁pump	31
▁Pathshala	31
▁transposition	31
▁preventive	31
▁saturation	31
▁palette	31
▁compulsory	31
▁predictions	31
ning	31
Although	31
▁grade	31
▁hyperlinks	31
▁resident	31
▁Define	31
MIME	31
▁Attack	31
▁Features	31
mediated	31
▁timing	31
▁Values	31
standing	31
▁doors	31
▁flood	31
▁smoothly	31
▁Mobil	31
▁OLTP	31
▁emerged	31
▁Relations	31
▁lives	31
▁drivers	31
▁contrary	31
▁http	31
▁routines	31
▁Sales	31
matrix	31
▁millimeter	31
▁photon	31
▁imply	31
▁Explorer	31
▁executing	31
aimed	31
▁Ai	31
▁IPSec	31
CB	31
▁Saving	31
▁persistent	31
▁accesses	31
▁Special	31
▁Clustering	31
▁imposed	31
▁Important	31
▁beer	31
▁directing	31
▁Detection	31
▁sports	31
▁upload	31
▁didn	31
▁Structured	31
used	31
▁Position	31
▁tensor	31
▁Algebra	31
▁calculators	31
▁Me	31
▁Variable	31
factor	31
▁ideally	31
▁ineffective	31
▁Property	31
▁ET	31
▁ci	31
▁die	31
▁gravitation	31
economic	31
fd	31
▁hybridize	31
▁eukaryot	31
Distribution	31
▁elute	31
▁lags	31
▁declining	31
▁adapters	31
▁hydroxyl	31
*[	31
▁cx	31
▁pr	31
▁ATP	31
▁luminol	31
fx	31
▁RCF	31
▁cosets	31
▁Nabla	31
respective	30
▁searches	30
▁DVD	30
▁Commercial	30
▁Machine	30
▁injuries	30
▁sole	30
▁BI	30
ump	30
▁skip	30
▁advisable	30
▁chord	30
▁Reduce	30
▁Pick	30
▁crossing	30
▁varied	30
▁exploited	30
▁danger	30
▁versatile	30
Disadvantages	30
▁survival	30
▁bear	30
▁projected	30
▁OMR	30
▁edited	30
▁envelopes	30
▁mathematically	30
▁revolutionized	30
▁forwarded	30
▁Transaction	30
▁violate	30
▁Black	30
▁optimized	30
▁behalf	30
▁officers	30
▁analysed	30
▁collide	30
▁Variation	30
▁conflicts	30
▁locat	30
▁decides	30
▁predominant	30
▁silent	30
▁intruder	30
▁Company	30
▁symbolic	30
▁houses	30
Relational	30
▁dense	30
adjacent	30
▁Verify	30
▁forecast	30
▁pros	30
▁Internal	30
▁shut	30
Third	30
▁icons	30
▁ATM	30
▁averages	30
▁Principles	30
▁blending	30
▁Alternatively	30
▁surrounding	30
▁na	30
▁Pattern	30
▁Fab	30
▁constructivism	30
▁traits	30
▁dust	30
▁Shape	30
▁OCR	30
service	30
▁draft	30
▁authorities	30
▁concrete	30
▁proceeding	30
▁receipt	30
▁disorders	30
▁Heal	30
▁Training	30
▁transient	30
Examples	30
▁subgroups	30
▁quote	30
that	30
▁Tak	30
▁declared	30
▁Curves	30
▁ending	30
▁organ	30
▁globe	30
▁communicates	30
▁cheape	30
▁encounter	30
three	30
▁busy	30
▁modu	30
▁Master	30
▁ba	30
▁cubes	30
▁attained	30
▁Levels	30
▁shades	30
▁functionalities	30
▁ports	30
▁meters	30
▁muscle	30
▁lengths	30
▁laptops	30
▁Demerits	30
tion	30
▁crack	30
▁influencing	30
▁Determination	30
▁misconduct	30
▁urban	30
▁cheating	30
▁toxic	30
▁bromide	30
▁diluted	30
▁Protein	30
▁Arsenic	30
▁agarose	30
▁Inverse	30
▁Nh	30
▁surplus	30
▁lottery	30
shooting	30
▁Prop	30
▁osmotic	30
▁phospho	30
▁dv	30
▁MPS	30
/|	30
▁biochemi	30
▁Population	30
▁Eij	30
▁√-	30
onfidence	30
▁Pigou	30
▁restrictions	29
▁Networking	29
shaped	29
▁deployed	29
mbient	29
▁subordinate	29
apid	29
▁bugs	29
▁fear	29
▁Delta	29
▁resultant	29
▁End	29
▁Banking	29
▁Four	29
▁thanks	29
▁posts	29
▁dissolved	29
repudiation	29
▁architectures	29
▁CISC	29
▁Certificate	29
▁lamp	29
▁summarise	29
▁advances	29
house	29
▁replay	29
▁Maintain	29
▁Dijkstra	29
▁reflective	29
▁softness	29
▁outward	29
▁involvement	29
▁Pre	29
▁police	29
▁Vertic	29
▁Graphics	29
▁tweak	29
Be	29
▁activate	29
▁cheques	29
▁prints	29
▁apparent	29
▁ignor	29
▁undo	29
ish	29
▁harmony	29
▁Etcetera	29
▁couples	29
▁abilities	29
▁Health	29
▁Performance	29
▁worse	29
▁fake	29
▁experimentation	29
▁mine	29
▁Cryptography	29
▁insights	29
▁substantial	29
▁faculty	29
▁prompt	29
▁corruption	29
▁Programm	29
▁initiation	29
▁stakeholders	29
▁confirmation	29
Similarly	29
▁endpoints	29
▁losing	29
Every	29
▁Fi	29
▁confusing	29
▁prospective	29
▁rural	29
▁referencing	29
CS	29
▁Hindi	29
▁appeared	29
▁shade	29
▁Clone	29
▁modelling	29
▁oscillations	29
▁easie	29
▁categorize	29
▁Composition	29
▁draws	29
▁pioneer	29
▁displace	29
▁crude	29
▁encompass	29
⊆	29
▁tickets	29
ordinate	29
▁Complete	29
ffinity	29
▁augment	29
▁broader	29
serving	29
▁favorable	29
▁earning	29
▁forever	29
▁competitors	29
▁coincide	29
▁Iris	29
▁friction	29
▁closure	29
▁synthetic	29
▁diagonally	29
▁rotated	29
▁logarithms	29
▁efficacy	29
▁households	29
▁adsorption	29
▁kinetics	29
▁sperm	29
▁MSwithin	29
▁chromatogram	29
▁Exports	29
▁zx	29
proportional	29
▁nonlinearity	29
▁Margin	29
▁isotopes	29
▁pet	29
▁divisor	29
▁Interview	29
Pi	29
▁fractions	29
▁sandwich	29
▁fixation	29
\,....	29
▁RPM	29
▁isotope	29
▁Differential	29
▁Generalize	29
▁adapter	29
▁cone	29
▁orbits	29
▁polypeptide	29
▁Ion	29
▁supposing	29
▁agricultural	28
▁indexes	28
▁margin	28
▁Secondly	28
▁suppliers	28
▁wasted	28
fair	28
▁recovered	28
ireless	28
▁considerably	28
▁fiber	28
▁wonder	28
ini	28
▁survive	28
▁behaviors	28
▁invalid	28
▁morning	28
ouble	28
▁Testing	28
▁ago	28
▁hear	28
Online	28
▁territory	28
▁Extrude	28
▁Rasterize	28
▁IJ	28
▁Hash	28
▁Representation	28
▁extensions	28
decimal	28
▁Amazon	28
characterization	28
▁chromosomes	28
▁neat	28
▁Same	28
▁irrelevant	28
▁Transport	28
▁goodbye	28
▁assessed	28
▁perceive	28
▁Bar	28
▁homepage	28
▁viable	28
▁oppos	28
▁fetched	28
▁Play	28
▁preliminary	28
▁specialist	28
▁ribbon	28
▁compatibility	28
▁inserting	28
ling	28
▁exclusion	28
▁HD	28
▁mounted	28
▁DDM	28
▁whiteboard	28
▁Typically	28
▁arranging	28
▁collaborate	28
▁seventies	28
supervised	28
site	28
▁illustrates	28
▁witness	28
Press	28
▁bounciness	28
▁En	28
▁encrypting	28
bed	28
▁favorite	28
▁conventions	28
▁Zero	28
▁Spreadsheet	28
▁tunnel	28
back	28
specific	28
▁heuristics	28
▁Rules	28
oriented	28
▁symptoms	28
▁attendance	28
▁bookmark	28
=''	28
family	28
rem	28
id	28
▁normalization	28
▁Think	28
▁approved	28
▁cheque	28
▁induce	28
▁spontaneous	28
▁schedules	28
▁screening	28
▁curriculum	28
▁generators	28
▁professor	28
▁ha	28
▁uniformly	28
▁anybody	28
▁monotonic	28
▁Cayley	28
▁violet	28
▁Assuming	28
▁Log	28
▁eccentricities	28
▁sticky	28
▁steel	28
▁unbound	28
▁therapeutic	28
▁Mercury	28
▁formaldehyde	28
▁Equilibrium	28
▁boom	28
▁Helmholtz	28
▁Householder	28
▁Monty	28
▁liabilities	28
▁nanometers	28
▁qn	28
▁kx	28
▁pyrosequencing	28
▁adenine	28
▁Ramanpreet	28
▁pathogens	28
fdx	28
▁Lagrang	28
▁Capital	28
▁exploratory	28
▁borderline	28
▁milli	28
reducible	28
Fi	27
▁Fundamentals	27
▁DAC	27
Technology	27
▁offering	27
▁redirect	27
▁deck	27
▁suspicious	27
grab	27
▁multigraph	27
▁timeframe	27
▁meets	27
▁terminologies	27
▁cooperation	27
▁Managers	27
▁engineer	27
▁hue	27
centered	27
▁partners	27
▁Drive	27
▁brown	27
▁bifrost	27
▁clump	27
▁streaming	27
▁journalist	27
▁Care	27
▁offense	27
▁Small	27
▁learns	27
▁traditionally	27
▁concludes	27
▁infectio	27
▁innovative	27
▁PPT	27
▁Sachin	27
▁matchings	27
aximum	27
▁examined	27
▁poorly	27
▁May	27
▁MIME	27
▁photographic	27
▁Cut	27
▁Devices	27
▁Concepts	27
▁sitting	27
▁civil	27
▁Graphical	27
▁Images	27
▁paintings	27
▁Statu	27
▁Engine	27
▁Acts	27
▁Shadow	27
▁discrimination	27
▁Finding	27
filing	27
▁Tree	27
raw	27
▁hairs	27
▁invoices	27
reserved	27
▁continued	27
▁barrier	27
▁textbooks	27
▁arcs	27
▁somewhat	27
linearity	27
▁Characteristics	27
▁numbered	27
▁anomalies	27
▁photographer	27
▁SE	27
▁XML	27
▁shininess	27
▁miss	27
▁labs	27
▁Keynote	27
▁enrollment	27
▁sequenced	27
▁copyrighted	27
▁supervision	27
▁habit	27
▁Industrial	27
▁Represent	27
▁delay	27
▁Di	27
▁penetrate	27
▁info	27
▁terminate	27
▁Edition	27
▁metals	27
▁Computation	27
▁inject	27
▁translated	27
▁Purpose	27
▁eighties	27
▁microscopic	27
▁climate	27
resting	27
▁chess	27
▁Sn	27
Number	27
▁recursive	27
▁purple	27
▁mon	27
▁swinging	27
▁Significance	27
▁Punjab	27
RT	27
▁redo	27
ch	27
▁clones	27
litary	27
▁lagrange	27
▁OD	27
▁discontinuous	27
▁pepsin	27
▁biologists	27
▁biomarker	27
▁superposition	27
yl	27
▁biuret	27
▁chemically	27
▁)...	27
▁Nobel	27
▁baculovirus	27
▁dT	27
▁logarithmic	27
▁oligonucleotide	27
▁excluded	27
▁cleaved	27
ø	27
▁crores	27
▁differentially	27
▁bins	27
▁Averages	27
▁supervise	26
▁studio	26
Google	26
▁PKI	26
▁preview	26
ula	26
▁thrown	26
▁supplier	26
▁scalable	26
▁publicly	26
▁Manag	26
▁likewise	26
▁colleagues	26
volatile	26
▁promotions	26
▁terminals	26
▁throughput	26
▁Instruction	26
▁excessive	26
▁plotters	26
Generally	26
▁latter	26
▁scripting	26
▁grains	26
▁reproduce	26
▁computerized	26
▁inappropriate	26
▁pelvis	26
▁DDoS	26
▁affiliat	26
Both	26
▁Enter	26
▁cyan	26
▁thorough	26
▁wishes	26
▁Friends	26
▁coating	26
▁wind	26
▁repetitive	26
▁Domain	26
▁distinctive	26
▁ping	26
▁engineered	26
▁ISP	26
▁war	26
▁invoice	26
▁amazing	26
▁Chain	26
▁abbreviat	26
▁Efficiency	26
▁History	26
▁optimis	26
▁tap	26
▁McCurry	26
▁movable	26
▁hill	26
▁earliest	26
▁SaaS	26
▁Screen	26
▁touching	26
▁heading	26
▁labor	26
▁committing	26
▁PCs	26
▁contribution	26
▁signing	26
friendly	26
▁explanations	26
et	26
▁invisible	26
▁deploy	26
▁Copyright	26
▁White	26
▁certainly	26
▁Free	26
▁retina	26
Explain	26
▁guides	26
▁infections	26
▁connector	26
▁guiding	26
▁insecure	26
formal	26
▁Star	26
▁SC	26
▁peers	26
Spoke	26
▁uploaded	26
▁coverage	26
mails	26
▁guided	26
▁stops	26
▁clouds	26
▁constrains	26
▁punishment	26
▁Dis	26
▁indirectly	26
▁shell	26
▁implementations	26
▁tablets	26
▁inheritance	26
▁Decision	26
▁adjusting	26
▁referenced	26
▁inventories	26
▁intrusions	26
▁corporation	26
▁unbounded	26
ise	26
▁strata	26
▁violations	26
▁locally	26
▁Global	26
▁motivate	26
▁reactive	26
▁wo	26
▁smoker	26
▁Try	26
▁navigate	26
▁RPC	26
Depending	26
▁Conflict	26
lid	26
▁durable	26
▁bother	26
▁Avoid	26
▁NGO	26
▁chips	26
▁capacities	26
▁Omni	26
▁buys	26
▁turning	26
▁Tendency	26
▁temperatures	26
▁grows	26
▁tracer	26
▁Fig	26
▁grams	26
▁touche	26
▁PK	26
▁cleansing	26
▁cancerous	26
▁Lever	26
▁hydrophilic	26
▁Bk	26
▁equispaced	26
μ	26
▁acetate	26
▁Characteristic	26
homoscedasticity	26
▁longitudinal	26
▁trajectories	26
▁dispersi	26
▁capita	26
▁viscosity	26
▁tM	26
rowding	26
▁SSbetween	26
▁digestion	26
ological	26
▁Observation	26
Pen	26
▁Ak	26
▁methanol	26
▁peroxidase	26
▁moles	26
▁Jacobian	26
▁Depreciation	26
=∫	26
▁swan	26
▁HIV	26
▁fy	26
bk	26
▁abuse	25
▁controllers	25
▁upgrade	25
▁confuse	25
▁organisations	25
▁similarity	25
▁Enterprise	25
▁colony	25
▁PEM	25
▁mother	25
▁improvements	25
▁relief	25
▁reuse	25
▁interchangeably	25
▁cleaned	25
▁Smart	25
▁tiles	25
	25
▁meaningless	25
▁Keeping	25
▁consistently	25
▁orthonormal	25
▁credential	25
nal	25
no	25
▁Delete	25
nt	25
▁quarter	25
▁suspected	25
▁damages	25
▁plugin	25
▁Ch	25
▁List	25
▁Environment	25
▁snap	25
▁executes	25
▁IPC	25
▁generality	25
▁Video	25
MS	25
▁workspace	25
defined	25
▁handout	25
▁typewriters	25
▁resemble	25
▁faci	25
▁Desp	25
▁tanh	25
▁earned	25
▁normalize	25
▁Practical	25
▁Gregor	25
▁thoroughly	25
▁granting	25
▁Crime	25
▁obstacle	25
▁tampering	25
▁nobody	25
▁Administrative	25
▁race	25
mendment	25
▁Help	25
▁Substitution	25
▁breaches	25
Even	25
▁feelings	25
▁configure	25
▁consequence	25
▁officer	25
▁keyframe	25
▁Convert	25
▁operand	25
▁arbitrarily	25
▁Artist	25
code	25
▁renders	25
▁Local	25
ntropy	25
▁backing	25
Any	25
▁invest	25
▁Glen	25
▁switches	25
▁sleep	25
▁converse	25
▁elaborately	25
▁disappear	25
▁Wages	25
▁Home	25
▁inorganic	25
▁profession	25
▁realized	25
▁Account	25
▁journey	25
▁ux	25
▁criticized	25
▁faults	25
▁PNG	25
▁gray	25
▁Top	25
▁SHA	25
▁folding	25
▁gentle	25
▁admission	25
▁William	25
▁delegation	25
▁Steps	25
▁claimed	25
▁posting	25
▁exception	25
▁chains	25
▁undergraduate	25
▁imprison	25
▁George	25
▁Br	25
▁Making	25
▁planes	25
posed	25
▁surveys	25
▁customize	25
made	25
▁polygons	25
▁appropriately	25
▁cease	25
▁lenses	25
▁Give	25
▁extracts	25
Advantages	25
▁cartoon	25
▁Legal	25
▁paperwork	25
▁senior	25
ET	25
▁occupation	25
▁governance	25
nine	25
if	25
▁chords	25
▁DD	25
▁repeats	25
production	25
▁Lastly	25
▁UI	25
▁aperture	25
▁moon	25
▁conservative	25
free	25
▁tightly	25
▁denoting	25
▁tr	25
▁Cluster	25
▁migrate	25
▁Paul	25
don	25
▁spectral	25
▁SS	25
otential	25
▁bonding	25
^+	25
▁supernatant	25
▁kd	25
▁barter	25
▁SSwithin	25
▁cohort	25
polar	25
▁Stirling	25
▁biologist	25
▁peptides	25
▁chamber	25
▁differentiat	25
▁ungroup	25
forth	25
▁bleaching	25
cn	25
▁platykurtic	25
||	25
▁raisins	25
▁HRP	25
▁ligation	25
▁females	25
▁factorization	25
Where	25
pson	25
molar	25
Cr	25
▁enzym	25
▁embedding	24
▁Arts	24
▁arrangements	24
▁Printing	24
▁assessments	24
▁curiosity	24
▁forgery	24
▁Bell	24
▁considerations	24
▁float	24
▁oral	24
▁queen	24
▁animating	24
▁Director	24
▁globally	24
▁Extract	24
▁importantly	24
arallel	24
▁antenna	24
▁conveniently	24
▁cinema	24
▁complaints	24
▁spacebar	24
▁supervisor	24
▁Audit	24
▁developer	24
▁tied	24
▁compiler	24
▁routing	24
▁searched	24
▁adapted	24
▁Clause	24
▁authenticator	24
▁par	24
▁fold	24
▁Vigenere	24
▁utiliz	24
▁encode	24
▁collider	24
▁symbolically	24
▁singleton	24
▁songs	24
▁Charts	24
▁Discovery	24
MAC	24
Same	24
▁Relation	24
▁diaper	24
▁drink	24
▁standardisation	24
▁destroyed	24
▁headers	24
▁strike	24
▁DMA	24
▁usable	24
▁naming	24
▁beams	24
▁positioned	24
▁STUDENT	24
▁Yahoo	24
ries	24
▁facilitated	24
▁substitutions	24
▁assemble	24
▁collections	24
▁clearer	24
▁feasible	24
▁signifies	24
Sometimes	24
▁captures	24
▁tracked	24
▁travelled	24
▁Brooks	24
▁masking	24
▁bitmaps	24
▁drops	24
ism	24
▁transcend	24
making	24
▁Publishing	24
▁accommodation	24
▁requir	24
▁leader	24
DP	24
▁Specific	24
▁propagated	24
▁proven	24
▁immunity	24
▁chief	24
▁laboratories	24
screen	24
▁mediums	24
▁fulfill	24
▁smartphones	24
▁SDLC	24
▁Biometric	24
▁missed	24
▁vehicles	24
▁hub	24
▁distortion	24
▁liquids	24
▁suddenly	24
▁tones	24
▁Smudge	24
▁trails	24
▁compositions	24
Apart	24
▁Concept	24
web	24
▁leakage	24
▁traceable	24
▁LCD	24
▁depressed	24
▁Understand	24
▁circulating	24
▁neighborhood	24
▁descriptions	24
▁positioning	24
▁senses	24
▁Topology	24
Not	24
▁investigate	24
▁toward	24
More	24
▁correlations	24
▁clumps	24
ins	24
▁argu	24
▁nation	24
▁OH	24
▁strict	24
▁incorporation	24
▁UNI	24
▁Multiply	24
▁practically	24
standard	24
▁frozen	24
ol	24
▁Scale	24
right	24
▁thermal	24
iscretionary	24
▁Correct	24
▁ages	24
▁analytic	24
tted	24
▁mobility	24
▁Base	24
▁Partial	24
▁equispace	24
▁ficoll	24
▁inverses	24
squared	24
{	24
▁GNP	24
▁cyclotron	24
▁nh	24
▁FDG	24
▁sloping	24
▁Keynesian	24
identity	24
pectrophotometer	24
aii	24
▁incubation	24
economics	24
▁macromolecules	24
▁transcribed	24
▁PI	24
▁epitope	24
▁mesokurtic	24
▁Cr	24
▁unpaired	24
▁osmosis	24
protein	24
Inclusive	24
dispersi	24
▁fallacies	24
▁circumscrib	24
▁Riemann	24
fertilized	24
▁arsenic	24
▁lipids	24
▁Popper	24
▁allocate	23
▁mantissa	23
▁citizens	23
▁reviews	23
interoperability	23
▁Implementation	23
▁revised	23
onceptualization	23
▁Designing	23
▁Flash	23
▁exercises	23
▁psychology	23
▁instructors	23
com	23
▁emitted	23
▁cuts	23
▁interpretations	23
▁Update	23
▁declarati	23
▁Expectation	23
isation	23
▁rubber	23
▁stamp	23
▁Konigsberg	23
Euler	23
▁timestamp	23
▁conveys	23
▁driv	23
▁disciplines	23
▁Jam	23
▁corrupt	23
▁stuck	23
▁Attributes	23
▁fight	23
Logic	23
▁trouble	23
▁utilities	23
▁accidental	23
▁monitored	23
▁shots	23
▁spreading	23
▁emerges	23
▁Integration	23
▁dimensionality	23
▁Max	23
▁considerable	23
▁verifying	23
▁variant	23
▁served	23
▁establishe	23
▁theme	23
▁ourselves	23
▁patents	23
▁aircraft	23
▁reward	23
▁fragmentation	23
—	23
▁Identity	23
content	23
▁WWW	23
fall	23
▁shortcomings	23
▁Jo	23
▁sought	23
▁Stop	23
cil	23
▁decode	23
▁Registers	23
▁arriv	23
▁Accounting	23
▁Detail	23
▁microwave	23
paced	23
▁railway	23
▁Yellow	23
▁acceptance	23
hear	23
▁reflecting	23
▁writers	23
▁humidity	23
▁mm	23
▁hosts	23
▁abnormal	23
izing	23
▁originality	23
▁punish	23
▁pollution	23
▁Bellman	23
▁saturate	23
▁uniformity	23
del	23
▁inadequate	23
▁plenty	23
▁Repeat	23
▁ni	23
▁spiral	23
▁executable	23
▁guaranteed	23
▁masses	23
▁hypershade	23
▁magic	23
▁reversible	23
▁Intelligence	23
section	23
proof	23
▁guard	23
rs	23
server	23
▁shoot	23
▁absorbing	23
▁deg	23
inimum	23
▁cited	23
▁uncover	23
▁Action	23
▁exciting	23
▁consult	23
▁vocabulary	23
▁photons	23
onoalphabetic	23
▁existed	23
▁technically	23
▁se	23
▁grammar	23
▁centimeters	23
rtificial	23
▁crashes	23
▁fuzzy	23
▁shelves	23
Thanks	23
graph	23
Basically	23
▁Controlling	23
ible	23
▁Centre	23
▁Commission	23
▁Close	23
▁campus	23
▁wrinkle	23
ize	23
▁lakhs	23
▁allotted	23
▁blunt	23
▁gates	23
▁dull	23
▁Taxes	23
▁Fundamental	23
rier	23
inistry	23
▁Nicol	23
▁hectic	23
▁Dn	23
▁countable	23
▁Bluetooth	23
▁verbal	23
▁Age	23
dem	23
▁Card	23
▁indispensable	23
▁Consumer	23
▁understands	23
▁umbrella	23
minimum	23
▁MV	23
▁III	23
bal	23
toxic	23
▁fluorophore	23
▁synthesized	23
▁proteomic	23
Ψ	23
stained	23
▁precipitation	23
▁yz	23
finitely	23
▁subsidies	23
bn	23
▁spectrometers	23
normal	23
▁Chromatography	23
▁receptor	23
▁centigrade	23
ionic	23
▁bk	23
▁leptokurtic	23
▁glycosylation	23
▁IgG	23
▁Household	23
▁Vectors	23
▁Mn	23
▁laddoo	23
▁SM	23
▁causation	23
▁tabulate	23
▁photomultiplier	23
▁creatinine	23
decyl	23
≈	23
▁ey	23
significant	23
aked	23
≅	23
▁membranes	23
▁rC	23
▁Prices	23
▁Main	22
▁Hackers	22
▁Full	22
▁terrorism	22
▁configurations	22
layer	22
▁loyalty	22
OLAP	22
▁Trojans	22
▁payload	22
▁jerk	22
▁tele	22
▁outbound	22
▁hotel	22
▁deviate	22
▁monolithic	22
▁playback	22
▁shortly	22
▁wards	22
▁Pictures	22
▁verifie	22
▁undefined	22
▁desp	22
▁Keys	22
▁decipher	22
▁imagery	22
▁executor	22
▁portray	22
▁bounceness	22
▁digitized	22
▁actor	22
▁Hierarchical	22
▁Virtualization	22
▁impedance	22
▁analysts	22
▁Natural	22
▁robustness	22
▁PaaS	22
▁essence	22
▁simplicial	22
ton	22
▁CRT	22
▁convince	22
▁oct	22
▁Evidence	22
▁drawers	22
▁town	22
▁comp	22
▁sounds	22
▁intruders	22
▁faulty	22
▁recommendation	22
ware	22
▁eraser	22
▁cautious	22
▁permitted	22
▁Accuracy	22
▁sur	22
▁unweighted	22
▁Addison	22
VAC	22
▁bridgeless	22
▁Long	22
▁XP	22
▁Creativ	22
∉	22
▁flight	22
▁kilometers	22
dies	22
▁emotional	22
▁Ring	22
ml	22
▁BRD	22
▁narrative	22
▁orbit	22
▁min	22
▁Finance	22
▁catalogue	22
▁susceptib	22
▁cleanliness	22
▁override	22
▁forwards	22
▁Reports	22
▁personally	22
▁touched	22
▁infringement	22
▁conveyed	22
▁inaccurate	22
▁interrelated	22
▁cookies	22
▁facilitating	22
▁besides	22
Savings	22
▁courier	22
▁respondents	22
▁chairs	22
▁French	22
▁rectangles	22
▁emphasized	22
▁assured	22
▁crystal	22
▁mice	22
$	22
▁ISMS	22
▁Walt	22
▁Mu	22
▁nations	22
▁citations	22
▁Five	22
coupling	22
▁deselect	22
▁predicate	22
▁signaling	22
▁motor	22
▁originated	22
▁minimized	22
▁Addition	22
▁digitally	22
▁Develop	22
stic	22
▁clamp	22
▁resides	22
ual	22
▁rupee	22
▁Study	22
box	22
▁contaminate	22
▁organs	22
▁CV	22
▁FX	22
▁conservation	22
▁intention	22
▁atmospher	22
▁Sources	22
▁localization	22
aggregate	22
▁mx	22
▁oxygen	22
▁PT	22
▁misleading	22
φ	22
stranded	22
▁mixtures	22
▁Scatter	22
▁poles	22
radioactive	22
▁electrons	22
▁immobilization	22
▁||	22
▁transmittance	22
idium	22
▁kilobase	22
▁ordinate	22
▁incubated	22
▁Paasche	22
▁endonucleases	22
▁Matrices	22
▁bij	22
▁lysozyme	22
▁Sk	22
▁cosmids	22
romatic	22
▁triphosphate	22
ean	22
▁guanine	22
▁sy	22
▁esters	22
▁hermitian	22
▁Zn	22
*+	22
oisson	22
▁OTP	21
▁automate	21
▁renamed	21
▁pave	21
▁Investigation	21
▁procure	21
▁CDW	21
▁highlighting	21
▁sunlight	21
▁artifacts	21
▁IDs	21
▁corrections	21
▁consortium	21
▁scratch	21
▁occasional	21
▁targeting	21
▁Enhance	21
▁founded	21
▁encoders	21
▁dynamically	21
▁shareholders	21
information	21
▁imagination	21
▁conventionally	21
▁stamps	21
▁documented	21
▁refracti	21
▁complements	21
▁turbulence	21
▁institutes	21
▁Magic	21
▁degrade	21
▁crossover	21
▁Lot	21
▁Division	21
▁Never	21
▁ENIAC	21
▁Payload	21
▁manpower	21
▁unknowingly	21
▁indicators	21
▁Notice	21
▁YouTube	21
▁Survey	21
▁expecting	21
▁prototypes	21
▁Ca	21
analysis	21
▁Protocols	21
retty	21
▁Extension	21
ended	21
▁Zoom	21
▁oldest	21
Instead	21
▁shopping	21
▁centuries	21
▁cardboard	21
▁thread	21
▁Unix	21
▁economically	21
▁HDRI	21
▁literally	21
▁wear	21
▁cater	21
▁exponentially	21
▁participant	21
structured	21
▁stationeries	21
▁Operations	21
File	21
▁logically	21
▁appreciation	21
▁typesetting	21
▁representatives	21
▁buyer	21
▁Arrange	21
▁minds	21
▁tertiary	21
▁conclud	21
▁standardization	21
▁morale	21
▁entrepreneurs	21
▁tech	21
EF	21
▁penetration	21
eight	21
▁Connector	21
network	21
ier	21
▁decentralized	21
▁Load	21
▁consequently	21
▁rationale	21
▁allocated	21
▁Reduction	21
inary	21
▁primaries	21
▁entrepreneur	21
▁Content	21
▁electricity	21
anna	21
▁clarify	21
drawn	21
▁Companies	21
▁electrically	21
▁pencils	21
▁assistant	21
▁Ar	21
▁Printers	21
▁Japanese	21
▁guesses	21
▁slider	21
▁Story	21
▁Macintosh	21
▁exploitation	21
▁orient	21
▁DOS	21
▁pairing	21
▁unfortunately	21
▁Threats	21
▁Automatic	21
▁miscellaneous	21
▁Effective	21
▁disturbed	21
▁methodologies	21
Non	21
▁destructive	21
are	21
▁histograms	21
▁tens	21
▁succeed	21
▁hexa	21
▁Defin	21
▁Balance	21
▁outlined	21
prevented	21
▁lucky	21
lving	21
▁Yet	21
▁TRI	21
han	21
▁loose	21
▁Off	21
▁quantified	21
▁Aij	21
Remember	21
▁periodically	21
▁guilty	21
▁diagrammatic	21
▁injected	21
▁trigonometric	21
▁cij	21
▁SRC	21
▁mole	21
▁lognormal	21
▁sec	21
▁peaked	21
▁retrospective	21
▁disul	21
▁reproducibility	21
▁cub	21
▁AAT	21
▁thyroid	21
▁reanalyze	21
▁Estimate	21
▁ligated	21
Rk	21
▁tailing	21
▁salts	21
▁divergence	21
▁solubilize	21
▁cyto	21
▁ionized	21
▁flank	21
▁uncorrelated	21
clonal	21
▁rat	21
nkel	21
▁centimeter	21
▁genomes	21
▁ammonium	21
▁School	21
▁biotinylated	21
▁Maclaurin	21
▁reflexive	21
dium	21
▁interrogated	21
∅	21
▁transmitter	20
▁parcels	20
▁recogniz	20
ful	20
▁grants	20
▁billing	20
▁Unicode	20
▁Vo	20
▁Break	20
▁Envelope	20
▁presets	20
▁comparable	20
▁preprocessing	20
▁linguistics	20
▁decoration	20
▁idle	20
▁Abstract	20
▁surely	20
▁defend	20
▁Twitter	20
▁Place	20
▁Models	20
▁encapsulate	20
▁Gi	20
▁External	20
▁affordable	20
▁tune	20
▁strengths	20
▁batches	20
▁comic	20
▁Sharpen	20
asso	20
depth	20
▁meanings	20
▁discretionary	20
▁allocat	20
▁bypass	20
▁dates	20
cket	20
▁Rij	20
▁tours	20
banking	20
▁vanishing	20
▁lightness	20
▁attracted	20
▁titles	20
▁initialized	20
▁identities	20
▁packaging	20
▁oval	20
▁bread	20
our	20
▁puzzle	20
▁restart	20
▁boy	20
Use	20
▁implication	20
au	20
consuming	20
ould	20
▁spamming	20
▁climbing	20
▁president	20
▁ap	20
▁percentages	20
led	20
▁endless	20
▁Ram	20
ya	20
▁flowing	20
▁Less	20
▁initializations	20
▁dominate	20
▁decade	20
▁crash	20
▁toolbar	20
Warshall	20
▁fees	20
▁Resources	20
▁Wesley	20
▁China	20
▁traced	20
▁Japan	20
▁gateways	20
▁convention	20
▁Lighting	20
▁Expansion	20
Library	20
▁predetermine	20
space	20
Yeah	20
▁Freehand	20
▁stopp	20
▁leaders	20
▁Motion	20
▁employs	20
▁constituent	20
score	20
▁Scanner	20
▁Mouse	20
▁graduate	20
▁Host	20
▁Bill	20
▁fingerprints	20
forward	20
▁prize	20
il	20
▁braid	20
▁rats	20
▁accordance	20
▁California	20
▁Ramji	20
▁stimulate	20
ts	20
▁Definitely	20
▁doctors	20
▁Staff	20
▁semiconductor	20
▁transitions	20
▁stalking	20
▁north	20
▁morphing	20
Whenever	20
▁fingers	20
▁Reliability	20
▁routes	20
▁BRANCH	20
ious	20
▁Seventh	20
▁textual	20
▁solves	20
▁activations	20
▁thoughts	20
▁district	20
when	20
IET	20
▁Typography	20
▁Italian	20
▁disprove	20
Usually	20
▁contributions	20
▁pigment	20
▁complexities	20
▁iron	20
▁maximiz	20
angular	20
▁notations	20
▁Run	20
▁localized	20
▁hypothetical	20
▁ma	20
Direct	20
▁Earth	20
titude	20
▁brother	20
flop	20
host	20
▁pointed	20
▁automorphism	20
▁corrupted	20
▁motherboard	20
▁Water	20
≤	20
▁MIT	20
▁exclude	20
▁initiatives	20
▁RW	20
▁univariate	20
▁Times	20
▁Eight	20
▁pretend	20
▁distributi	20
empty	20
▁stacking	20
▁GPS	20
Why	20
▁descending	20
▁pipe	20
▁schemas	20
▁decompose	20
▁fibr	20
▁polymer	20
▁Ha	20
▁drastically	20
▁readings	20
▁dam	20
He	20
▁smoking	20
▁therapy	20
▁Growth	20
▁premise	20
▁integr	20
▁histidine	20
propyl	20
▁inhibitor	20
▁Ross	20
▁RDT	20
sis	20
▁storm	20
▁bimodal	20
▁Genome	20
▁tR	20
▁yj	20
▁respondent	20
▁encircled	20
▁Implies	20
▁tossed	20
▁dilution	20
▁transpositions	20
▁rabbit	20
▁intuitively	20
▁innocent	20
▁Excess	20
▁epitopes	20
▁gaze	20
▁metabolic	20
▁fluidics	20
▁Qt	20
▁Events	20
▁Na	20
▁tolerated	20
▁thymine	20
▁oligo	20
▁antibiotics	20
potent	20
▁Schlitz	20
▁Liquidity	20
Alembert	20
▁vibration	20
entrepreneurship	20
▁macroeconomics	20
▁mercury	20
▁proton	20
▁gNg	20
kut	20
▁falsifiability	20
▁pathway	20
decentralization	19
▁outed	19
locking	19
▁telegraph	19
▁append	19
▁Chat	19
private	19
▁CGI	19
▁Firewall	19
▁bluish	19
▁Hindu	19
▁portability	19
▁Plan	19
▁guarantees	19
▁Assistant	19
▁Statement	19
▁authorship	19
▁ambiguous	19
▁aesthetics	19
▁discard	19
▁contracts	19
mething	19
▁fans	19
▁prevalent	19
▁RISC	19
▁tracing	19
▁pens	19
▁clos	19
▁hop	19
▁backups	19
▁sketches	19
▁trait	19
▁overflow	19
ernam	19
variate	19
▁obstacles	19
▁coupling	19
▁tangible	19
▁Provid	19
▁entrance	19
▁pedagogy	19
versa	19
▁pressed	19
citing	19
▁accumulate	19
ackground	19
▁Polygon	19
▁smoothing	19
▁portions	19
authentication	19
▁Carl	19
▁vague	19
▁Air	19
▁cooling	19
ward	19
▁sequentially	19
▁elasticity	19
▁Display	19
▁President	19
▁sixties	19
▁pharmaceutical	19
▁yields	19
▁Adding	19
▁clustered	19
▁Safety	19
▁Keyboard	19
ypertext	19
▁notebook	19
▁ranked	19
▁Deni	19
▁grand	19
▁liability	19
▁dropping	19
▁Density	19
medical	19
▁incorrectly	19
cient	19
▁Rupees	19
▁confine	19
▁CDs	19
▁certified	19
▁randomness	19
▁investigat	19
▁Degree	19
▁CREATE	19
▁lawyers	19
▁LED	19
▁bonus	19
ritical	19
ors	19
▁Speed	19
▁Wikipedia	19
▁cement	19
▁overlooked	19
▁Besides	19
▁Su	19
darshan	19
▁scholarly	19
▁Camera	19
▁Document	19
▁disable	19
ngle	19
▁readability	19
▁org	19
▁SP	19
▁mood	19
▁connectors	19
aksh	19
▁Mandwal	19
▁foster	19
▁perspectives	19
▁employer	19
Moving	19
▁unintentional	19
▁escape	19
▁Accordingly	19
▁exe	19
▁innovations	19
▁skilled	19
hybrid	19
Teacher	19
▁CAD	19
▁expense	19
▁requisition	19
▁vj	19
▁Outliers	19
matic	19
▁comment	19
▁hire	19
▁imp	19
▁insects	19
▁examiner	19
▁Equipment	19
▁Serif	19
IC	19
▁marking	19
▁dub	19
▁subscription	19
▁pl	19
▁Benefits	19
▁tagging	19
▁flooring	19
▁sliding	19
▁steep	19
▁measurable	19
▁investing	19
▁repudiation	19
▁January	19
▁Yeah	19
▁Unless	19
ultiplication	19
cientific	19
▁kn	19
▁river	19
▁explosion	19
▁oversee	19
▁criterion	19
▁summaries	19
▁interruption	19
ndependent	19
▁blogs	19
▁club	19
▁publisher	19
▁cryptosystem	19
▁pota	19
▁strips	19
▁notion	19
▁agriculture	19
▁slips	19
▁cohesive	19
▁begun	19
▁Leaf	19
▁leisure	19
output	19
▁warning	19
▁guessed	19
▁seriously	19
▁Transactions	19
▁departure	19
▁publishes	19
▁IaaS	19
▁nevertheless	19
▁spade	19
▁unguided	19
Hamilton	19
▁speeds	19
▁Mainly	19
▁brighter	19
▁Stem	19
▁intranet	19
▁narrower	19
▁declare	19
▁ARPANET	19
▁Copy	19
▁successively	19
▁protective	19
▁Pa	19
▁Cf	19
▁wastage	19
random	19
▁marriage	19
▁sharpness	19
▁profitability	19
▁treatments	19
▁plotting	19
▁framed	19
▁PhD	19
▁communicator	19
▁containers	19
▁compet	19
▁Rich	19
person	19
rolling	19
ey	19
exas	19
▁dish	19
ineteen	19
▁stocks	19
▁Regular	19
▁stems	19
▁village	19
Means	19
▁residents	19
▁analogy	19
▁shirt	19
▁maxima	19
▁graphing	19
▁diseased	19
▁competent	19
▁subdivided	19
▁dk	19
page	19
▁Circular	19
▁gc	19
▁constituents	19
▁Sh	19
▁deflate	19
▁conformation	19
▁transcriptase	19
▁homo	19
▁PQ	19
▁baculoviruses	19
▁IV	19
ecombinant	19
▁surgeon	19
▁histone	19
▁Imports	19
▁solutes	19
fide	19
▁Per	19
▁Gene	19
BR	19
▁hormone	19
regression	19
▁Tests	19
▁medians	19
▁calibrat	19
▁Milne	19
▁acetonitrile	19
▁iodide	19
▁kg	19
▁interpolate	19
▁lac	19
▁deflection	19
jector	19
▁tumors	19
equal	19
▁Faddeev	19
▁detergent	19
▁pitfalls	19
ath	19
▁Currency	19
▁coomassie	19
▁spectra	19
▁codon	19
ᐩ	19
▁urea	19
▁superiority	19
▁thumbnail	18
▁IPv	18
▁consequent	18
▁severity	18
▁VPN	18
egitimate	18
▁IETF	18
▁completeness	18
▁Plus	18
▁ultra	18
▁tremendous	18
▁competencies	18
▁Combin	18
ntelligent	18
▁Print	18
reater	18
▁conceal	18
▁assistance	18
▁hyperlink	18
▁recruitment	18
▁Read	18
UPDATE	18
encryption	18
According	18
▁membership	18
▁clearance	18
▁emp	18
▁IS	18
▁OL	18
▁preparator	18
▁periphery	18
▁dramatically	18
▁uni	18
▁Opacity	18
▁repositories	18
▁similarities	18
▁quoted	18
▁patches	18
▁conversation	18
▁Elliptic	18
orizontal	18
▁hack	18
▁horses	18
▁Conditional	18
▁restore	18
▁teller	18
date	18
▁Antivirus	18
▁microprocessor	18
▁Normally	18
▁pornography	18
▁Syntax	18
▁downwards	18
▁unlikely	18
▁rhythm	18
▁constrained	18
▁declaration	18
▁deriv	18
▁initializ	18
▁DBSCAN	18
▁pleasing	18
ow	18
▁Distort	18
▁advantageous	18
▁Device	18
▁dramatic	18
▁judgment	18
ultipurpose	18
▁replica	18
▁Roy	18
▁Active	18
▁posing	18
▁justice	18
▁Resolution	18
▁cave	18
▁plugins	18
▁SVD	18
▁Reference	18
▁IR	18
▁distributes	18
▁Protection	18
▁Field	18
▁consolidate	18
▁terminated	18
▁Universal	18
▁America	18
▁imm	18
connected	18
▁qualified	18
▁analyzes	18
▁Indeed	18
▁invoked	18
▁alarm	18
▁bijection	18
▁inconsistency	18
▁routers	18
▁occurrences	18
▁Kelvin	18
▁Defense	18
▁Report	18
▁Express	18
▁Welfare	18
▁colon	18
▁lightest	18
Ford	18
▁unsaturated	18
▁strain	18
▁permanently	18
▁transmissions	18
per	18
▁narration	18
▁Keep	18
▁kr	18
▁negligible	18
▁homes	18
▁loads	18
▁Sharp	18
KE	18
rolled	18
▁fires	18
▁clerks	18
▁backgrounds	18
▁inverted	18
▁Consequently	18
▁concentrat	18
▁associations	18
Bolt	18
ggle	18
▁decrypted	18
class	18
▁offenders	18
▁Multimedia	18
▁elaborated	18
SQL	18
▁anchor	18
▁Relat	18
▁Kind	18
IA	18
▁nag	18
Though	18
▁IK	18
▁inevitable	18
▁dioxide	18
▁Feistel	18
riminal	18
▁seeming	18
▁ledger	18
▁clause	18
▁HP	18
▁palettes	18
ajj	18
▁digraphs	18
new	18
database	18
▁recommendations	18
net	18
▁dig	18
▁GIF	18
▁Ellipse	18
▁revolutionar	18
▁doubts	18
▁checklist	18
▁motivating	18
▁intentional	18
▁deliberated	18
▁encourag	18
▁realms	18
▁generalize	18
▁IRC	18
▁quadrant	18
▁loses	18
▁Min	18
▁indefinitely	18
▁attitudes	18
▁suspended	18
▁math	18
misunderstanding	18
▁lane	18
▁bearing	18
▁YJ	18
▁apparently	18
▁emulate	18
▁vk	18
equential	18
Ou	18
ence	18
▁Fe	18
▁Accountability	18
▁commission	18
▁concurrency	18
▁impressions	18
▁scam	18
▁corporations	18
▁queue	18
▁emitt	18
▁screenshot	18
▁practiced	18
do	18
▁Desktop	18
▁IMAP	18
▁aesthetic	18
▁Ethernet	18
▁degradation	18
heel	18
Whatever	18
▁AP	18
▁slant	18
▁Turing	18
nstant	18
▁Changes	18
▁custody	18
▁Illumina	18
▁toys	18
▁Cro	18
▁pictorial	18
▁Summation	18
ant	18
▁Deposits	18
▁king	18
▁det	18
▁accumulated	18
▁invested	18
▁rod	18
▁investors	18
finite	18
▁Aj	18
▁hallmark	18
▁Estimation	18
▁founding	18
▁Ho	18
Bi	18
▁receptors	18
▁bacteriophage	18
▁phosphatase	18
▁asymmetrical	18
ny	18
▁successes	18
▁pathologist	18
▁prosperity	18
▁anode	18
▁intracellular	18
▁hemoglobin	18
▁eigenfunctions	18
▁cubed	18
+...+	18
▁chromosome	18
▁congruence	18
▁dn	18
parameter	18
▁Immuno	18
▁nano	18
▁Moulton	18
integration	18
▁colloid	18
▁disequilibrium	18
▁deciles	18
▁APS	18
▁singularity	18
▁RBCs	18
▁dR	18
permeable	18
▁eyepiece	18
▁solubilization	18
Probability	18
▁Assumptions	18
▁py	18
▁Chicago	18
▁Permutations	18
▁ribosome	18
ddr	18
Kut	18
▁isolat	18
▁Cnm	18
▁convergent	18
▁fluoresce	18
▁cohorts	18
rogressive	18
▁soluble	18
ideoxynucleotide	18
▁randomized	18
▁detectable	18
▁deoxy	18
*=	18
▁magnesium	18
▁breed	18
▁Plant	17
▁correlate	17
▁Infrastructure	17
▁Signature	17
Pad	17
▁inspiration	17
▁illness	17
press	17
▁correctness	17
▁VCD	17
▁exhibits	17
▁preferable	17
▁correcting	17
nts	17
etween	17
▁appliances	17
▁Few	17
▁URI	17
▁penalty	17
▁initiating	17
▁counters	17
▁decorative	17
then	17
▁headed	17
▁Transformation	17
▁keyframes	17
▁continuing	17
▁ocean	17
▁beside	17
▁recap	17
▁textbook	17
▁daughter	17
▁Linotype	17
▁luminosity	17
▁mountain	17
▁Path	17
▁DATA	17
▁predictable	17
▁RE	17
▁magenta	17
▁Locator	17
▁Sky	17
▁shrink	17
▁Ludlow	17
xpiration	17
▁fishing	17
place	17
▁accomplishment	17
▁renaming	17
▁Patent	17
▁speakers	17
▁grain	17
▁PH	17
▁defeat	17
▁shoe	17
▁evaporate	17
▁replicas	17
▁pain	17
▁bike	17
▁fee	17
▁Raw	17
▁Forensics	17
▁su	17
▁illuminat	17
▁secrets	17
▁Asymmetric	17
▁cleared	17
Network	17
▁bat	17
▁Scheme	17
▁fellow	17
▁enhanc	17
electronic	17
▁ABC	17
▁Limited	17
▁Receive	17
▁utilise	17
▁Professional	17
case	17
eedback	17
▁Eye	17
▁Transparency	17
▁SD	17
▁coat	17
▁Perform	17
▁premises	17
speed	17
▁immense	17
▁footage	17
▁farmer	17
▁Uses	17
▁discount	17
▁username	17
▁Direction	17
▁weigh	17
▁credibility	17
Marriage	17
planar	17
▁rewrite	17
▁moreover	17
▁Designer	17
▁pruning	17
sychological	17
symmetric	17
▁Biba	17
▁contributing	17
▁budgeting	17
▁Location	17
▁validated	17
▁spear	17
▁responding	17
▁Marks	17
▁programmes	17
▁lacking	17
▁Past	17
CP	17
ping	17
▁ER	17
▁equidistant	17
▁Decryption	17
▁honest	17
▁undesirable	17
▁Maintenance	17
▁CC	17
▁engaging	17
ender	17
▁storeroom	17
▁Perspective	17
▁centroid	17
▁withdraw	17
▁flags	17
▁OSI	17
▁forgotten	17
▁toner	17
▁mixing	17
▁Prevent	17
▁cabling	17
▁MP	17
▁truncated	17
▁Below	17
▁kill	17
king	17
▁integrates	17
IT	17
▁lattice	17
normalized	17
▁uj	17
ped	17
▁Channel	17
▁Quality	17
▁countermeasures	17
▁lying	17
born	17
independent	17
▁Slow	17
▁enlarge	17
▁exchanges	17
▁pricing	17
▁kilometer	17
▁enhancement	17
▁Scalar	17
▁Broad	17
ification	17
Mi	17
▁educations	17
▁achievements	17
▁subtype	17
▁patent	17
photometric	17
▁hospitals	17
▁Still	17
▁junior	17
▁credited	17
▁caution	17
▁intersects	17
▁Divide	17
▁Conceptual	17
andatory	17
tan	17
▁Switch	17
▁risky	17
▁circuitry	17
▁Forward	17
▁intentionally	17
utting	17
▁amended	17
many	17
▁compilers	17
panning	17
ford	17
▁para	17
▁gestures	17
▁downs	17
▁refraction	17
▁filtered	17
▁advanc	17
▁supervisors	17
▁proliferation	17
▁arrest	17
▁directories	17
ham	17
▁luminescence	17
▁universe	17
▁rice	17
▁Monitor	17
ntellectual	17
Currently	17
▁heavier	17
mer	17
▁Cell	17
istic	17
around	17
During	17
▁judges	17
▁mild	17
▁Proportion	17
▁chooses	17
▁pin	17
▁vote	17
▁Employment	17
▁precious	17
▁geography	17
▁MB	17
▁cascad	17
nventory	17
▁Germany	17
▁Super	17
▁barcode	17
▁Stock	17
▁males	17
▁tomorrow	17
▁Pascal	17
stage	17
▁Groups	17
▁deducted	17
rate	17
▁dE	17
▁Antarctica	17
Edgeworth	17
▁colorimetry	17
yj	17
▁Fini	17
▁pathology	17
▁microarrays	17
▁Rutish	17
∛	17
▁Seidel	17
▁minors	17
▁chelate	17
▁tons	17
▁alg	17
▁glycine	17
▁Hypothesis	17
▁ultraviolet	17
▁aX	17
▁vial	17
elementary	17
multiplying	17
▁conserved	17
pper	17
▁hormones	17
▁Michaelis	17
▁colorless	17
▁tailed	17
▁sac	17
bxi	17
▁encircle	17
▁sex	17
▁Roots	17
▁mxn	17
▁fiftie	17
∫	17
▁Pol	17
▁packing	17
sium	17
radioimmunoassay	17
Yi	17
▁lectin	17
▁CLIA	17
▁variate	17
▁ninetieth	17
▁tyrosine	17
▁protons	17
cardi	17
▁fertilizer	17
▁Bacon	17
▁solver	16
▁Rajan	16
Checking	16
▁contiguity	16
▁Phase	16
▁informative	16
▁flower	16
▁seam	16
▁Evaluation	16
▁Peterson	16
ology	16
▁unethical	16
▁glance	16
▁Gather	16
▁scrambled	16
▁Assignment	16
▁Usenet	16
etadata	16
temporary	16
▁Davi	16
▁toolbox	16
▁pension	16
▁felt	16
▁phrase	16
▁synonymous	16
▁enlarged	16
▁accountable	16
▁killing	16
▁postcard	16
▁Telephone	16
Database	16
▁quiet	16
▁customization	16
processing	16
▁conscious	16
▁utterance	16
▁Mexican	16
▁optic	16
▁des	16
DoS	16
▁harms	16
ville	16
▁agreements	16
▁emergenc	16
▁dispatch	16
▁RDBMS	16
▁padding	16
▁epochs	16
▁confident	16
▁tough	16
▁implements	16
ITA	16
▁TLS	16
▁Menus	16
▁distracted	16
▁linguistic	16
▁Contour	16
▁Lemma	16
closed	16
away	16
▁punctuation	16
▁Check	16
state	16
▁reproduction	16
▁fool	16
▁buyers	16
Email	16
▁Old	16
▁Sarfaraz	16
▁corrective	16
▁discoveries	16
▁serifs	16
▁fluctuation	16
▁Coun	16
▁destroying	16
▁Buffer	16
Small	16
▁parenting	16
▁attacked	16
▁console	16
Different	16
ending	16
▁smoother	16
▁Operation	16
▁Put	16
▁unaware	16
▁Integrated	16
▁Hop	16
red	16
▁semaphore	16
▁workflows	16
▁Core	16
▁exposing	16
▁faith	16
▁bicolourable	16
sch	16
▁Mc	16
▁explode	16
▁precondition	16
▁Optimization	16
▁Initially	16
▁miniature	16
▁systematically	16
▁adjustments	16
▁trustworthiness	16
▁tilt	16
▁continuation	16
▁vl	16
▁forecasting	16
▁Databases	16
▁Audio	16
▁Neur	16
party	16
▁lessons	16
▁summ	16
▁persist	16
▁Results	16
step	16
▁seeds	16
▁Plain	16
▁Region	16
▁Ciphers	16
▁nearer	16
ably	16
▁Distance	16
▁hosted	16
for	16
▁bulbs	16
▁speaker	16
▁Loss	16
▁disasters	16
▁strikes	16
▁disconnect	16
▁insulated	16
▁Produc	16
▁sali	16
▁tabulation	16
▁overlay	16
▁Writing	16
High	16
▁Texture	16
augment	16
ECU	16
bank	16
▁rig	16
▁duty	16
▁South	16
cut	16
ill	16
▁Mat	16
▁landscape	16
not	16
▁Reporting	16
▁Goal	16
intended	16
▁cat	16
▁displaced	16
long	16
▁violated	16
▁restor	16
head	16
▁compress	16
▁strive	16
▁compromises	16
centralised	16
▁campaigns	16
co	16
▁deduct	16
▁associates	16
▁Payment	16
inson	16
▁Fro	16
▁Handl	16
▁quit	16
▁scaled	16
▁Actual	16
▁Russian	16
▁affin	16
root	16
▁stratification	16
▁submission	16
▁costing	16
etting	16
Fine	16
nalyzing	16
▁Incorporation	16
▁Community	16
organized	16
thesh	16
▁guidance	16
▁intra	16
▁racks	16
▁clue	16
▁beware	16
▁deadlines	16
▁proactive	16
▁misused	16
▁arrival	16
▁Enable	16
Un	16
eliance	16
▁norms	16
Consider	16
Three	16
▁physiology	16
▁numerically	16
▁Dimensional	16
unnel	16
tone	16
▁constructs	16
▁zn	16
ied	16
▁resid	16
▁Suite	16
▁nDynamics	16
FX	16
ium	16
▁Scope	16
▁equity	16
▁honor	16
▁batter	16
Time	16
self	16
Open	16
▁dictate	16
generation	16
▁Khan	16
▁hearts	16
▁Society	16
Hole	16
▁selections	16
▁implications	16
uv	16
Welcome	16
Response	16
tech	16
▁MiniMax	16
▁incorporat	16
▁Massive	16
▁devised	16
cute	16
▁Websites	16
round	16
▁bag	16
▁bipartition	16
▁holders	16
▁regulat	16
▁onwards	16
▁verifiable	16
▁enrich	16
▁simplifie	16
iddle	16
▁dispersed	16
emed	16
▁Decreas	16
▁mechanics	16
lot	16
▁standardize	16
▁eleventh	16
▁insured	16
▁nb	16
▁wrap	16
existing	16
▁Cause	16
▁Means	16
▁yesterday	16
▁excite	16
▁philosoph	16
▁differentiated	16
oreign	16
▁Attention	16
▁microscopes	16
▁punching	16
▁Venn	16
▁ubiquitous	16
▁instability	16
▁Mid	16
▁Proceeding	16
▁Edwin	16
▁midpoint	16
▁Academic	16
adherent	16
income	16
▁metering	16
▁mX	16
▁anemia	16
▁screencast	16
▁tomography	16
Gaussian	16
▁fr	16
▁sucrose	16
▁Qdy	16
▁undergoing	16
▁Yeast	16
▁immunoassays	16
▁selectivity	16
▁cardi	16
▁epidemiological	16
▁tosses	16
▁whiskers	16
▁smokers	16
▁backwards	16
▁chaotropic	16
▁CO	16
▁pUC	16
rize	16
▁microbes	16
▁recombination	16
▁sn	16
▁prokaryote	16
▁bxy	16
▁lump	16
radis	16
▁polymerization	16
▁pinhole	16
▁droplet	16
▁lyse	16
ligo	16
▁guanidine	16
▁Ax	16
▁orbitrap	16
▁Cramer	16
▁electroporation	16
▁EMSA	16
)+(	16
▁mue	16
onuclea	16
tests	16
▁nanogram	16
▁Pasche	16
∑(	16
▁bxi	16
inferior	16
̽	16
▁refuse	16
⊄	16
]=	16
utonomous	16
▁Robertson	16
▁preparati	16
°	16
▁digested	16
▁Ungrouped	16
▁)\,...	16
ɵ	16
▁ethi	16
|=	16
▁conductivity	16
▁Signed	16
▁ultracentrifuge	16
▁Questions	16
▁celsius	16
lementary	16
cx	16
▁xr	16
▁secretary	15
▁programm	15
▁indication	15
▁Material	15
▁vanishes	15
▁incompatible	15
Digital	15
▁enquiries	15
▁Electro	15
▁Manufacturing	15
▁DC	15
▁tricks	15
▁pedagogical	15
▁overlapped	15
▁believed	15
duplex	15
▁Implement	15
▁Draw	15
mproved	15
reading	15
tmost	15
▁harsh	15
▁Dimension	15
▁broadcasting	15
▁conditioning	15
▁bombs	15
Rather	15
▁merchant	15
▁Wiki	15
▁editable	15
ma	15
▁logistics	15
▁unpredictable	15
▁leaky	15
▁Islamia	15
▁Computing	15
ural	15
▁exceptions	15
▁Efficient	15
▁photographed	15
▁DELETE	15
▁Subject	15
▁terabyte	15
▁inefficient	15
▁villain	15
▁poverty	15
▁Difficult	15
▁Much	15
▁entrusted	15
▁tradition	15
▁Viruses	15
▁tournament	15
▁Ordinal	15
▁cartoons	15
▁Goals	15
▁ACL	15
▁possessed	15
▁tremendously	15
▁guideline	15
▁reflections	15
▁contextual	15
sharing	15
▁incentive	15
▁Robin	15
▁grids	15
fold	15
hopping	15
▁Tell	15
▁explod	15
▁chatting	15
▁alphanumeric	15
▁denied	15
▁investigated	15
let	15
ntrusion	15
▁handwritten	15
▁Live	15
▁Academy	15
▁verifier	15
▁outdated	15
▁spi	15
▁Letter	15
▁North	15
▁glossiness	15
ee	15
▁Singh	15
▁accompanie	15
▁Touch	15
▁magnetiz	15
▁formatted	15
▁Collection	15
▁Kolkata	15
▁networked	15
▁shin	15
▁broadband	15
▁profiler	15
▁compromis	15
hish	15
Ω	15
ipartite	15
▁Character	15
scale	15
▁bounds	15
inus	15
▁actors	15
▁disturbance	15
▁Cells	15
▁evaluates	15
▁visualizing	15
▁Teaching	15
▁xk	15
▁Conversion	15
▁Employee	15
▁Diagonal	15
▁KEYS	15
▁Western	15
▁invoke	15
▁consultant	15
▁literal	15
ided	15
▁outwards	15
▁Satellite	15
▁twelfth	15
▁occupy	15
▁turnover	15
▁Others	15
▁benchmark	15
▁Marketing	15
▁centralization	15
▁bibliographic	15
post	15
▁diet	15
ambda	15
▁acted	15
▁concurrent	15
▁Store	15
▁proofs	15
▁Options	15
▁correspondingly	15
▁subconscious	15
▁Harvard	15
▁insufficient	15
▁mathematicians	15
▁transistors	15
▁thr	15
▁borrowing	15
human	15
▁microfilm	15
▁talent	15
▁implicitly	15
▁France	15
ana	15
▁arena	15
▁Force	15
▁penalties	15
▁shipment	15
▁additions	15
▁contest	15
▁calendar	15
▁statu	15
▁CMAC	15
▁RAD	15
▁Preparation	15
wrapping	15
file	15
▁promot	15
work	15
▁Hadoop	15
▁Indexing	15
▁appointed	15
▁Francis	15
▁squatting	15
▁Scanning	15
▁paradox	15
▁expressive	15
▁wrote	15
▁advise	15
▁unaltered	15
iness	15
▁reside	15
▁distinguishe	15
▁formulated	15
▁Standardization	15
▁grading	15
▁institute	15
▁resize	15
▁posture	15
▁Connection	15
▁subscriber	15
▁Practice	15
written	15
▁compete	15
over	15
▁Unfortunately	15
▁dope	15
▁Lino	15
▁sticks	15
▁revolve	15
▁Result	15
▁Prototyping	15
▁Guide	15
▁professionally	15
▁iOS	15
▁intertwined	15
▁uz	15
▁Perfect	15
bility	15
▁Building	15
▁glossary	15
▁bioinformatics	15
▁hint	15
▁joins	15
▁rediscover	15
▁halves	15
▁illustrators	15
▁pulses	15
Thirty	15
▁securely	15
▁collapse	15
▁withstand	15
▁sells	15
▁minimise	15
▁coherent	15
▁Known	15
▁Responsibility	15
visual	15
▁lev	15
▁Journal	15
▁Ox	15
▁embed	15
▁demonstration	15
▁parallax	15
▁Board	15
▁evident	15
▁HR	15
▁fifties	15
▁relax	15
▁compartments	15
▁Mart	15
▁weekly	15
RG	15
lly	15
▁Administration	15
Test	15
▁Martin	15
▁CTR	15
▁ambiguity	15
▁radi	15
▁cliques	15
▁competitor	15
▁pasted	15
▁electrostatic	15
▁saturator	15
▁vw	15
cies	15
ssociated	15
▁Ve	15
▁eat	15
▁projectors	15
▁booklet	15
▁dog	15
▁cumbersome	15
▁compliment	15
iving	15
ring	15
▁Split	15
▁pools	15
▁occasions	15
▁Poly	15
infinite	15
▁Tr	15
▁Notation	15
▁anymore	15
▁tackle	15
▁Activities	15
▁creditors	15
▁taxonomy	15
▁kinetic	15
▁Instruments	15
▁cognition	15
▁unemployed	15
▁pumps	15
Standard	15
▁bookmarks	15
▁confirmat	15
▁Revers	15
▁resist	15
▁si	15
▁warrant	15
convertible	15
Do	15
▁immaterial	15
▁Thanks	15
▁EX	15
▁pour	15
▁ladder	15
▁secondly	15
▁discriminate	15
▁XM	15
▁wondering	15
▁micron	15
▁pig	15
▁readout	15
ubjective	15
rmally	15
▁microliter	15
covalent	15
▁tryptophan	15
▁MCT	15
Gilbert	15
elocity	15
▁colorimetric	15
▁Journals	15
▁mitochondria	15
▁Cherry	15
▁ph	15
)=-	15
ac	15
elaxation	15
▁iodine	15
▁fertilizers	15
▁cofactor	15
▁Consume	15
luorescence	15
▁yx	15
▁Qn	15
▁borrow	15
Bc	15
▁equitable	15
▁soliton	15
probability	15
▁Dk	15
▁.....	15
ab	15
▁cas	15
▁Beer	15
▁transcriptomics	15
▁enrichment	15
anodrop	15
▁morphological	15
▁PNH	15
▁SYBR	15
▁)!	15
▁vaccine	15
▁milligram	15
▁shocks	15
▁Gram	15
▁Leakages	15
▁instrumentation	15
▁Partition	15
sample	15
▁axiom	15
▁tris	15
▁dS	15
▁districts	15
enomics	15
▁inferential	15
▁nickel	15
▁quaternary	15
▁hollow	15
▁nicely	15
▁annexin	15
▁ampicillin	15
shooter	15
▁transposed	15
▁condense	15
▁myo	15
corrector	15
eteris	15
▁paribus	15
▁fat	15
▁DMLs	15
▁desks	14
▁Naturally	14
▁agreed	14
▁SWAYAM	14
▁avail	14
▁festival	14
▁impacts	14
▁originator	14
▁Economy	14
▁Life	14
▁stone	14
▁seams	14
Overall	14
▁im	14
▁actuators	14
▁Minu	14
▁scheduled	14
▁chats	14
enior	14
▁DSL	14
▁ra	14
▁competence	14
▁threads	14
▁claimant	14
▁Alter	14
ver	14
▁Orthogonal	14
▁Milli	14
▁politics	14
▁obstruction	14
copy	14
▁distorted	14
▁attribut	14
▁ClipArt	14
▁authenticating	14
▁clay	14
▁Mask	14
▁IPS	14
▁Registration	14
▁trainer	14
▁Policies	14
▁tactic	14
▁remind	14
all	14
▁acceleration	14
▁Mar	14
▁Van	14
▁She	14
ile	14
▁fixes	14
▁Kerala	14
▁passage	14
▁Bureau	14
▁characterizes	14
▁detached	14
▁Bookmark	14
▁EDVAC	14
Doctor	14
▁Anyway	14
▁extraordinar	14
▁Moon	14
▁infeasible	14
▁uploading	14
▁virtualization	14
▁markup	14
▁withdrawals	14
▁convinced	14
▁Fraud	14
▁Protect	14
▁Manage	14
▁Specialized	14
▁distractions	14
▁dependencies	14
▁blurred	14
▁Law	14
▁poster	14
▁Remain	14
▁crisp	14
▁DI	14
hard	14
▁undis	14
▁runtime	14
atz	14
alm	14
Mail	14
▁Km	14
▁slip	14
▁releases	14
▁replicating	14
▁stake	14
▁Clique	14
▁etching	14
stitutional	14
▁Instructions	14
Blend	14
▁microseconds	14
▁Preview	14
▁Requirement	14
Human	14
▁boss	14
▁hiring	14
▁Vk	14
▁ceiling	14
Otherwise	14
▁committee	14
▁SN	14
▁VI	14
▁collation	14
BASE	14
▁staffing	14
▁Learners	14
ature	14
▁seal	14
▁Terry	14
▁commitment	14
mechanical	14
▁violat	14
▁vivid	14
▁Hyper	14
▁rush	14
▁overloading	14
▁disclose	14
▁SEO	14
▁advertise	14
▁flipped	14
▁feeding	14
▁genus	14
ezi	14
▁repeaters	14
▁invite	14
▁casual	14
▁Numbers	14
ster	14
▁rental	14
▁Plaintext	14
Technological	14
▁commentary	14
▁Easy	14
▁trademarks	14
▁photographers	14
▁interpreter	14
▁skimming	14
▁hired	14
▁ri	14
▁Passwords	14
▁sword	14
▁typo	14
▁backdoor	14
▁Straight	14
▁Rule	14
▁Spreadsheets	14
▁Polyalphabetic	14
▁assembled	14
▁delegated	14
▁originate	14
▁fade	14
ure	14
▁IF	14
▁dropped	14
▁workload	14
CAI	14
▁credits	14
▁synchronization	14
▁surgery	14
▁remained	14
▁poses	14
▁desires	14
▁borders	14
▁analyses	14
▁Session	14
▁remediation	14
ba	14
YN	14
▁Plane	14
SMTP	14
▁Staffing	14
Decentralization	14
▁USA	14
▁triad	14
▁registry	14
▁rocket	14
▁lifestyle	14
ODE	14
roximity	14
▁catalog	14
▁attempted	14
▁mould	14
▁smartly	14
▁favour	14
▁storytelling	14
regular	14
▁Ad	14
▁traverse	14
beni	14
realistic	14
▁predictors	14
▁Relevant	14
▁google	14
▁trojan	14
▁smoothness	14
▁bend	14
▁prescribe	14
▁fuel	14
ermination	14
▁subsections	14
MOOC	14
▁MST	14
▁Ink	14
athshala	14
using	14
▁posted	14
personal	14
Base	14
▁Wolfram	14
ferential	14
version	14
▁safely	14
▁neglected	14
▁breakdown	14
degrees	14
▁elliptical	14
▁dividend	14
CD	14
forcing	14
▁warfare	14
arly	14
▁PDM	14
▁enact	14
Kerberos	14
▁snapping	14
▁smartphone	14
▁factories	14
▁reproducible	14
▁Style	14
▁remembered	14
▁NURBS	14
Follow	14
▁intense	14
▁Hacking	14
▁Trap	14
▁Tax	14
▁Permanent	14
▁cultures	14
▁chunks	14
▁plotter	14
ball	14
▁acceptability	14
▁Biometrics	14
▁accused	14
zi	14
▁prosecutor	14
▁Caslon	14
▁separations	14
oid	14
Nothing	14
▁nutshell	14
▁geo	14
▁organising	14
▁exhibition	14
▁Liquid	14
▁suffice	14
▁adaptable	14
▁Objects	14
Difference	14
▁opaque	14
▁untrusted	14
IMAP	14
▁James	14
iagnostic	14
▁detective	14
▁Park	14
▁anonymous	14
sized	14
▁Current	14
▁manageable	14
imply	14
▁intelligently	14
▁disorder	14
▁headline	14
▁mug	14
non	14
▁trustworthy	14
▁Industry	14
▁separable	14
tactical	14
pruning	14
▁UNIX	14
with	14
▁fused	14
▁inbox	14
▁extortion	14
▁flame	14
▁summer	14
▁inserts	14
effective	14
▁fulfilled	14
Write	14
▁proceeds	14
▁permuted	14
▁Jay	14
ov	14
▁DOM	14
▁refin	14
there	14
▁ministry	14
▁+....	14
unting	14
lower	14
▁leadership	14
▁intrica	14
▁probabili	14
▁constructivis	14
▁judgement	14
▁Comparison	14
▁bombard	14
nsurance	14
▁premium	14
▁cente	14
▁familiarize	14
▁accumulation	14
▁nParticles	14
▁Thompson	14
which	14
▁winding	14
▁cb	14
▁rigorous	14
▁Henderson	14
▁Recommend	14
uccessive	14
▁axioms	14
▁leukemia	14
▁linkers	14
▁Seidal	14
▁microgram	14
▁subspace	14
▁Tomography	14
coats	14
▁petrol	14
AX	14
transferase	14
▁chop	14
▁chunk	14
▁uncountable	14
▁aii	14
▁Sumandeep	14
▁sephadex	14
▁polymerases	14
▁biotechnology	14
apla	14
▁corona	14
▁needle	14
▁Determinants	14
▁theorist	14
▁centromer	14
▁Odd	14
▁precipitated	14
▁plaque	14
▁unfold	14
▁colonies	14
▁Fp	14
▁Fq	14
unsaturated	14
PCR	14
▁cY	14
▁metabolized	14
▁parabol	14
▁biomolecules	14
▁bags	14
▁laddoos	14
▁cu	14
▁radical	14
population	14
▁Nucle	14
▁luminometer	14
▁qdy	14
▁luciferase	14
▁methyl	14
▁fallen	14
▁MSbetween	14
▁Purchases	14
▁Bowley	14
)*[	14
▁bacterium	14
▁guanidium	14
▁]/	14
real	14
▁Gender	14
≡	14
▁kilogram	14
▁footprinting	14
▁denatur	14
distributed	14
ovarian	14
pair	14
▁RAND	14
▁Monte	14
▁dNTP	14
Xi	14
▁br	14
▁Fallacy	14
▁homozygo	14
mercaptoethanol	14
▁sinh	14
▁algae	14
▁molarity	14
▁uranium	14
▁paints	13
called	13
▁swelling	13
▁locality	13
▁Historical	13
▁Le	13
▁trains	13
▁dozen	13
▁Alignment	13
▁versatility	13
▁animators	13
▁decoding	13
▁travers	13
▁strange	13
▁patience	13
Learners	13
▁Ideally	13
▁durability	13
▁fills	13
▁mappings	13
▁Stanford	13
▁terrorist	13
▁unavoidable	13
▁unavailable	13
▁Recently	13
▁underline	13
▁examiners	13
▁FW	13
alphabetic	13
system	13
▁admin	13
▁Gur	13
eshwar	13
▁attraction	13
▁Processors	13
▁Darwin	13
▁deadlock	13
▁deny	13
SPSS	13
▁audiences	13
▁Jitter	13
graphic	13
laying	13
nything	13
▁chalk	13
Off	13
▁Recovery	13
▁upgraded	13
▁organise	13
▁Baske	13
▁Correction	13
▁bookings	13
where	13
▁Side	13
oretically	13
▁fan	13
▁mats	13
▁grasp	13
▁CyberSecurity	13
▁overlaps	13
▁continu	13
▁aggregations	13
▁headlines	13
▁paragraphs	13
▁mount	13
▁OneDrive	13
▁Retail	13
▁spurious	13
▁graduation	13
Fourth	13
▁categorise	13
▁dpi	13
erial	13
liver	13
▁composing	13
▁Controls	13
▁Dot	13
▁refract	13
▁Abdul	13
▁tie	13
▁CEO	13
Programm	13
▁supermarket	13
▁boring	13
gram	13
▁Custom	13
▁Unknown	13
▁Secret	13
▁Byzantine	13
▁hang	13
ency	13
▁coal	13
▁shortage	13
▁War	13
▁dispense	13
Optical	13
▁Branch	13
▁Self	13
▁Unauthorized	13
▁Contents	13
▁Charl	13
▁https	13
▁affixed	13
▁Little	13
▁specularity	13
▁creations	13
▁MA	13
loppy	13
▁distract	13
▁repeater	13
▁triplet	13
▁Paris	13
▁Affin	13
▁UTP	13
▁prosecution	13
igne	13
rising	13
▁Additional	13
▁Term	13
▁priorities	13
▁evolve	13
▁alerts	13
lab	13
▁html	13
▁auditor	13
Point	13
Compare	13
▁harden	13
▁Personnel	13
Video	13
▁Cyclic	13
auge	13
item	13
ther	13
▁standalone	13
▁partner	13
world	13
eating	13
core	13
▁distort	13
▁terminates	13
▁unlock	13
▁omit	13
▁curious	13
▁performances	13
▁intend	13
eterogeneous	13
▁worthless	13
▁disputes	13
▁guests	13
▁Depend	13
earest	13
▁entitle	13
block	13
▁associate	13
ING	13
▁leap	13
▁Particularly	13
light	13
▁Element	13
▁legacy	13
▁enlighten	13
▁arrays	13
▁posters	13
▁unambiguous	13
▁pk	13
▁Frequent	13
▁College	13
▁subtractive	13
▁Limit	13
▁splitting	13
▁born	13
▁Directing	13
▁insist	13
▁backspace	13
▁char	13
▁melt	13
▁Laser	13
▁interpersonal	13
▁Complex	13
▁pertinent	13
▁promptly	13
▁reconciliation	13
▁disabled	13
▁Jain	13
▁hosting	13
third	13
▁modality	13
▁Blob	13
▁defamation	13
▁mitigate	13
▁Bus	13
▁cooperative	13
▁viewpoints	13
▁careless	13
IO	13
ered	13
▁Length	13
▁dream	13
▁revoked	13
▁AM	13
oaxial	13
▁eras	13
▁espionage	13
Support	13
ide	13
▁Share	13
▁invok	13
▁logged	13
▁assembler	13
▁spying	13
▁densities	13
▁afterwards	13
▁fragile	13
▁campaign	13
Four	13
ybrid	13
▁Portability	13
Moreover	13
▁Radi	13
Maya	13
▁Po	13
charge	13
▁rootkit	13
ay	13
▁lapse	13
corrected	13
▁Join	13
▁Kha	13
▁Natur	13
nic	13
▁essay	13
bru	13
▁Serial	13
▁circulars	13
▁installations	13
▁directors	13
▁hindrance	13
▁suppress	13
▁Target	13
▁Counter	13
▁mismatch	13
▁discourage	13
▁Paint	13
ryptographic	13
▁renew	13
▁merging	13
▁projector	13
▁FBI	13
▁negate	13
uh	13
CIET	13
▁CM	13
▁electrodes	13
▁believing	13
▁octets	13
▁Describe	13
▁homogenization	13
▁failing	13
amine	13
▁receivers	13
▁pounds	13
▁contradict	13
links	13
▁DEA	13
▁triangles	13
▁Publish	13
Composite	13
la	13
▁unprotected	13
▁hut	13
▁handheld	13
DB	13
▁Lu	13
Cloud	13
▁thesis	13
▁sudden	13
▁MAR	13
▁settle	13
IPS	13
▁Fast	13
▁expresse	13
▁cylinders	13
▁beliefs	13
▁climb	13
▁EPUB	13
▁apparatus	13
▁fascinating	13
▁Goods	13
ery	13
NP	13
▁discriminator	13
▁Histogram	13
▁unproductive	13
▁cetera	13
length	13
▁election	13
▁killed	13
▁officials	13
▁Rest	13
▁cal	13
▁nxn	13
tier	13
▁magnify	13
▁Chand	13
ative	13
▁virtue	13
mission	13
▁CAT	13
▁Duplicat	13
psi	13
▁propositions	13
ivariate	13
esium	13
▁propagating	13
▁bessel	13
▁accru	13
▁ninhydrin	13
▁heterozygous	13
ictor	13
▁factored	13
nh	13
▁Construction	13
▁Chandra	13
▁cosec	13
▁remarks	13
osphatidylserine	13
▁dilute	13
▁solvability	13
Median	13
jk	13
coefficient	13
translation	13
▁refrigerator	13
▁Quartiles	13
▁lymphocytes	13
▁Bradford	13
▁endonuclease	13
DNA	13
▁estrogen	13
-∑	13
▁allele	13
▁integran	13
▁sonication	13
▁chemiluminescen	13
▁insignificant	13
))	13
Dn	13
▁Johnson	13
▁tungsten	13
▁cuvette	13
▁Mx	13
linked	13
▁npq	13
▁Subsidies	13
eferred	13
▁Pico	13
▁spectrophotomet	13
▁deficiency	13
▁yq	13
▁Taq	13
▁crosslink	13
▁microdissection	13
pairs	13
▁catalyze	13
▁acetone	13
Mean	13
▁Estimates	13
▁cupr	13
aji	13
▁brillian	13
▁Combinations	13
▁cofactors	13
▁coverslip	13
▁cherry	13
▁Bud	13
▁Complement	13
▁Oi	13
▁Kolmogor	13
▁PB	13
enon	13
itol	13
▁Sheppard	13
▁amn	13
▁Euclid	13
▁spades	13
▁semen	13
ogenic	13
▁Kuhn	13
▁Carlo	13
▁simplifying	13
▁IQR	13
▁Stick	13
▁interchang	13
▁choline	13
▁NaCl	13
▁associativity	13
▁secretory	13
▁Modul	13
divided	13
▁gN	13
chi	13
▁judiciously	12
▁Refine	12
▁spotlight	12
▁cancelled	12
▁workforce	12
▁flavors	12
▁Delivery	12
▁Frank	12
▁noun	12
▁verb	12
▁INT	12
▁redesign	12
Hi	12
▁Perhaps	12
▁Bit	12
▁alternatively	12
▁speedy	12
▁trips	12
▁unsuccessful	12
elief	12
▁spirit	12
▁Adware	12
▁Cap	12
▁MY	12
▁appealing	12
lin	12
▁Mono	12
▁encouraged	12
▁NLP	12
▁modifier	12
ura	12
▁courts	12
AR	12
Applications	12
▁dilemma	12
▁delayed	12
▁Explicit	12
▁newsgroups	12
▁reconsider	12
▁upgrading	12
▁gambling	12
▁organised	12
▁motivations	12
▁sentiment	12
▁classifiers	12
▁numerals	12
▁delegate	12
▁notebooks	12
▁Flip	12
▁Peterse	12
▁Measurements	12
▁Platform	12
▁Allow	12
▁propose	12
▁translators	12
▁CRM	12
▁addressee	12
▁JPG	12
magine	12
▁Sheet	12
▁workbook	12
▁polarity	12
color	12
▁Worker	12
▁darkness	12
▁segmentation	12
▁beginners	12
▁budgets	12
▁clothes	12
▁smear	12
▁episodes	12
▁Soft	12
board	12
▁Presenter	12
▁curviness	12
ating	12
▁Units	12
▁Recognition	12
▁compiled	12
▁phosphorus	12
▁Tube	12
un	12
digital	12
▁burning	12
inked	12
▁bounced	12
epetition	12
▁Wheel	12
▁PAN	12
▁SOA	12
▁Sensitivity	12
▁copyrights	12
▁Monitors	12
▁fatigue	12
▁Panchayat	12
▁Noise	12
▁pleasure	12
▁York	12
▁Garg	12
ynchronous	12
▁sexual	12
▁debts	12
▁July	12
▁reception	12
▁answered	12
▁Executive	12
ilber	12
▁Korth	12
▁Previously	12
▁la	12
▁upwards	12
▁Source	12
▁Client	12
▁granular	12
▁packs	12
▁House	12
▁stuffing	12
Modern	12
▁modalities	12
unk	12
▁La	12
▁justify	12
▁outlook	12
▁CF	12
▁Cole	12
▁Xerte	12
Resources	12
pyr	12
alicious	12
▁literals	12
▁Translat	12
carbonate	12
▁Mi	12
▁ingredients	12
▁reconnaissance	12
▁faded	12
▁Joint	12
▁God	12
▁editorial	12
▁pink	12
▁gigahertz	12
▁indications	12
designed	12
▁murder	12
▁worst	12
▁RG	12
▁distributor	12
▁IQ	12
▁Palettes	12
logical	12
▁Setting	12
▁db	12
▁responsive	12
FC	12
alternat	12
DC	12
▁downloads	12
▁cotree	12
▁IBL	12
patched	12
business	12
Random	12
▁maya	12
▁viewpoint	12
▁chronological	12
▁licenses	12
▁colleges	12
type	12
▁shipp	12
Security	12
▁Label	12
Eight	12
▁hijacking	12
▁BD	12
▁Gre	12
▁OQL	12
LS	12
▁Recent	12
Operat	12
▁Grant	12
variant	12
green	12
▁NIST	12
▁adaptation	12
encrypted	12
▁profound	12
▁zones	12
open	12
▁WLAN	12
▁Behavior	12
▁anomal	12
held	12
▁seamlessly	12
Nowadays	12
▁ergonomics	12
▁unsecured	12
▁enjoying	12
▁varchar	12
▁Eventually	12
▁GNOME	12
▁KDE	12
▁ice	12
trans	12
▁missions	12
▁patch	12
▁compensate	12
▁occupie	12
▁bottlenecks	12
▁chair	12
▁Rectangle	12
Root	12
▁salin	12
▁Indians	12
book	12
IR	12
▁reviv	12
▁Machines	12
▁legally	12
▁Menu	12
▁Products	12
▁tourism	12
▁girth	12
▁Microfilm	12
AC	12
▁ODBMS	12
Level	12
▁Specify	12
piral	12
▁Gold	12
▁Electric	12
▁passages	12
▁Typical	12
▁CSS	12
▁Road	12
▁ads	12
▁appreciated	12
jet	12
▁Roll	12
dditive	12
ancy	12
▁Cover	12
▁Generation	12
▁Bomb	12
▁luminance	12
▁affairs	12
technical	12
memory	12
ssembly	12
▁alphas	12
SSC	12
▁DM	12
▁threatening	12
unning	12
this	12
▁hazard	12
▁twentieth	12
▁pixelate	12
▁coverings	12
▁Monoalphabetic	12
▁retardation	12
points	12
▁Track	12
▁costlier	12
▁compani	12
▁Hand	12
▁occlusion	12
▁memorize	12
▁Near	12
▁PMT	12
▁seller	12
▁Difficulties	12
▁encipherment	12
▁Stream	12
New	12
▁discarding	12
▁unified	12
ions	12
▁thrice	12
▁Af	12
ding	12
▁Establish	12
▁Basis	12
table	12
directed	12
▁flux	12
▁stabilize	12
BT	12
▁forties	12
▁ch	12
knowingly	12
Chief	12
▁encouragement	12
▁hydro	12
what	12
▁Gmail	12
▁lip	12
lready	12
▁Dictionary	12
bita	12
▁Smartphone	12
▁shops	12
height	12
▁Import	12
▁bulky	12
▁hamster	12
some	12
▁caught	12
Software	12
▁floppy	12
▁chee	12
VC	12
▁Eckert	12
▁Mauchley	12
\	12
▁Wage	12
▁subschema	12
run	12
▁remembering	12
▁Don	12
▁recurr	12
Try	12
▁Klein	12
▁radial	12
▁elongate	12
ICT	12
▁stretched	12
actual	12
▁funding	12
▁deficiencies	12
▁Gupta	12
Mathematica	12
ssessment	12
▁secrecy	12
▁explanatory	12
NEL	12
▁stringent	12
▁immensely	12
é	12
opics	12
▁microwaves	12
▁Prediction	12
▁unrealistic	12
teric	12
▁Ec	12
▁converging	12
▁employers	12
▁PCB	12
▁burn	12
▁Neste	12
rov	12
planned	12
▁scooter	12
chromosomal	12
valued	12
fabricated	12
▁Height	12
▁economiz	12
▁wild	12
▁Font	12
monetary	12
▁Closure	12
▁regressions	12
▁SA	12
▁Sons	12
▁abscissa	12
▁adaptors	12
olic	12
▁declines	12
▁Advantage	12
▁Quant	12
▁constitutive	12
▁Shel	12
▁axb	12
▁granules	12
▁vaccines	12
chemical	12
olecular	12
investment	12
▁uptake	12
▁doublets	12
▁Neyman	12
DT	12
▁GAPDH	12
▁STED	12
)!.	12
▁inhibitors	12
▁Compute	12
smoker	12
▁Hawt	12
▁RNases	12
▁analyzers	12
▁gamete	12
▁adsorbed	12
dn	12
▁recollect	12
▁buoyan	12
Γ	12
▁reproductive	12
ogram	12
▁instantaneously	12
▁ramification	12
)+...+	12
urchi	12
▁fluorochromes	12
▁vertebrate	12
▁spine	12
ndogenous	12
▁bm	12
▁atfactor	12
xponential	12
▁quadrupoles	12
ecular	12
▁hybridizes	12
▁Classes	12
▁quantifies	12
shion	12
▁TRIzol	12
▁Clinical	12
▁protonated	12
▁urine	12
▁anagram	12
▁chambers	12
▁Yule	12
▁Neglect	12
▁subjectively	12
ffecting	12
▁campaigning	12
▁torrent	12
onjugate	12
▁nCr	12
idem	12
▁xiyi	12
▁vitamin	12
▁kp	12
▁Yates	12
▁sperms	12
▁lasers	12
MAX	12
wi	12
wixi	12
▁homogeneity	12
▁lim	12
etal	12
▁incubate	12
▁epigenetic	12
intercept	12
▁BY	12
▁silicone	12
▁facet	12
▁BK	12
Agostino	12
▁Fitting	12
xiyi	12
▁cysteine	12
ci	12
▁sectioning	12
▁vessel	12
▁albinism	12
▁weightage	12
▁homolog	12
▁fluctuating	12
▁shirts	12
injections	12
▁Kelly	12
▁dUTP	12
▁fridge	12
▁weaker	12
▁fallacious	12
▁fz	12
▁Cosh	12
▁kidney	12
▁cytokines	12
▁fluorine	12
▁adjoint	12
▁thermostable	12
▁linearized	12
▁iceberg	12
▁hybridizing	12
▁autis	12
▁progeny	12
▁farms	12
▁bladder	12
▁Wk	12
▁attainable	11
▁gadgets	11
disciplinary	11
▁Require	11
Due	11
▁chose	11
▁Wave	11
▁pathways	11
▁Strategy	11
Capability	11
▁Nations	11
▁religio	11
▁obsolete	11
▁throws	11
ES	11
Glass	11
RAM	11
▁INSERT	11
▁deteriorate	11
▁hints	11
▁fish	11
▁facilitator	11
▁Task	11
▁furnish	11
▁entails	11
▁hopefully	11
▁microcomputer	11
▁duplicat	11
▁Conventional	11
profit	11
▁Steven	11
▁FM	11
▁anatomy	11
▁assembling	11
▁Architecture	11
▁NAME	11
▁LR	11
▁concise	11
▁delays	11
▁Sinha	11
ons	11
▁slopes	11
▁unidirectional	11
cast	11
▁validating	11
▁margins	11
uti	11
▁writer	11
▁Boruvka	11
▁Marquee	11
▁Everything	11
▁Federa	11
perate	11
▁impractica	11
▁stepp	11
▁lit	11
▁Layers	11
▁tailored	11
▁iteratively	11
▁mechanically	11
▁scheduler	11
▁conversely	11
exa	11
▁weird	11
control	11
▁aggressive	11
▁Encapsulati	11
▁sided	11
nda	11
▁interactivity	11
▁monochromatic	11
Traditionally	11
▁hearing	11
▁IPsec	11
▁Customers	11
▁verdict	11
Can	11
▁arrives	11
▁Prepare	11
▁linotype	11
▁uncovered	11
teleconferencing	11
▁interfer	11
▁engraving	11
▁deception	11
ffline	11
▁Increasing	11
cible	11
▁maximise	11
▁Guard	11
▁diam	11
▁Panoply	11
▁Vice	11
▁fly	11
▁Raster	11
▁Link	11
▁Command	11
▁neighbourhood	11
▁TP	11
▁Roman	11
▁thresholds	11
▁tank	11
▁sir	11
▁synonyms	11
▁incremented	11
▁walking	11
▁catering	11
▁oxidation	11
▁loophole	11
▁logins	11
▁PIN	11
▁depart	11
▁justified	11
▁malaria	11
▁tuning	11
▁morality	11
▁overfitting	11
gical	11
▁Cyan	11
▁Threat	11
secret	11
▁loosely	11
AT	11
▁PLAYF	11
▁crawl	11
▁lecturer	11
▁Ko	11
▁sponsor	11
▁watched	11
▁Preset	11
▁vandalism	11
BA	11
▁certainty	11
▁cycl	11
▁Volume	11
▁opinions	11
▁leaking	11
▁banners	11
▁evaluations	11
▁Coursera	11
room	11
CA	11
IMS	11
ni	11
▁Labels	11
▁sea	11
Input	11
discipline	11
▁angry	11
▁eradicat	11
▁nineties	11
▁exercised	11
▁keystroke	11
▁overseas	11
▁teeth	11
▁Orange	11
isomorphic	11
▁DCL	11
▁geographically	11
▁daylight	11
▁Ruby	11
▁Inmon	11
▁Airline	11
▁stretching	11
▁conductors	11
▁streamline	11
▁malfunctions	11
▁Psychology	11
rew	11
▁accompany	11
▁familiarity	11
▁bulb	11
▁Handle	11
▁utterances	11
▁Hard	11
ach	11
ON	11
RITY	11
▁Mad	11
▁semantics	11
▁revenues	11
▁cryptocurrency	11
nteractive	11
▁adware	11
group	11
Minu	11
▁accustom	11
▁Bo	11
▁seamless	11
▁interrupted	11
Copyright	11
can	11
▁tedious	11
▁hello	11
▁remedies	11
▁Squares	11
Hav	11
▁gases	11
▁Assign	11
▁qualify	11
Output	11
▁cavity	11
▁Capture	11
▁forge	11
ified	11
workers	11
▁lighted	11
▁telephony	11
▁Visuals	11
National	11
ad	11
▁insulation	11
▁Pages	11
▁revoke	11
▁Drawing	11
▁quantitatively	11
▁uncertainties	11
factorable	11
▁Export	11
▁NAS	11
Execution	11
▁grammatical	11
▁handshaking	11
▁CCD	11
thical	11
▁Oracle	11
▁incredibl	11
minute	11
▁LinkedIn	11
▁dialogues	11
▁emboss	11
▁blueprint	11
Office	11
tz	11
▁Interpretation	11
▁Gateway	11
▁Activity	11
▁Publications	11
▁Messages	11
ailway	11
▁cardinalities	11
▁Get	11
▁Columns	11
▁Stylometr	11
▁Minor	11
berg	11
▁Hat	11
▁reap	11
▁invited	11
▁proposals	11
▁tray	11
▁hammer	11
attle	11
▁strengthen	11
▁Gutenberg	11
▁cannibal	11
▁gentleman	11
▁RA	11
▁tuned	11
▁megahertz	11
raj	11
▁parallelism	11
▁colorings	11
▁retirement	11
ising	11
▁Ultra	11
stroke	11
▁drastic	11
▁po	11
▁pole	11
EA	11
stream	11
▁Russia	11
▁hacks	11
▁nozzle	11
▁knowledgeable	11
liable	11
▁greeting	11
assive	11
▁Initialization	11
▁Experimental	11
▁Horse	11
▁Doors	11
▁Seven	11
▁plausible	11
▁linearity	11
▁sync	11
▁desktops	11
▁fumes	11
▁fiction	11
▁reversed	11
▁legislation	11
▁Foot	11
▁Planar	11
▁keen	11
ometric	11
vity	11
▁Examin	11
▁Left	11
tochastic	11
▁Descent	11
▁Ra	11
▁unwrapping	11
▁inactive	11
▁Narrow	11
▁substantially	11
▁hues	11
▁wholesale	11
▁Standardisation	11
▁caps	11
▁offence	11
utomated	11
▁OF	11
▁edits	11
▁scholars	11
▁evade	11
Few	11
▁revocation	11
owing	11
▁roof	11
redictive	11
▁recursively	11
▁superiors	11
▁cathode	11
▁Warehousing	11
land	11
▁achievable	11
ground	11
▁Up	11
▁buffered	11
▁obscure	11
Set	11
relationship	11
Student	11
▁interception	11
▁overshoot	11
▁ActiveX	11
▁East	11
lends	11
top	11
▁thirteenth	11
▁worthwhile	11
▁Body	11
▁thermo	11
flow	11
è	11
elegation	11
▁Contingency	11
▁elevat	11
▁influential	11
▁horizon	11
▁disregard	11
▁botnet	11
▁deaths	11
▁Especially	11
▁Film	11
▁Paste	11
roni	11
BI	11
ER	11
▁spy	11
▁shallow	11
▁Rural	11
lide	11
▁bullets	11
▁compile	11
▁RIP	11
braces	11
▁lever	11
▁precursor	11
▁Beta	11
▁Directors	11
▁globul	11
▁Forum	11
▁Ne	11
▁tired	11
▁inward	11
▁wx	11
▁interrogat	11
▁solar	11
▁Si	11
▁pulling	11
▁optionally	11
▁hyphen	11
▁knight	11
inda	11
▁hom	11
▁diamond	11
cash	11
▁interdependent	11
▁Kernel	11
▁twins	11
▁centimetre	11
orne	11
▁indefinite	11
▁Scientist	11
▁philosopher	11
▁arg	11
▁Filter	11
▁PDA	11
▁Cycles	11
▁intermediary	11
▁epi	11
▁consent	11
▁condensation	11
▁argue	11
▁seat	11
▁fd	11
▁alike	11
ika	11
Net	11
ara	11
▁Tan	11
▁ICs	11
ight	11
▁fourteenth	11
▁Regard	11
prime	11
Business	11
▁PP	11
enable	11
▁polysaccharides	11
▁effected	11
▁innings	11
column	11
▁ammoni	11
▁Dalton	11
sampling	11
dz	11
▁invad	11
▁Grouping	11
▁deplete	11
▁Trigonometric	11
▁Frequencies	11
.</	11
▁inbuilt	11
▁abx	11
▁aijxj	11
▁Deficit	11
▁suitability	11
▁equivalently	11
▁*'	11
▁trypsin	11
▁liters	11
▁Fx	11
▁discretize	11
▁peculiarit	11
▁discrepancy	11
▁Acid	11
▁Kapoor	11
▁HM	11
▁runge	11
polymer	11
▁curvilinear	11
▁ddNTPs	11
▁mutant	11
hen	11
)].	11
▁calibrate	11
▁HillSlope	11
▁dehydrogenase	11
▁hemolysis	11
▁Centrifug	11
▁award	11
▁molality	11
▁genotype	11
▁bacmid	11
τ	11
▁Aristot	11
▁solubility	11
▁nCx	11
▁slot	11
▁Coul	11
▁diabetes	11
▁rb	11
▁]\,...	11
▁fa	11
cinchon	11
▁tubular	11
▁plugg	11
akx	11
▁negativity	11
▁debris	11
▁derivatization	11
▁microliters	11
chro	11
otes	11
fertil	11
▁meningitis	11
▁Pyrophosphate	11
household	11
▁Mesokurtic	11
▁binder	11
▁yl	11
▁Agriculture	11
▁skeletal	11
▁guanidinium	11
▁soil	11
▁Vt	11
▁RNAse	11
cumulative	11
▁refrigeration	11
summation	11
inity	11
imer	11
▁electrolyte	11
▁apoptotic	11
||≤	11
omparative	11
▁stabilization	11
▁Likelihood	11
▁telescope	11
▁glutami	11
▁nucleases	11
▁stains	11
▁zi	11
▁triphosphates	11
▁Electron	11
▁Isolation	11
▁Pois	11
▁Criticism	11
▁helix	11
▁Stra	11
▁volt	11
▁lid	11
▁cogent	11
fixed	11
▁phylogenetic	11
once	11
government	11
▁cubicle	10
▁normalizing	10
▁Canada	10
▁Photographs	10
WAN	10
▁Appreciat	10
▁Staging	10
▁Etiquette	10
white	10
▁UGC	10
they	10
▁principals	10
▁Shaw	10
▁Team	10
▁presenter	10
▁resort	10
▁perimeter	10
▁punch	10
▁stimuli	10
ersonalized	10
▁impersonate	10
▁duplex	10
▁CAL	10
▁applicants	10
▁solids	10
▁nutrient	10
▁pollutants	10
▁Clean	10
▁Se	10
vocation	10
▁Radio	10
▁passport	10
▁qualification	10
▁Inf	10
▁polymorphi	10
▁issuer	10
▁sharpen	10
▁favor	10
▁watches	10
▁educate	10
▁comprehensible	10
▁Edward	10
▁streets	10
▁asymmetry	10
▁telephones	10
▁expects	10
familiar	10
▁Saturation	10
star	10
▁GB	10
▁seasonal	10
▁prohibited	10
▁Sans	10
AUTHENT	10
▁vanilla	10
▁compil	10
▁TCL	10
▁Spending	10
▁questioning	10
▁Nov	10
▁Adjacency	10
reachable	10
ssesses	10
▁EC	10
▁Innovation	10
▁animator	10
▁cough	10
▁Procedure	10
▁appointment	10
▁bowl	10
con	10
▁acknowledgement	10
▁increment	10
▁occupants	10
▁Procedures	10
▁italic	10
▁Mill	10
ariety	10
▁threaten	10
▁posses	10
▁allowance	10
▁reproduced	10
▁Replace	10
▁typos	10
▁Corporat	10
▁Choice	10
▁Node	10
▁padlock	10
secure	10
▁retailer	10
▁zinc	10
▁coff	10
▁promoted	10
UV	10
ora	10
▁Oct	10
▁clever	10
variable	10
Bus	10
▁Sound	10
▁Outline	10
▁snow	10
▁Sun	10
▁operands	10
▁Job	10
▁platters	10
▁Bangalore	10
▁NULL	10
Dot	10
▁soak	10
▁correlat	10
▁ROUND	10
studio	10
▁susceptibility	10
▁semicolon	10
Special	10
▁highway	10
▁investigati	10
▁Processor	10
▁sustain	10
▁rewrit	10
▁cooler	10
even	10
▁Circuit	10
ily	10
▁wiki	10
▁brochure	10
nna	10
chest	10
agpur	10
▁infrastructures	10
▁persuasion	10
active	10
▁cardholder	10
▁categorisation	10
ha	10
▁sp	10
inches	10
▁Agency	10
▁Foundation	10
▁rotates	10
▁decrement	10
ache	10
▁recreation	10
▁Thinking	10
▁vacation	10
▁enthusiastic	10
▁requisite	10
▁Intel	10
▁keystream	10
▁conductor	10
▁contracting	10
list	10
tude	10
ace	10
▁handouts	10
▁Digest	10
Are	10
▁groove	10
▁manipulator	10
▁Mills	10
▁Programmers	10
ecessary	10
▁countermeasure	10
▁Commonly	10
▁bombing	10
▁Opera	10
BS	10
▁floods	10
▁cutset	10
▁attracts	10
▁CP	10
▁revising	10
▁Compliance	10
▁obligations	10
▁promise	10
Programs	10
▁prohibit	10
▁Machinery	10
▁Sets	10
▁shrinking	10
nergy	10
lapsed	10
formed	10
▁associating	10
▁ME	10
▁memories	10
▁setups	10
▁resistors	10
▁interconnection	10
▁Peter	10
▁Chrome	10
▁Metr	10
▁waits	10
▁leak	10
Man	10
wareness	10
▁miner	10
▁Unlimited	10
▁Mailing	10
▁counterfeit	10
Audio	10
▁Adagrad	10
▁Kingdom	10
▁FP	10
▁traversed	10
Development	10
▁volatility	10
▁Extended	10
▁Fleury	10
▁reminders	10
▁questionnaires	10
▁mainframe	10
cumulated	10
▁legs	10
▁violence	10
▁destinations	10
▁practitioners	10
▁belt	10
▁drift	10
▁continual	10
▁Tamil	10
▁Ostrich	10
▁catalogued	10
▁flipp	10
att	10
▁inspire	10
Color	10
rincipal	10
▁emulsion	10
▁obligation	10
▁intermediaries	10
▁Learner	10
▁Focus	10
▁ju	10
▁puppets	10
da	10
▁PSD	10
▁Aldus	10
▁API	10
▁exceeds	10
▁questioned	10
exactness	10
▁Format	10
▁radians	10
▁cooperate	10
na	10
▁XSS	10
▁uninterrupted	10
Class	10
▁silence	10
parate	10
▁Seventy	10
▁vapors	10
because	10
▁Departmental	10
▁periodicals	10
▁trades	10
▁clearing	10
▁auditors	10
worthy	10
▁wrinkles	10
▁Words	10
▁slice	10
▁condensed	10
▁powder	10
▁damag	10
▁Conclud	10
select	10
▁jointly	10
▁ecommerce	10
▁DB	10
▁calligraphy	10
▁identifiers	10
▁holiday	10
▁effortlessly	10
▁interferences	10
▁Healthcare	10
▁creators	10
▁Edges	10
▁Six	10
▁spoof	10
▁affix	10
▁scar	10
▁Remote	10
alias	10
▁touchpad	10
▁stylometric	10
▁Outliner	10
▁formalization	10
▁hypergraph	10
▁roads	10
▁cracked	10
tree	10
▁prevailing	10
▁trays	10
▁individualize	10
▁Adjust	10
▁Bij	10
▁privately	10
▁surfing	10
solving	10
▁outsourced	10
▁Correspondence	10
▁forensically	10
▁gifted	10
▁enclose	10
▁Knoll	10
▁sh	10
▁missionary	10
▁farming	10
▁archives	10
ney	10
▁Departments	10
▁AIS	10
▁contiguous	10
ti	10
▁leaked	10
▁sabotage	10
verbal	10
▁Numerical	10
▁west	10
▁neighbour	10
de	10
pass	10
▁Retrieval	10
be	10
▁zombie	10
▁itemset	10
▁Magazines	10
▁manuscript	10
complimentary	10
▁bull	10
▁emerge	10
quality	10
▁Utility	10
▁depths	10
▁accessories	10
▁trading	10
Upon	10
hash	10
living	10
ft	10
▁victimology	10
assessment	10
vt	10
arry	10
▁adversary	10
▁strains	10
▁sniffing	10
▁increments	10
transport	10
▁blast	10
▁retire	10
▁enriching	10
▁Symbol	10
▁illustrative	10
▁wishlist	10
▁Maps	10
▁Semi	10
▁clothing	10
cular	10
▁Password	10
▁daisy	10
▁flour	10
▁planners	10
▁wirelessly	10
▁cru	10
FL	10
▁updation	10
▁Acquire	10
▁Fine	10
▁Offset	10
▁monotonous	10
▁surprise	10
ferred	10
asterize	10
▁researches	10
▁bug	10
▁reasonabl	10
different	10
▁serially	10
▁VO	10
▁exr	10
▁scholar	10
▁bas	10
ying	10
▁showcase	10
▁vic	10
Especially	10
▁SmartArt	10
▁inkjet	10
▁vx	10
▁bookmarking	10
Persistence	10
▁Frederic	10
peer	10
▁memo	10
▁OSSEC	10
▁Vigen	10
having	10
▁NT	10
ivity	10
▁pirate	10
▁proceedings	10
▁Extreme	10
▁Pro	10
▁steepe	10
▁warmer	10
▁November	10
existence	10
▁Scan	10
▁flatbed	10
▁transverse	10
cautions	10
alidation	10
▁Illustrator	10
unny	10
▁semester	10
ho	10
▁newsletters	10
▁Organizing	10
▁num	10
▁lowered	10
▁chatroom	10
▁feeds	10
▁wouldn	10
▁trackball	10
▁objectively	10
▁seated	10
▁deviating	10
itation	10
▁explores	10
▁recombine	10
▁Brewer	10
▁Malware	10
efficient	10
▁accumulator	10
▁fancy	10
ime	10
▁confirmed	10
nguided	10
▁uh	10
▁Things	10
Users	10
▁Judge	10
▁unwinding	10
▁Alpha	10
▁sofa	10
▁Proposition	10
▁incur	10
▁Carbon	10
▁neck	10
▁Mutual	10
▁kid	10
▁rock	10
CMAC	10
▁England	10
▁remotely	10
▁hero	10
▁willingness	10
▁WordArt	10
▁attache	10
▁mistaken	10
▁xxx	10
▁encodes	10
▁scientifically	10
▁stiff	10
▁kin	10
▁spelling	10
▁rad	10
force	10
▁tears	10
▁Tear	10
ters	10
▁Ideal	10
▁annually	10
▁island	10
▁Broadly	10
users	10
▁BNC	10
▁ignoran	10
▁Exactly	10
▁unparent	10
loud	10
▁Interpret	10
▁cooled	10
▁mirrors	10
▁Clon	10
▁dissect	10
▁Del	10
▁Ocean	10
national	10
▁anatomical	10
▁muscles	10
▁mari	10
▁disrupted	10
▁Ramp	10
▁trickie	10
ista	10
▁accelerat	10
▁flask	10
▁homogenize	10
omb	10
▁comb	10
▁CBI	10
epi	10
▁reminder	10
▁Contain	10
▁Aids	10
ex	10
▁gratification	10
▁Corresponding	10
▁detach	10
▁polluted	10
▁octet	10
▁Generat	10
▁luxury	10
▁immunophenotyp	10
▁PBMNC	10
▁cytochrome	10
▁syst	10
▁miscib	10
▁Thi	10
idyl	10
▁solvable	10
ositron	10
Spearman	10
▁VII	10
▁Year	10
▁Eastern	10
▁oils	10
▁patho	10
physiological	10
Zero	10
▁kilograms	10
)....	10
▁Census	10
ordinates	10
▁abc	10
▁hundredth	10
▁abort	10
▁Bis	10
▁Mise	10
▁Questionnaire	10
▁bY	10
▁YACs	10
▁microbiology	10
▁preform	10
)|	10
▁OC	10
transactions	10
consumption	10
qet	10
▁bandpass	10
▁torture	10
▁Bc	10
▁Engineers	10
▁hD	10
rich	10
▁TB	10
▁galactosidase	10
mmunoprecipitate	10
▁Hoechst	10
!(	10
▁Observations	10
▁PromethION	10
▁PL	10
▁labelling	10
ric	10
ntermediate	10
▁contaminants	10
|/	10
▁husband	10
▁Taxation	10
▁benchtop	10
▁deflater	10
▁Leishmaniasis	10
EME	10
▁polylinker	10
wn	10
▁dissociates	10
▁marrow	10
sion	10
▁tha	10
▁TU	10
oligonucleotides	10
▁Interpolati	10
ovary	10
▁hy	10
▁ester	10
▁GE	10
▁glute	10
▁noninvasive	10
Schmi	10
▁ATG	10
▁OB	10
▁bench	10
▁AN	10
Ex	10
▁]...	10
▁detergents	10
ethyl	10
wx	10
▁anchoring	10
▁YEp	10
▁Monday	10
]\,	10
dg	10
▁TSH	10
▁tubercul	10
▁purine	10
▁cosx	10
▁Lx	10
oral	10
gricultural	10
▁spheres	10
ortality	10
▁elut	10
Cx	10
▁Bonfer	10
▁Producer	10
▁urn	10
▁bo	10
▁probed	10
▁committees	10
Out	10
▁clinicians	10
osine	10
▁macrophages	10
▁void	10
▁AJ	10
▁solitons	10
▁aceto	10
▁foreigners	10
▁inflammation	10
▁Wald	10
▁ribosom	10
▁carboxyl	10
▁Normality	10
ME	10
▁bang	10
⊂	10
▁equilibration	10
centrifuge	10
!+...	10
▁verecundiam	10
▁pressures	10
▁Drug	10
▁irreducible	10
▁hepatitis	10
market	10
▁Summarizing	10
▁isoforms	10
▁tetramer	10
▁negation	10
Fp	10
▁lysine	10
ᣴ	10
ratio	10
▁micrococca	10
▁Wheat	10
interval	10
▁elongation	10
▁sugars	10
abelian	10
affin	10
▁angiosperm	10
▁plunger	10
▁cytoplasm	10
▁rpm	10
▁radiolabel	10
▁rains	10
▁ROX	10
▁annihilation	10
▁LHS	10
▁RHS	10
hn	10
▁infarction	10
responders	10
▁Purchas	10
▁heparin	10
▁Lz	10
▁posteriori	10
▁cosines	10
▁polymers	10
Ef	10
▁LV	10
tal	10
^+*	10
▁Paithalmala	10
▁cloudy	10
▁equivalenc	10
▁butter	10
▁Tj	10
▁DMS	10
capital	10
▁ki	10
▁Meadow	10
▁hybridizations	10
▁Cloth	10
▁hydrochloride	10
▁Conca	10
naval	10
Variables	10
CL	10
▁substrates	10
▁Fn	10
▁celebrate	9
ognitive	9
▁devise	9
▁diligence	9
▁voluntar	9
▁pan	9
▁concatenation	9
▁PostScript	9
access	9
▁endeavors	9
▁behaves	9
▁payloads	9
▁Agents	9
▁robot	9
node	9
▁Airlines	9
▁Train	9
▁federal	9
▁goodwill	9
▁profitable	9
arily	9
▁connectedness	9
▁discharge	9
Book	9
adequate	9
leased	9
pport	9
▁summarisation	9
▁rightly	9
▁spring	9
▁GMM	9
▁clips	9
ladding	9
▁interventions	9
▁Areas	9
▁anonymity	9
▁Har	9
▁redraw	9
cross	9
PIC	9
▁tighter	9
▁blob	9
▁roughness	9
▁competitions	9
▁announced	9
▁NOT	9
▁masthead	9
▁bothered	9
▁roller	9
Assign	9
▁Reduc	9
▁bombarded	9
▁tier	9
▁architect	9
▁ortho	9
TC	9
▁eligibility	9
▁anger	9
▁finances	9
▁revenge	9
oom	9
▁Mechanisms	9
lateral	9
▁payable	9
▁hump	9
▁accumulating	9
▁trafficking	9
▁ascertain	9
▁elbow	9
▁Gar	9
▁Determin	9
▁Webster	9
▁thinkers	9
▁gamers	9
▁Manuals	9
▁brochures	9
▁pursue	9
evelopers	9
▁Ph	9
▁pill	9
▁gra	9
▁smell	9
▁enemy	9
▁intelligible	9
▁phishers	9
tasking	9
▁enhancements	9
▁bureau	9
▁Phishing	9
▁immersive	9
▁Bevel	9
▁Eavesdropping	9
▁standardised	9
▁revealing	9
▁Materials	9
icide	9
Types	9
▁beginner	9
RE	9
▁masquerade	9
▁ERSAC	9
▁letterpress	9
▁ellipse	9
▁Ticket	9
inland	9
only	9
▁disappears	9
▁Novice	9
▁DVDs	9
▁confront	9
▁GP	9
blocks	9
ortable	9
solicited	9
▁distracting	9
vine	9
Knowing	9
▁isolates	9
▁externally	9
External	9
▁perfection	9
▁practicing	9
ometer	9
▁hassle	9
▁Travel	9
▁Essentially	9
▁mailbox	9
ducing	9
▁photoshop	9
▁Terminator	9
▁recruited	9
▁Sta	9
▁revok	9
▁sophistication	9
▁shutt	9
▁KBT	9
cademy	9
▁amendment	9
▁originals	9
▁LibreOffice	9
▁acquaint	9
teen	9
pplied	9
▁fram	9
▁cutoffs	9
▁irritation	9
▁nose	9
▁Tip	9
Machine	9
▁Smartfill	9
RJ	9
▁inventors	9
CT	9
▁Eviden	9
▁Parameters	9
▁Italy	9
▁businessmen	9
▁Sign	9
▁Institutes	9
▁UN	9
erman	9
▁pa	9
▁Monoprints	9
▁png	9
▁quantifiable	9
▁Constant	9
▁mold	9
▁worrie	9
art	9
form	9
▁gear	9
▁containment	9
▁legality	9
▁debug	9
her	9
▁reinforc	9
▁Dynamics	9
optimal	9
▁confer	9
▁unacceptable	9
agged	9
▁Storing	9
▁Eras	9
▁administered	9
▁Atanasoff	9
▁pooling	9
▁collaborating	9
Current	9
▁Codes	9
▁twist	9
▁housing	9
▁cg	9
▁Scalability	9
▁invariably	9
Very	9
PES	9
▁counterpart	9
CI	9
▁Analytics	9
ordination	9
▁Specification	9
▁Eighth	9
Podcasting	9
▁Dial	9
▁openings	9
▁PD	9
▁Cricket	9
▁calendars	9
▁seminars	9
OLTP	9
▁Hyderabad	9
▁Notes	9
▁Rectangles	9
▁Rout	9
▁complicate	9
▁glare	9
▁weapon	9
▁gait	9
phisticated	9
▁van	9
▁Expand	9
▁Fund	9
▁spreads	9
▁outweigh	9
▁Brazilian	9
▁Cheap	9
▁Jobs	9
▁merchants	9
▁actu	9
▁Letters	9
iStandardsurface	9
▁researched	9
isible	9
▁octagon	9
▁Rogers	9
cipher	9
duplication	9
object	9
▁Precision	9
▁penal	9
▁grip	9
▁brick	9
▁drinks	9
▁Ethics	9
ipping	9
▁pho	9
▁titrat	9
▁Fin	9
▁Deco	9
▁Magazine	9
bout	9
Education	9
▁Should	9
▁Partitioning	9
▁peace	9
▁portfolio	9
▁Regardless	9
▁Monitoring	9
▁fulfilling	9
▁optimally	9
▁fals	9
▁jamming	9
▁ext	9
▁burned	9
▁competency	9
▁neighbours	9
▁liking	9
▁Above	9
▁cybercrimes	9
▁pockets	9
▁Robert	9
fensive	9
▁pointers	9
CBC	9
▁deterministic	9
▁Condition	9
▁avenues	9
▁pupil	9
▁forwarding	9
▁procur	9
valuable	9
▁Emp	9
▁quad	9
▁grief	9
▁Crop	9
▁spur	9
za	9
▁causal	9
▁Documents	9
▁conflicting	9
life	9
▁elevation	9
▁invasion	9
▁Smooth	9
▁props	9
▁circulated	9
▁notification	9
▁identifi	9
▁adaptability	9
opoli	9
▁Che	9
ists	9
▁RMSProp	9
▁mall	9
▁Compare	9
▁Generated	9
▁tick	9
▁unchecked	9
▁Par	9
mposition	9
▁guards	9
▁satisfactory	9
▁Optional	9
science	9
impact	9
sen	9
▁Brief	9
▁maker	9
▁motivates	9
▁Newspapers	9
Drum	9
▁mnemonic	9
▁sl	9
▁Representati	9
▁Nigeria	9
▁SETM	9
▁edu	9
Alias	9
▁Wavefront	9
▁urgent	9
▁pane	9
▁Brute	9
▁forego	9
▁trash	9
▁uncheck	9
gel	9
wide	9
▁Mozilla	9
▁mi	9
▁deficient	9
▁submitting	9
virus	9
▁pupils	9
▁Come	9
▁hinder	9
Maximiz	9
▁XL	9
▁potentials	9
▁conceive	9
▁Info	9
▁Dhar	9
▁diodes	9
▁misconception	9
▁MHRD	9
ogistic	9
Wi	9
▁Mapping	9
▁MICR	9
Clark	9
▁blanking	9
▁grayscale	9
▁strik	9
▁traditions	9
▁Th	9
▁dia	9
▁LG	9
▁amenities	9
critical	9
▁emphasiz	9
▁attrition	9
▁imperfect	9
▁outlet	9
▁availed	9
▁ek	9
▁denomination	9
▁checksum	9
labelled	9
▁April	9
▁locker	9
wound	9
dom	9
▁preferabl	9
▁ears	9
▁OA	9
reload	9
▁teache	9
▁CAs	9
ID	9
venting	9
▁tyre	9
▁conferences	9
▁spindle	9
Shift	9
▁illuminate	9
▁stipulate	9
Put	9
▁unexpected	9
▁Oh	9
terative	9
▁cookie	9
elian	9
▁stylus	9
▁banner	9
▁permeability	9
▁Bio	9
▁Philip	9
▁plugged	9
▁mainframes	9
▁Coding	9
▁Notepad	9
▁pushe	9
▁West	9
▁Router	9
▁grades	9
▁heaters	9
▁Advertisement	9
▁individuality	9
etty	9
frequency	9
▁wor	9
▁disseminat	9
▁additionally	9
▁drowning	9
▁slur	9
▁Furniture	9
▁wasteful	9
▁fabric	9
▁sink	9
li	9
▁classifie	9
▁progresses	9
▁Northern	9
▁Britain	9
▁enhancers	9
▁timings	9
▁Prasa	9
▁Raj	9
▁March	9
▁rainfall	9
ibility	9
▁DW	9
▁justification	9
▁standardizing	9
▁Invoices	9
▁plateau	9
▁proposal	9
▁hunting	9
Mathematical	9
▁fever	9
▁lateral	9
▁Labour	9
▁Dea	9
iro	9
▁deviated	9
▁populated	9
▁datagram	9
check	9
▁Fr	9
overlapping	9
▁detachment	9
▁stressed	9
▁Flat	9
mathematical	9
numerical	9
reflection	9
ashing	9
Secure	9
mann	9
▁assertion	9
▁skipp	9
pone	9
▁Operator	9
▁beat	9
▁printout	9
Multiple	9
▁Differences	9
▁sew	9
▁enforcing	9
▁dress	9
▁millimeters	9
Application	9
▁revolv	9
▁regularity	9
Participat	9
▁assertions	9
▁rated	9
Surface	9
eeds	9
▁dept	9
▁coincidence	9
▁lasting	9
▁tampered	9
▁interlink	9
▁lived	9
▁Documentation	9
eadily	9
▁evenly	9
▁bigrams	9
resident	9
▁Modem	9
▁stimulated	9
ilton	9
▁suggestion	9
▁economist	9
▁Legend	9
▁Item	9
▁extrapolate	9
CO	9
▁deflect	9
▁tall	9
▁sal	9
roductivity	9
▁capitalist	9
▁Hassel	9
▁toolset	9
▁Annual	9
▁Transpos	9
▁Arch	9
isposable	9
▁pharmacological	9
▁phosphates	9
▁glycoproteins	9
▁RBC	9
▁Fluorescen	9
▁hydrazine	9
Regression	9
▁earnings	9
▁Derivatization	9
▁DAPI	9
▁Gap	9
▁Stan	9
▁Cohen	9
▁neurologic	9
ain	9
▁Heat	9
npublished	9
▁lake	9
▁Skew	9
▁fertility	9
nxn	9
▁boiling	9
▁Deciles	9
acrylamide	9
▁quantitate	9
▁indeterminate	9
▁unimodal	9
▁recombinants	9
▁microbi	9
▁borrowers	9
+...	9
▁cholesterol	9
▁LRC	9
▁construe	9
▁amine	9
axial	9
PHI	9
▁metabolomics	9
istinction	9
▁proponent	9
▁proportionately	9
▁ovens	9
▁Cp	9
]+	9
▁ToolPak	9
▁lithium	9
▁interrogate	9
domain	9
▁triglycerides	9
▁avidin	9
▁Corrected	9
▁alright	9
▁Argument	9
Correlation	9
▁fluoro	9
▁globin	9
▁Possible	9
▁preoperative	9
▁necrotic	9
power	9
gnorance	9
▁lysed	9
▁Discuss	9
nZ	9
aijxj	9
▁fluorescein	9
Sample	9
warded	9
▁causati	9
▁Cardan	9
▁directionality	9
▁brakes	9
▁gx	9
FP	9
▁porous	9
cl	9
iffe	9
▁legend	9
▁enquiry	9
▁derivatized	9
▁Backward	9
ternal	9
▁imputed	9
explained	9
Spread	9
symmetrical	9
▁inequalities	9
Pearson	9
▁Debt	9
ations	9
▁incongruent	9
▁shutters	9
iuret	9
▁Hamilton	9
▁unionized	9
▁aldehyde	9
▁neutralize	9
▁epistasis	9
▁Counting	9
total	9
▁brake	9
dimension	9
iv	9
▁Distributions	9
▁tuberculosis	9
▁prognosis	9
sacchar	9
omyc	9
Coli	9
▁nanometres	9
▁swirled	9
▁factorize	9
*∫	9
multiplicative	9
▁Subgroup	9
▁spectrometr	9
lacebo	9
▁ppm	9
kin	9
product	9
▁Chatterjee	9
rosa	9
ddle	9
aired	9
▁thi	9
▁Abroad	9
▁eq	9
▁assortment	9
▁Pal	9
onic	9
Participant	9
▁chemotherapy	9
▁Urban	9
▁carbo	9
Total	9
▁Centrifugation	9
▁experimenter	9
▁depreciated	9
▁Shapiro	9
▁oven	9
▁pharmaco	9
▁workaround	9
▁cosh	9
▁CSF	9
deoxynucleotides	9
▁corrosive	9
▁digoxigenin	9
second	9
dependent	9
pectrophotometry	9
▁desalting	9
▁superimposed	9
Menten	9
microbi	9
▁Replac	9
▁dextran	9
▁zy	9
▁deoxynucleotid	9
▁peris	9
▁centrifuged	9
▁matrixes	9
▁Organum	9
▁Tsvet	9
▁Ng	9
▁urin	9
nephr	9
▁reviewer	9
Smith	9
▁Assay	9
▁Mathematician	9
pq	9
▁Mini	9
▁ambience	9
validation	9
▁follicle	9
▁rumor	9
Cn	9
▁Telnet	8
▁Mano	8
▁chocolate	8
Apply	8
▁copiers	8
passes	8
abilities	8
▁therapies	8
Character	8
▁Hue	8
ong	8
Auto	8
▁prompts	8
▁Agent	8
▁spare	8
▁crew	8
▁quotes	8
▁mandate	8
▁Keywords	8
▁attribution	8
▁Regularization	8
▁subcategories	8
▁pipelining	8
▁Misconceptions	8
▁Elimination	8
▁Stealth	8
▁sickness	8
▁IDA	8
▁staple	8
▁smarter	8
response	8
▁abbreviation	8
▁wrist	8
saving	8
raffic	8
▁Covariance	8
▁parcel	8
▁talented	8
▁admissible	8
▁robotics	8
▁Stationery	8
call	8
uitable	8
▁Centralis	8
▁deer	8
condition	8
▁tenant	8
infected	8
▁plagiarized	8
▁educated	8
▁Maybe	8
▁addiction	8
▁bunch	8
changing	8
▁carriers	8
▁decentralised	8
ri	8
Earlier	8
Toon	8
▁unwilling	8
▁Signal	8
▁oscillation	8
mean	8
▁blends	8
▁inquiries	8
its	8
▁burnt	8
▁backlighting	8
▁unsolv	8
▁defect	8
▁Specifically	8
▁Vision	8
▁declar	8
render	8
▁HIDS	8
▁NIDS	8
▁flak	8
▁disseminate	8
nger	8
▁judici	8
▁closes	8
▁painter	8
▁Entertainment	8
▁sons	8
▁puppet	8
▁sigmoids	8
▁Talk	8
▁imitate	8
▁probing	8
▁extinction	8
▁Blai	8
▁HTTPS	8
▁exams	8
▁internals	8
▁Laure	8
▁agenda	8
▁racing	8
efficiencies	8
Likewise	8
▁gifts	8
▁dispute	8
▁Detect	8
ired	8
▁Downloading	8
▁Conduct	8
▁formalize	8
avichandran	8
▁Sagan	8
▁Original	8
Processor	8
▁ribbons	8
▁pacing	8
Joining	8
▁perpetrator	8
▁Sam	8
satisfied	8
▁sys	8
MP	8
otation	8
ormhole	8
▁Attacks	8
raid	8
Com	8
physical	8
▁Fift	8
▁frustration	8
▁Facilitates	8
▁thoughtful	8
▁Schemes	8
▁IC	8
▁polyalphabetic	8
▁Practices	8
▁exiting	8
▁Profile	8
chel	8
▁contexts	8
▁sk	8
▁citizen	8
encompass	8
▁Magenta	8
▁fruit	8
Find	8
▁enforced	8
ndicates	8
▁Sy	8
▁refra	8
lecommunications	8
▁homeomorphic	8
Zip	8
Bits	8
▁prioritized	8
Science	8
▁Hierarchy	8
▁duplicates	8
▁APA	8
▁throat	8
tium	8
▁Formal	8
▁supervising	8
AS	8
▁flu	8
▁Cast	8
▁catchy	8
mia	8
▁appoint	8
Last	8
Content	8
Xerte	8
▁cartridge	8
▁Cy	8
▁deprived	8
▁ware	8
▁Orient	8
▁Monotype	8
▁merit	8
▁Authenticity	8
▁fruitful	8
▁Canvas	8
Through	8
▁clarified	8
▁Encase	8
Transmission	8
ken	8
▁accommodated	8
▁PageMaker	8
▁Modu	8
▁softmax	8
▁surprising	8
▁backpropagation	8
▁SWGDE	8
IFF	8
▁Tracking	8
://	8
▁handlers	8
▁rearrang	8
▁latency	8
Additionally	8
promises	8
▁entrants	8
▁Hardy	8
▁Ecommerce	8
▁portals	8
▁Atomic	8
statement	8
rawbacks	8
▁combat	8
days	8
surface	8
acros	8
anct	8
Besides	8
▁squa	8
▁separator	8
Learner	8
▁stalk	8
▁MECHANISMS	8
lam	8
▁guest	8
▁workspaces	8
▁implant	8
als	8
Someone	8
TO	8
Primary	8
Individual	8
vi	8
▁spooling	8
▁pushed	8
▁humanities	8
▁Relationships	8
▁Articles	8
▁Pay	8
▁Own	8
▁consolidation	8
aching	8
▁victor	8
▁shortcuts	8
▁Half	8
▁colli	8
▁preconditions	8
enabled	8
rm	8
ith	8
▁Trends	8
▁Momentum	8
Gen	8
Lib	8
trees	8
▁relatives	8
▁Backpropagation	8
▁navigat	8
▁gallery	8
▁Reading	8
tin	8
▁boo	8
same	8
▁Sanskrit	8
▁realiz	8
▁Payroll	8
otype	8
▁pending	8
▁chaining	8
▁workloads	8
Lot	8
▁conjectures	8
▁crowd	8
▁trusts	8
▁Has	8
▁entail	8
▁couriers	8
▁humor	8
▁purposeful	8
▁tailor	8
▁occupying	8
▁Var	8
▁fibers	8
▁diversity	8
▁flavour	8
cost	8
paid	8
▁gravure	8
▁inexact	8
▁surprised	8
▁Absolutely	8
▁undu	8
▁Framework	8
▁softer	8
▁Connectivity	8
▁cryptanalysis	8
▁correspondent	8
▁feather	8
▁castle	8
▁ejected	8
▁Sybase	8
▁communicative	8
▁dragged	8
▁Accurate	8
▁June	8
▁Cycle	8
Local	8
▁recycle	8
▁Sabotage	8
Mistake	8
▁pronunciation	8
▁detailing	8
▁Norton	8
▁Ten	8
▁recruiting	8
OF	8
▁tracker	8
▁Supervisor	8
▁Laws	8
▁Know	8
▁sourcing	8
▁Am	8
▁Terminal	8
uring	8
▁lawsuits	8
▁programing	8
▁Poster	8
▁listener	8
▁signif	8
▁sealed	8
▁Pixel	8
▁doubtful	8
▁bevel	8
▁fountain	8
▁collapsed	8
▁gigabytes	8
▁Masking	8
▁syllabus	8
▁Numeric	8
▁Korea	8
▁Successful	8
▁bot	8
Phase	8
Inside	8
records	8
▁openly	8
▁intrusive	8
▁Kleopatra	8
▁harassment	8
▁Selective	8
▁LSTM	8
▁complaint	8
▁carving	8
▁productions	8
ailure	8
▁Bring	8
▁subdivisions	8
▁Postage	8
▁journalists	8
▁Namely	8
nate	8
Public	8
▁robots	8
▁linkages	8
session	8
▁decodes	8
company	8
▁iPhone	8
▁iPad	8
▁cashier	8
▁freedoms	8
▁Civil	8
▁impos	8
▁blurring	8
▁identically	8
OCR	8
▁Fortran	8
financial	8
hide	8
▁ERP	8
▁TRANS	8
▁dissimilar	8
asymmetric	8
▁jacking	8
▁scissors	8
▁sanction	8
▁querying	8
Electronic	8
ptimum	8
▁contrasted	8
▁spark	8
TRANS	8
▁incandescence	8
lack	8
▁diagonals	8
▁devising	8
▁gr	8
▁territor	8
▁originat	8
malicious	8
▁borrowed	8
Extrude	8
▁disciplinary	8
▁TSP	8
▁Plac	8
▁miners	8
▁Bern	8
Lee	8
International	8
que	8
▁cryptosystems	8
▁lamina	8
▁Entry	8
▁alive	8
▁paraphrase	8
▁studios	8
▁Cards	8
▁Australia	8
allocated	8
Records	8
▁Footer	8
▁inherited	8
▁va	8
▁shaping	8
▁infancy	8
▁contractors	8
▁Sony	8
▁URLs	8
▁infector	8
hi	8
rocery	8
fifth	8
▁Cc	8
Al	8
▁Spoke	8
▁mainstream	8
▁Administrator	8
email	8
▁prosthetic	8
▁crown	8
▁Constraints	8
▁Ravi	8
▁Scheduling	8
▁cupboards	8
▁Flexibility	8
▁Interaction	8
Device	8
▁spill	8
▁invent	8
▁weekend	8
▁wand	8
Hello	8
▁incurred	8
seph	8
▁replies	8
▁Officer	8
▁technician	8
▁callers	8
▁omitted	8
▁uncertain	8
▁themes	8
▁ontology	8
▁Expert	8
▁interviews	8
▁wives	8
DMA	8
▁Too	8
reventive	8
▁yellowish	8
▁infring	8
writing	8
▁Equivalently	8
▁robotic	8
▁Encrypt	8
▁unnecessarily	8
▁monochrome	8
▁Learn	8
mehow	8
▁federated	8
Lastly	8
▁Adapti	8
▁Her	8
▁Explanation	8
▁Interpersonal	8
▁rollback	8
▁divert	8
controlled	8
▁summarizes	8
▁spars	8
▁friendship	8
▁falsifiable	8
▁Modification	8
▁Sharma	8
▁Banner	8
nterior	8
▁Blu	8
▁UK	8
▁archiving	8
SD	8
▁bells	8
▁exceeding	8
▁Precaution	8
▁doubling	8
ose	8
▁Sorting	8
▁sketching	8
Often	8
▁concurrently	8
▁syntactic	8
runcated	8
▁demonstrat	8
▁bidirectional	8
mir	8
▁Algorithms	8
▁hashed	8
▁reiterate	8
Shar	8
▁jpg	8
▁Blog	8
▁buoyancy	8
calculated	8
▁upside	8
▁Trees	8
uizzes	8
▁drafting	8
▁Install	8
▁Build	8
IBM	8
flat	8
▁pictur	8
ollaboration	8
hinese	8
▁investor	8
▁ran	8
▁statutes	8
Back	8
▁cli	8
▁emergencies	8
▁PUb	8
▁VB	8
▁reusable	8
Line	8
grams	8
▁zigzag	8
▁Bha	8
▁socializing	8
▁assists	8
▁debates	8
▁Henry	8
▁Ki	8
▁intellectuals	8
▁subscribe	8
▁CASE	8
▁underlined	8
ell	8
▁dissatisfaction	8
▁Preference	8
Interoperability	8
▁Identifier	8
▁Decentralis	8
▁Hold	8
▁Atmospher	8
Cash	8
▁downtime	8
▁demarcat	8
▁King	8
▁PIconnect	8
▁irreversible	8
▁Assets	8
▁monotony	8
▁sacrificed	8
▁doubled	8
▁safest	8
Research	8
▁Interfaces	8
emen	8
Access	8
▁subsystems	8
▁generalizes	8
▁protections	8
▁wallet	8
Mode	8
tables	8
▁Food	8
▁Saturday	8
▁Factory	8
statistical	8
▁Teacher	8
▁Option	8
▁Loans	8
Indian	8
xcept	8
ligible	8
▁expenditures	8
ra	8
▁Car	8
▁exemption	8
ore	8
SP	8
tre	8
▁hazardous	8
will	8
equ	8
▁recapitulate	8
▁AE	8
▁TABLE	8
tric	8
▁prosecute	8
▁KNIME	8
▁specialists	8
▁MM	8
▁abused	8
Constructivism	8
keeping	8
Lambert	8
▁eyestrain	8
▁prospects	8
bat	8
sight	8
▁violen	8
▁gy	8
ION	8
She	8
▁notices	8
▁malfunctioning	8
▁mountains	8
▁sta	8
▁Pack	8
▁tutors	8
▁bootstrap	8
high	8
▁frameworks	8
▁shouldn	8
▁diminish	8
kj	8
mix	8
▁traveler	8
binary	8
▁Resident	8
▁ape	8
▁beating	8
▁Depth	8
ls	8
▁delineate	8
▁scoop	8
▁reactivity	8
Economic	8
▁abruptly	8
▁combinat	8
orial	8
conventional	8
▁spec	8
▁innocence	8
▁Interestingly	8
▁postgraduate	8
▁migrated	8
▁crystallography	8
▁defects	8
▁Splicing	8
▁repressor	8
▁GAL	8
▁trousers	8
▁morphology	8
▁electrode	8
▁Tumor	8
▁Leptokurtic	8
continuous	8
)}	8
discrete	8
stan	8
▁informatics	8
▁Percentiles	8
▁pyrogens	8
▁Basics	8
▁Quadrant	8
▁differentiable	8
eciprocal	8
adj	8
▁UR	8
heme	8
▁dX	8
▁Transformations	8
izero	8
etri	8
Poisson	8
▁Chromat	8
+....	8
Equation	8
▁MRI	8
▁Ef	8
▁interrogation	8
II	8
▁mortal	8
▁titer	8
▁transpos	8
▁Teapot	8
xistence	8
▁fie	8
developed	8
▁ZMW	8
▁defendant	8
▁paradoxes	8
▁fig	8
▁Calibrat	8
▁divergen	8
▁equilibrate	8
▁cy	8
▁parentheses	8
▁priming	8
▁Symbolically	8
▁antioxidant	8
▁Chromosome	8
▁mutat	8
▁Stokes	8
Chi	8
▁harvest	8
eral	8
particle	8
▁anions	8
▁Hermite	8
▁ajj	8
▁carbohydrate	8
▁contingen	8
▁Cholesk	8
▁reticulocyte	8
▁variates	8
)}]	8
▁ogives	8
▁cooker	8
▁quartic	8
▁methylation	8
▁monocytes	8
▁gua	8
▁aerosol	8
▁ambiguities	8
▁reservoir	8
modal	8
▁monomer	8
▁Menten	8
▁adults	8
▁Macroeconomics	8
▁cond	8
▁TRITC	8
Tj	8
▁diagnostics	8
▁midpoints	8
picking	8
▁proteome	8
▁invalidated	8
▁Tri	8
oxin	8
taller	8
partial	8
▁altogether	8
▁hexamer	8
▁Reflexive	8
▁talukas	8
▁Tx	8
▁absorpti	8
kx	8
tm	8
▁-+	8
▁Rm	8
▁Platykurtic	8
▁Ogives	8
▁debentures	8
▁microinjection	8
▁deoxynucleotide	8
▁woman	8
▁AIMS	8
▁interferons	8
▁pigments	8
▁Biomarker	8
▁heterodimer	8
▁deceleration	8
▁mor	8
▁genotypes	8
kR	8
▁salting	8
▁clubs	8
molecular	8
lberg	8
▁DTT	8
▁xf	8
▁newton	8
▁inflammat	8
ctored	8
▁YX	8
▁anneal	8
Alpha	8
▁Nn	8
▁uN	8
▁Yadav	8
▁DNTPs	8
amino	8
globin	8
racil	8
▁Valuation	8
▁householder	8
Linear	8
SE	8
▁Pth	8
▁cytometr	8
▁aluminum	8
▁NOR	8
▁Atkin	8
autofluorescence	8
▁cocktail	8
)||≤	8
values	8
▁qFq	8
▁qFz	8
minus	8
▁nuclease	8
▁nucleosomes	8
nPr	8
XY	8
masked	8
▁gymnosperms	8
uij	8
Sin	8
▁jinx	8
▁dissociate	8
▁confirmations	8
ducible	8
▁germ	8
rays	8
▁beverage	8
icroscopy	8
▁spillover	8
▁polystyrene	8
▁kX	8
▁sol	8
▁desorption	8
▁Vm	8
▁Question	8
▁glycosylat	8
how	8
▁florescen	8
Theory	8
▁cr	8
cf	8
indfall	8
▁XLSTAT	8
▁akk	8
▁ddNTP	8
plane	8
▁electrochemi	8
luminescence	8
▁yk	8
least	8
▁DIGE	8
▁anticoagulant	8
▁transcript	8
▁cosech	8
▁hz	8
avier	8
reactivity	8
▁Bioc	8
▁replications	8
▁wil	8
▁Thin	8
zx	8
▁readouts	8
▁stabl	8
sigma	8
▁ribosomes	8
▁chimer	8
Wrong	8
▁endo	8
▁toxin	8
▁tetracycline	8
▁nitrat	8
mid	8
valier	8
ounded	8
▁vesicles	8
▁homin	8
▁magical	8
▁kingdoms	8
▁convicti	8
▁Disadvantage	8
Instruction	8
GS	8
Microwave	8
▁collaps	8
▁peculiar	8
▁rp	8
Significance	8
▁mysteries	8
!)	8
know	7
▁threatened	7
▁Comments	7
▁broker	7
trust	7
cryptographic	7
prong	7
▁gadget	7
▁restructure	7
course	7
▁percept	7
@	7
specting	7
▁spikes	7
▁barcodes	7
▁Sea	7
▁portal	7
▁gamut	7
Basic	7
▁cope	7
▁lightweight	7
▁MDDB	7
▁east	7
Complex	7
shape	7
▁Boot	7
established	7
▁Blockchain	7
▁autonomy	7
▁happenings	7
apped	7
▁MDDBs	7
▁Ultimately	7
▁italics	7
▁demonstrations	7
labeled	7
▁debate	7
▁assumpti	7
▁Hollywood	7
ountain	7
AI	7
▁Replay	7
▁disposition	7
ultural	7
ictorial	7
Avoid	7
distinguishable	7
▁workarounds	7
Have	7
▁ponder	7
▁COMMIT	7
▁ROLLBACK	7
▁Formatting	7
▁Attacker	7
▁botnets	7
▁Fayol	7
▁avenue	7
▁greet	7
▁Secur	7
▁ventilat	7
Process	7
▁apt	7
▁conserv	7
▁harmonized	7
▁Typograph	7
▁amend	7
▁colourable	7
▁checkpoints	7
▁province	7
▁contra	7
positive	7
White	7
aving	7
▁symmetries	7
▁prune	7
software	7
▁suffixes	7
positional	7
▁Robustness	7
Face	7
tics	7
▁acknowledgment	7
▁Wireshark	7
zing	7
▁cartoonist	7
▁Improvement	7
▁Baseline	7
▁Ventilati	7
▁optimise	7
▁Leon	7
▁lawful	7
▁illustrat	7
▁Wo	7
Fifth	7
▁Offic	7
uge	7
▁dropout	7
▁Skype	7
▁Particular	7
▁Buy	7
Structured	7
athode	7
help	7
▁discounts	7
denser	7
▁Koons	7
▁promised	7
aj	7
▁Heptullah	7
▁Azad	7
▁troubles	7
▁Nove	7
▁ple	7
multiprogramming	7
▁cryptographer	7
▁Date	7
▁Transitional	7
▁visualis	7
▁Swaminathan	7
▁absorben	7
▁Droppe	7
▁estate	7
▁expired	7
Files	7
▁Fair	7
characterisation	7
▁Docs	7
operating	7
▁resonance	7
▁bubble	7
▁radar	7
▁Bios	7
▁booting	7
governance	7
▁equip	7
▁Sur	7
▁unsure	7
▁crossed	7
▁Schema	7
▁cubicles	7
▁Koontz	7
▁collate	7
nkjet	7
processed	7
▁Idea	7
stone	7
▁Rotate	7
▁disproportiona	7
▁obstruct	7
▁stretche	7
▁deformation	7
▁sharper	7
▁planarity	7
▁multigraphs	7
lgebraic	7
▁envision	7
▁Subsequently	7
▁painters	7
▁Pat	7
▁gathers	7
zy	7
▁Matching	7
das	7
▁demographic	7
▁Retention	7
hole	7
▁spawn	7
List	7
▁oneself	7
▁SG	7
▁sport	7
▁tweets	7
▁patented	7
NSS	7
▁Provider	7
▁Associate	7
▁Outlook	7
▁remembers	7
▁trailer	7
Specialization	7
▁airlines	7
NU	7
▁academics	7
▁workshops	7
▁vibrant	7
▁CBT	7
▁WBT	7
▁Incomplete	7
▁overload	7
▁Printer	7
▁Count	7
▁USP	7
▁prioritizing	7
bmaster	7
▁negat	7
▁democratiz	7
nfrared	7
automatic	7
▁killer	7
▁Frame	7
▁impacted	7
▁Modify	7
▁DH	7
centralized	7
▁Feed	7
▁Ninth	7
taglio	7
▁cyberterrorism	7
ficiency	7
▁struggle	7
▁steganography	7
▁filename	7
▁PHP	7
ening	7
▁Package	7
▁cup	7
▁unusable	7
▁macros	7
▁Exposure	7
ictive	7
▁prescriptive	7
▁FI	7
▁prestige	7
▁handwriting	7
availability	7
'\,'	7
▁<?>*</?>	7
▁silk	7
▁UL	7
Take	7
▁sustainability	7
STRI	7
▁Listen	7
▁railways	7
▁weighting	7
sourcing	7
▁Dev	7
▁Organisations	7
Work	7
ibraries	7
▁tennis	7
gauze	7
▁Twenty	7
▁Painting	7
blue	7
▁extents	7
▁splice	7
▁podcast	7
▁CRL	7
▁disclos	7
▁Punch	7
▁subclass	7
▁Tenth	7
▁leftmost	7
▁Simplex	7
ATE	7
▁Ever	7
credit	7
▁unbalanced	7
holder	7
▁Invert	7
▁Gradients	7
▁rot	7
▁spider	7
discretionary	7
▁nozzles	7
▁KEY	7
▁Interchange	7
▁Rough	7
▁Prior	7
▁pillar	7
▁Essential	7
▁VBA	7
▁Pop	7
Define	7
shield	7
▁Father	7
▁Overlapping	7
▁cracker	7
▁spontaneously	7
▁backend	7
▁Metrics	7
▁placeholders	7
▁fitness	7
▁deliberat	7
▁rigorously	7
visible	7
▁chronologically	7
▁resistor	7
▁metaphor	7
▁tipped	7
tar	7
▁Introduc	7
▁prolong	7
▁Compromise	7
▁Connect	7
▁Port	7
▁astronomer	7
▁City	7
▁Babbage	7
▁flex	7
▁Ben	7
▁administer	7
▁centering	7
built	7
temporal	7
▁benefited	7
▁reput	7
▁banker	7
▁Country	7
▁unsafe	7
▁SH	7
▁injects	7
▁teamwork	7
▁axes	7
▁Masqueraders	7
▁preloaded	7
▁octa	7
▁syndrome	7
▁Organising	7
▁Adapt	7
▁curricula	7
▁Tata	7
▁circumvent	7
▁Ensure	7
ge	7
▁embarrass	7
▁persuade	7
▁Genetic	7
▁triangulate	7
▁trainees	7
▁admissi	7
▁unions	7
▁Falls	7
▁lessen	7
▁Gray	7
▁convincing	7
▁sad	7
▁talents	7
▁revisit	7
▁LONG	7
▁Strategies	7
▁August	7
▁Authorization	7
▁Realiz	7
▁contractions	7
▁arch	7
▁Pad	7
▁gated	7
ngagement	7
spread	7
▁Mili	7
TGC	7
▁registrations	7
▁invalidate	7
menus	7
yard	7
▁overemphasiz	7
Forty	7
▁Communicating	7
▁op	7
▁Keyword	7
▁spans	7
▁Stable	7
riad	7
traditional	7
▁Segment	7
▁narrated	7
ssues	7
▁RC	7
▁clerk	7
classified	7
▁Stretch	7
▁crisis	7
commercial	7
UT	7
▁lawyer	7
▁interchangeable	7
▁Qui	7
▁Patch	7
▁egg	7
function	7
books	7
▁translator	7
▁Vulnerabilities	7
▁Prepar	7
Real	7
▁Simplicity	7
▁presses	7
arli	7
ament	7
▁constitution	7
▁obscen	7
▁Accessibility	7
▁Spacing	7
▁customizable	7
▁nMesh	7
▁commitments	7
▁fantas	7
▁zooming	7
▁testers	7
▁kids	7
these	7
▁insider	7
▁innovat	7
▁blinds	7
▁seniors	7
Note	7
▁truck	7
▁architects	7
▁happier	7
▁uppercase	7
functional	7
▁Firefox	7
▁surf	7
▁UDP	7
▁pervasive	7
ages	7
Step	7
▁fixtures	7
▁fork	7
▁Unprotected	7
▁Analys	7
Text	7
▁AJK	7
Client	7
copyright	7
▁Sorry	7
night	7
▁Fox	7
▁JDBC	7
▁mess	7
▁Hai	7
Change	7
▁modems	7
▁indulge	7
cant	7
▁unreliable	7
▁Launch	7
▁Dec	7
▁Heav	7
▁applicability	7
▁Sa	7
aka	7
▁planets	7
pur	7
▁acknowledged	7
Wilson	7
HF	7
▁diode	7
▁Paragraph	7
well	7
phe	7
meral	7
odo	7
▁impressive	7
Way	7
ens	7
▁remedy	7
alami	7
Error	7
▁canteen	7
▁inconvenient	7
mebody	7
▁metro	7
▁accountants	7
▁den	7
Commerce	7
phone	7
▁envisage	7
▁prong	7
legal	7
▁Expect	7
▁dismisse	7
loom	7
▁genre	7
▁computerization	7
▁geometrically	7
▁DT	7
▁rearrange	7
▁handshak	7
db	7
▁JavaScript	7
▁Intent	7
dral	7
osterior	7
▁mindset	7
ty	7
▁soap	7
▁prioritize	7
cords	7
▁desir	7
▁slang	7
▁Temporary	7
▁Skin	7
▁yourselves	7
▁tangents	7
▁recorder	7
▁acoustic	7
AK	7
Memory	7
▁def	7
eparation	7
▁subheading	7
▁Challenges	7
documented	7
reported	7
▁bodi	7
Firstly	7
cure	7
▁notepad	7
▁Rendering	7
▁purchaser	7
processor	7
▁adversaries	7
▁Advertis	7
edium	7
▁deactivate	7
▁emissions	7
▁doorstep	7
structure	7
▁thicker	7
meter	7
▁Sunita	7
Under	7
▁convex	7
ngen	7
▁giant	7
Later	7
▁mature	7
▁Gujarat	7
ze	7
▁receptionist	7
▁Equal	7
anishing	7
▁Supervision	7
▁Kr	7
trusted	7
▁MySQL	7
▁Probabili	7
▁thereafter	7
▁smells	7
▁Jeff	7
▁treasure	7
▁propaganda	7
▁Moral	7
▁synonym	7
▁observer	7
▁moist	7
▁microorganisms	7
▁slab	7
cube	7
▁amplifies	7
▁Mo	7
▁Aut	7
▁Wall	7
aternity	7
▁News	7
▁marbles	7
▁populate	7
▁keyed	7
▁overla	7
▁corporates	7
▁screw	7
▁enlarg	7
iteration	7
▁Young	7
▁Holm	7
▁polyhedro	7
▁queues	7
▁shoulders	7
▁remark	7
▁abstracts	7
▁Leg	7
▁aesthetical	7
▁Countermeasure	7
▁milestones	7
▁coil	7
▁PRb	7
▁inflexible	7
▁tropo	7
▁poll	7
▁supergraph	7
▁Gyan	7
Light	7
▁shine	7
▁Appeal	7
illions	7
OS	7
▁excl	7
amation	7
▁helper	7
tangible	7
▁VisiCalc	7
▁recalculation	7
▁compilation	7
RSS	7
▁Processes	7
Cheques	7
▁Fans	7
▁recruit	7
▁da	7
ilateral	7
▁brass	7
▁redundancies	7
▁Dep	7
uty	7
Object	7
▁typographers	7
▁indigenous	7
▁demographics	7
▁Territor	7
▁truthfulness	7
▁stylis	7
▁Chair	7
▁respects	7
▁Future	7
▁stimulus	7
▁ski	7
reference	7
▁instructed	7
Yet	7
▁Revolution	7
pot	7
▁Phisher	7
▁Inside	7
▁Institution	7
▁cyberattacks	7
▁Shared	7
▁pant	7
▁tastes	7
▁hanging	7
▁Ordering	7
▁exponents	7
▁Modeling	7
▁Waseem	7
▁consoles	7
▁Ck	7
▁coordinator	7
▁MR	7
▁Emails	7
▁Distinguish	7
▁mad	7
items	7
▁elegan	7
▁interpreters	7
▁graduates	7
▁uneven	7
▁Phone	7
▁depress	7
▁doubles	7
▁tire	7
trained	7
▁nonlinearities	7
▁sampled	7
▁Prep	7
▁Methodology	7
▁Ba	7
dge	7
▁implied	7
▁democratic	7
lank	7
▁bird	7
Save	7
▁Used	7
▁transacted	7
▁Iteration	7
▁Courses	7
▁rating	7
▁Er	7
▁tearing	7
▁Tail	7
▁EM	7
▁trailers	7
▁Present	7
▁Rivest	7
▁golf	7
▁sharpening	7
ird	7
owed	7
▁surroundings	7
▁homework	7
▁Injection	7
▁inferring	7
▁Proximity	7
▁pesticides	7
▁Disposa	7
▁undermine	7
▁averag	7
Virtual	7
▁loader	7
▁crop	7
wards	7
oping	7
ji	7
▁Receiv	7
Obviously	7
van	7
▁occupant	7
▁Contiguous	7
▁ICV	7
▁chimney	7
▁enlist	7
ap	7
▁Automation	7
▁Everyday	7
▁Consortium	7
aster	7
▁Gal	7
▁Simplify	7
▁trimm	7
▁chicken	7
▁translucent	7
▁reper	7
▁Holl	7
▁swi	7
▁joy	7
▁discontinu	7
isotropic	7
▁energ	7
▁pipette	7
▁particula	7
▁radiations	7
▁Deflat	7
Group	7
average	7
▁fixative	7
activation	7
money	7
▁Berg	7
▁isotonic	7
eum	7
▁Proteomics	7
▁Independence	7
thione	7
si	7
▁fingerprinting	7
▁loge	7
▁cot	7
▁Diaries	7
▁hydrodynamics	7
▁immers	7
tail	7
+=	7
▁}/	7
▁oncology	7
▁dideoxy	7
▁leucine	7
▁TD	7
₹	7
▁cTx	7
▁specimens	7
ethylene	7
▁Logarithm	7
Bn	7
autonomous	7
▁sli	7
price	7
▁BP	7
▁metabolites	7
▁legends	7
▁forecaster	7
vo	7
▁enumerate	7
▁volatilized	7
▁Transcription	7
ommutativity	7
onvertible	7
ics	7
▁globulin	7
▁Randomize	7
▁Trial	7
▁retard	7
gative	7
variation	7
▁wife	7
▁determinate	7
▁overnight	7
▁rehydration	7
▁supercoiled	7
▁obese	7
▁neatly	7
▁Equivalenc	7
▁peroxide	7
▁ligate	7
cyclic	7
▁reconcile	7
gently	7
▁expedition	7
▁endocytosis	7
fade	7
▁antigenic	7
▁jellyfish	7
▁ogive	7
▁Ferrari	7
loid	7
▁Recur	7
▁macroeconomic	7
Bayes	7
romodeoxyuridine	7
▁Duhamel	7
inic	7
▁Ace	7
▁bunche	7
▁Ri	7
Si	7
▁Experiments	7
▁dissipate	7
▁Picard	7
▁Anova	7
▁benzene	7
▁evening	7
▁notions	7
yz	7
flows	7
▁adsorbent	7
▁citrate	7
▁flourescence	7
▁curtail	7
▁Tuesday	7
▁sheep	7
zed	7
▁phospholipid	7
▁Stratifi	7
▁dissolve	7
▁decile	7
▁Bhat	7
aculoviruses	7
Capital	7
▁HCG	7
▁antivir	7
ultimate	7
▁actin	7
▁immunosorbent	7
quadratic	7
rapped	7
resence	7
folding	7
aleigh	7
▁cerevisiae	7
coated	7
▁Lysozyme	7
▁fertil	7
▁carboxy	7
▁rotors	7
▁mercaptoethanol	7
▁fetoprotein	7
▁Paradox	7
▁clinician	7
▁Evaluate	7
/[	7
arithmetic	7
▁Moivre	7
bac	7
norm	7
▁populum	7
▁bizarre	7
Ai	7
▁cxi	7
▁wif	7
▁fu	7
▁bV	7
▁pitfall	7
▁multimer	7
MIN	7
▁sulphate	7
opine	7
▁Boole	7
Sum	7
▁refrigerated	7
▁DQ	7
▁Xj	7
▁hypot	7
▁Xk	7
Given	7
▁trough	7
multiple	7
▁constan	7
aker	7
philic	7
▁ATA	7
▁paraplegy	7
▁slices	7
▁Inflation	7
Relative	7
▁Shares	7
▁miles	7
▁regress	7
▁grounds	7
▁YIp	7
▁Null	7
Legendre	7
▁evaporated	7
argin	7
oplasmic	7
▁reticulum	7
▁spectroscop	7
▁intercalate	7
▁Pk	7
ories	7
ecessity	7
▁discretion	7
▁defectives	7
▁KD	7
▁fruits	7
▁phagocytosis	7
▁Initial	7
▁tear	7
▁kitchen	7
▁Luria	7
▁Delbruck	7
turn	7
np	7
distributions	7
preet	7
▁knobs	7
▁mill	7
▁misinterpreted	7
▁TBST	7
▁RIN	7
▁flora	7
gg	7
▁Compensat	7
▁epit	7
hel	7
▁SAGE	7
▁freez	7
▁turb	7
▁lysosomes	7
▁slippe	7
Negative	7
▁farmers	7
▁cellulose	7
coll	7
▁TTP	7
▁comfortably	7
▁dichotom	7
▁blindly	7
gar	7
▁unpublished	7
▁landlord	7
lysis	7
▁OPE	7
▁condenser	7
ija	7
▁atom	7
ogue	7
▁protist	7
Coefficient	7
▁covariation	7
▁Misperceptions	7
▁Diagrammatic	7
▁Gamma	7
omen	7
▁Qk	7
▁PUBLIC	7
IE	7
Bur	7
▁cigarette	7
ntigen	7
▁polymorphisms	7
▁labile	7
▁Bihar	7
men	6
▁continent	6
▁Kern	6
Remove	6
▁maximis	6
▁linotypes	6
▁vanished	6
▁chronic	6
▁nerves	6
▁Bullet	6
▁Numbering	6
▁novelty	6
hood	6
ans	6
▁hurt	6
▁Ask	6
▁conciseness	6
▁courtesy	6
▁LaserWriter	6
Column	6
▁flowers	6
metric	6
HS	6
Poor	6
hoc	6
▁Kong	6
▁simulat	6
▁conquer	6
▁Newspaper	6
▁marketers	6
▁transmitters	6
▁Elucidate	6
vested	6
▁formalities	6
▁stylistic	6
▁Origin	6
▁hopeful	6
▁WAP	6
▁lockout	6
▁Con	6
changeable	6
▁eradicate	6
▁Udacity	6
bas	6
▁Thrun	6
ike	6
growth	6
audible	6
▁droppers	6
▁dishonest	6
▁Fri	6
▁ATUL	6
▁IX	6
▁needless	6
▁WikiCalc	6
▁pentagon	6
▁swap	6
▁datafication	6
▁Transformer	6
▁WANs	6
▁impersonation	6
MR	6
▁undesir	6
robably	6
▁aggressively	6
FA	6
▁beneath	6
▁manifest	6
ause	6
▁snake	6
▁HW	6
▁multiprocessor	6
▁Advance	6
▁recorders	6
▁alphabetic	6
▁Fundamentally	6
▁outbreak	6
▁novice	6
▁nerv	6
▁automat	6
▁depositors	6
▁Botnets	6
▁Inference	6
▁digitiz	6
▁Harmony	6
click	6
▁undetected	6
▁miser	6
▁Flexible	6
▁multiplex	6
Infection	6
characteristic	6
▁silicon	6
▁Promote	6
▁visco	6
cycle	6
mproper	6
▁Smith	6
ansomware	6
▁ransom	6
ously	6
▁advertisers	6
▁spatially	6
umerous	6
▁automorphisms	6
▁conversations	6
▁zoomed	6
▁mer	6
blinn	6
▁unix	6
▁snipp	6
alone	6
▁carni	6
orous	6
▁rust	6
▁coarse	6
wrapped	6
DU	6
▁overlook	6
▁uw	6
Keyboards	6
▁gripper	6
▁preposition	6
Over	6
▁painful	6
Don	6
law	6
tions	6
▁PROPEL	6
contained	6
reservation	6
â€	6
TMt	6
▁brands	6
▁thievery	6
LIS	6
vn	6
▁bog	6
▁Kim	6
▁memos	6
▁unsu	6
▁Wilk	6
▁recreate	6
alam	6
▁pigeon	6
▁vouchers	6
▁HA	6
▁feeder	6
▁spell	6
▁historic	6
▁Cashier	6
▁FN	6
▁Greeting	6
urist	6
flake	6
OP	6
▁snort	6
study	6
Distributed	6
ut	6
▁spammer	6
▁Warshall	6
▁Budget	6
ppi	6
▁newsprint	6
▁Duties	6
▁Namaskar	6
▁PO	6
▁Challenge	6
aring	6
▁Investigat	6
▁Expressionism	6
Physical	6
▁Names	6
learners	6
centric	6
▁Smoothing	6
▁dau	6
▁Diffie	6
▁DSS	6
▁Isaac	6
ecimal	6
▁Alf	6
▁Hers	6
Academic	6
Wiki	6
▁Hear	6
▁hanged	6
ull	6
▁deformer	6
▁discriminat	6
▁progressive	6
▁Engineer	6
▁waiter	6
▁arms	6
▁curtain	6
▁inception	6
▁AUTHENTICATION	6
▁UPS	6
▁timestamps	6
dal	6
▁articulate	6
arrange	6
▁Enrollment	6
▁Ap	6
▁Bac	6
▁Je	6
hang	6
paper	6
black	6
▁Promotion	6
▁sandbox	6
Whereas	6
teacher	6
Briefly	6
Cach	6
MLA	6
▁MLA	6
▁respiratory	6
▁PARAM	6
▁maximized	6
▁halve	6
TER	6
▁existent	6
▁Shar	6
▁elevator	6
▁bottle	6
▁Te	6
▁dance	6
▁balloons	6
▁Reverse	6
UNE	6
SCO	6
▁acr	6
onym	6
▁airport	6
▁scoring	6
▁wisely	6
▁exp	6
▁warhous	6
▁reused	6
▁encyclopedias	6
▁tera	6
hertz	6
olitical	6
▁clutter	6
▁crackers	6
▁Dropbox	6
▁Firewalls	6
▁Prune	6
Increase	6
ontemplate	6
▁Allen	6
erry	6
www	6
mind	6
▁Brightness	6
▁Contrast	6
▁aspirations	6
Traditional	6
▁culprits	6
▁hook	6
▁obesity	6
▁advisor	6
▁Voice	6
LO	6
AD	6
▁Cubism	6
▁GRANT	6
▁glossy	6
▁NA	6
Animation	6
▁Calculator	6
onsequences	6
▁dispos	6
▁catered	6
IVE	6
DDL	6
▁intranets	6
▁smash	6
▁Scop	6
▁predator	6
▁voting	6
Subject	6
▁Ensur	6
▁explorer	6
▁conception	6
▁Sense	6
Quality	6
▁worksheets	6
readers	6
▁Bhoo	6
eer	6
▁temper	6
▁sniffers	6
Historical	6
Among	6
▁Hyperlinks	6
org	6
▁winner	6
▁Combination	6
▁Qualit	6
▁librarians	6
▁Koh	6
▁OPAC	6
▁TN	6
▁punishments	6
▁scrutinize	6
slantly	6
▁sans	6
▁nets	6
MTA	6
▁multitasking	6
evertheless	6
▁shuttles	6
▁fraternity	6
ments	6
▁stitched	6
▁Monthly	6
▁Punjabi	6
du	6
▁nerve	6
▁dealings	6
▁superscript	6
sapp	6
▁WhatsApp	6
▁Pregel	6
▁erratic	6
▁Links	6
▁Clip	6
POP	6
▁WordStar	6
▁examinations	6
▁OAuth	6
tax	6
▁concession	6
sensitize	6
▁Egyptian	6
▁contradicting	6
determined	6
Jacking	6
▁ABCD	6
criminals	6
▁Approximately	6
▁audited	6
▁universality	6
▁immutability	6
▁Roger	6
EIS	6
either	6
kar	6
▁Publisher	6
▁thesaurus	6
▁undertakings	6
▁prestig	6
▁coursera	6
▁DPI	6
appy	6
▁activist	6
safe	6
▁instruct	6
eni	6
▁attentive	6
OER	6
▁rubrics	6
▁SSIS	6
▁Swedish	6
rrow	6
▁curse	6
ovement	6
▁cont	6
▁lasso	6
▁OpenOffice	6
▁Diamond	6
me	6
▁abacus	6
▁monoprints	6
▁Gk	6
mortem	6
ven	6
▁Tab	6
▁slugs	6
▁commuting	6
ficially	6
▁photocopy	6
▁neutralized	6
▁hologram	6
▁Telling	6
Speed	6
codification	6
▁Banker	6
Enhanc	6
▁chroma	6
▁EXAMPLE	6
▁distinguishable	6
multi	6
▁integrati	6
six	6
▁bottles	6
▁diddling	6
▁rectified	6
▁discordanc	6
▁POSDCORB	6
▁Coordinating	6
▁negligence	6
▁oxide	6
Good	6
▁necessities	6
▁Remov	6
▁stu	6
▁encapsulation	6
▁lambert	6
Action	6
▁ALT	6
record	6
▁Claim	6
▁Morris	6
ought	6
▁London	6
Vector	6
aily	6
▁geoscientists	6
▁entirety	6
▁crashing	6
▁successor	6
shared	6
▁swapp	6
▁viv	6
▁Creator	6
▁Epicurean	6
ali	6
▁sunny	6
OQL	6
▁sooner	6
▁stylometary	6
▁generalisation	6
SCS	6
roken	6
ixed	6
▁Trend	6
▁finder	6
▁MOP	6
▁executables	6
▁halt	6
hanne	6
▁parking	6
▁Construct	6
▁hoarding	6
▁whiteness	6
▁dendrogram	6
▁champion	6
ships	6
▁authorizations	6
▁Neighbor	6
▁Continue	6
▁Hazards	6
▁Relevanc	6
▁Passing	6
▁CCT	6
▁Regulations	6
▁grave	6
▁Sheets	6
▁numeral	6
▁congestion	6
relevant	6
Display	6
▁thereof	6
▁OT	6
▁Useful	6
nder	6
▁Ravan	6
▁modulation	6
▁EB	6
mark	6
cluster	6
ridden	6
▁Emboss	6
▁cohesion	6
▁Bear	6
▁circumference	6
▁addict	6
▁wheels	6
int	6
▁Timing	6
▁Worm	6
alary	6
▁Clarity	6
▁blame	6
ATION	6
tumble	6
▁Wil	6
ub	6
scott	6
▁BF	6
▁Commands	6
udden	6
▁Unique	6
ntegrating	6
▁staffer	6
▁impose	6
▁Ford	6
▁ROI	6
▁Neh	6
odebook	6
▁imposter	6
▁filament	6
▁pictograms	6
Five	6
cott	6
Results	6
▁Authorities	6
▁flooding	6
performance	6
▁persistence	6
▁physicists	6
▁ox	6
▁kilometres	6
vl	6
ealistic	6
▁chaot	6
glas	6
▁Xerox	6
ARC	6
▁AMD	6
▁aggravate	6
arquee	6
▁ruin	6
▁theatrical	6
▁andnon	6
▁administering	6
ropriet	6
▁apprehension	6
▁morally	6
Paint	6
Edit	6
Expert	6
▁logos	6
▁rejection	6
KEY	6
panel	6
▁chaos	6
▁misunderstood	6
▁XYZ	6
▁delimit	6
▁sati	6
hat	6
▁Swa	6
Sir	6
▁Gr	6
▁Alternative	6
▁MCRC	6
▁optimisation	6
▁suitabl	6
▁stray	6
pin	6
Keep	6
▁Brothers	6
▁standstill	6
▁Visualisation	6
▁Aid	6
▁Deno	6
▁Studios	6
▁Productions	6
mation	6
▁Century	6
cific	6
▁intensities	6
FR	6
tainment	6
Cost	6
Along	6
Making	6
▁Statements	6
▁reinforce	6
▁trigonometry	6
▁etiquettes	6
▁bankers	6
▁Pictograms	6
▁Frequently	6
▁prefabricated	6
▁grasping	6
▁Mountain	6
▁sincerely	6
tom	6
▁PS	6
▁placeholder	6
▁Fidelity	6
▁disadvantaged	6
▁pe	6
▁magnet	6
hreshold	6
▁intrud	6
ud	6
inux	6
▁Cybersecurity	6
▁synergy	6
nnovative	6
▁Toy	6
▁Mon	6
▁Jur	6
▁ver	6
▁Interesting	6
offs	6
▁pornograph	6
▁Digraphs	6
▁cam	6
Cable	6
▁blogging	6
Collaborati	6
Disney	6
simple	6
mm	6
▁usability	6
ipper	6
▁Wannacry	6
▁outlets	6
Educator	6
▁ornate	6
▁typestyle	6
realm	6
fluorescent	6
▁Swathy	6
▁negotiat	6
▁Crypto	6
▁Backspace	6
▁Dodge	6
▁specializations	6
▁disorganized	6
▁WHO	6
▁Allocator	6
▁Works	6
▁Round	6
▁Gen	6
▁Chess	6
wnership	6
▁Decomposition	6
▁disposed	6
ITS	6
▁distraction	6
phy	6
Initial	6
▁husbands	6
Certification	6
▁Helvetica	6
▁Arab	6
ano	6
▁portfolios	6
▁Talend	6
▁cricketer	6
nail	6
▁Event	6
uplex	6
▁exert	6
process	6
▁collector	6
▁Upload	6
▁sweep	6
▁Hansen	6
▁Lake	6
▁declined	6
▁seals	6
▁wa	6
▁ecosystem	6
▁cite	6
▁highlighter	6
▁Kinematic	6
▁Sl	6
▁anticipation	6
▁Ka	6
mallest	6
▁herself	6
heavy	6
▁deterrence	6
▁MIS	6
▁JI	6
▁Extra	6
▁cassette	6
▁imparted	6
▁appropriateness	6
▁origins	6
▁Alan	6
▁microphone	6
▁misconceptions	6
SC	6
▁rend	6
indexing	6
Large	6
CSRF	6
okay	6
▁Geographical	6
NAG	6
▁projections	6
▁Download	6
▁omnidirection	6
▁multicasting	6
▁upgrades	6
▁paramount	6
▁Leadership	6
curring	6
▁enjoyable	6
der	6
▁criticize	6
mergency	6
▁Chang	6
▁anticipated	6
▁Loose	6
simil	6
▁lexic	6
▁Recurren	6
▁Explo	6
▁deductions	6
▁morta	6
▁Stamp	6
▁IEEE	6
▁Recruitment	6
▁hitted	6
classical	6
▁hyperlinked	6
▁Descend	6
▁manifestation	6
latter	6
TH	6
Design	6
▁arouse	6
▁nParticle	6
cap	6
▁dictionar	6
SMA	6
▁SV	6
▁Arm	6
▁gamification	6
▁reinforcement	6
▁hoardings	6
▁successors	6
▁Centralization	6
cade	6
ylon	6
▁suits	6
▁embarrassment	6
▁Lattice	6
▁illustrator	6
▁realization	6
▁accreditation	6
VR	6
▁rival	6
▁workable	6
det	6
▁WYSIWYG	6
▁unleash	6
▁triggers	6
▁letterhead	6
▁incentives	6
Record	6
Post	6
▁Reach	6
▁consolidat	6
▁enclosure	6
▁tiled	6
ARPA	6
eleased	6
▁spoil	6
▁inelastic	6
getting	6
Index	6
sell	6
▁anci	6
Anyway	6
▁Arcs	6
▁Exaggeration	6
short	6
▁stimulation	6
favorable	6
Procedur	6
▁Fetch	6
▁Forest	6
Effective	6
▁simulations	6
roubleshooting	6
▁constrict	6
▁destin	6
▁commenting	6
▁cute	6
▁subnet	6
▁favouri	6
▁accrue	6
Microsoft	6
▁ear	6
lp	6
▁Toward	6
illion	6
▁TRU	6
STED	6
▁Mis	6
▁subvert	6
▁inconsistencies	6
ECT	6
▁outdoor	6
▁finalizing	6
▁alloy	6
▁museum	6
▁compliant	6
▁RB	6
▁noises	6
ties	6
▁fuse	6
rch	6
▁Categor	6
▁Entrepreneur	6
Intelligen	6
▁prosper	6
▁Multiprogramm	6
▁pickup	6
▁DMQL	6
▁mitigation	6
▁invert	6
Sometime	6
ife	6
coupled	6
▁glue	6
Processing	6
▁venture	6
▁novels	6
▁offsets	6
ematic	6
▁belly	6
▁proportionate	6
▁informatica	6
ried	6
▁twitter	6
▁deeds	6
training	6
▁TIFF	6
▁petal	6
▁IDP	6
▁hypothesizing	6
Analyze	6
▁bully	6
GD	6
▁JSON	6
tina	6
▁conceals	6
▁hurdle	6
measure	6
▁phenomenal	6
▁Fact	6
ich	6
▁Browser	6
▁sm	6
uggler	6
▁authoritative	6
▁jackets	6
▁unparenting	6
▁Perception	6
▁eng	6
▁paradigms	6
▁flake	6
ech	6
▁rearranged	6
▁Pentaho	6
▁Asia	6
▁recess	6
▁resume	6
▁Together	6
▁Exist	6
▁normalisation	6
▁premier	6
▁Samsung	6
▁WordPad	6
isclassification	6
▁restaurants	6
Correct	6
▁Cas	6
▁eggs	6
▁vigilant	6
▁Quark	6
▁controversial	6
▁vertexes	6
▁Clusters	6
eat	6
▁Miner	6
▁radian	6
▁Lines	6
▁complications	6
Global	6
▁Transitive	6
onochromatic	6
destructive	6
▁warming	6
▁PlayStation	6
▁Tenn	6
▁Circles	6
▁kstart	6
▁nC	6
Look	6
max	6
▁showcases	6
Rest	6
▁diversifi	6
▁Phreaker	6
▁quotation	6
▁fame	6
▁Acro	6
▁unnoticed	6
▁Consistency	6
▁Leffingwell	6
colour	6
▁Settings	6
▁Calcu	6
tta	6
▁Committee	6
ians	6
Seven	6
▁Constraint	6
Degree	6
▁java	6
▁antecedent	6
lder	6
▁WORM	6
▁Compact	6
▁testimon	6
▁Murphy	6
▁Cali	6
▁Edison	6
▁digitalized	6
rang	6
▁Bhu	6
Ei	6
Environment	6
▁PSSCI	6
▁Bhopal	6
▁ship	6
▁diskette	6
▁coun	6
▁Answer	6
▁Centers	6
▁alliance	6
▁digitizer	6
▁perf	6
▁shuffle	6
av	6
▁playful	6
▁underestimate	6
phi	6
tight	6
▁Return	6
▁pawn	6
Serial	6
ner	6
▁horn	6
▁GST	6
▁toolkit	6
edges	6
▁cleanup	6
▁Alternate	6
▁Converse	6
win	6
▁Albert	6
▁Legislati	6
▁temp	6
▁aiders	6
▁succeeded	6
hot	6
▁Derive	6
▁MI	6
▁Animatronics	6
AIDE	6
Samhain	6
Fail	6
Emotion	6
equitable	6
arabolic	6
marginal	6
▁dopamine	6
▁acet	6
▁Contraction	6
▁buff	6
▁Variability	6
▁recircula	6
rization	6
dimer	6
▁overexpressed	6
▁colorimeter	6
▁Cowden	6
▁counterstain	6
▁cuticles	6
eproductive	6
▁Deposit	6
▁nj	6
▁SF	6
epatitis	6
▁Herstein	6
▁petro	6
tag	6
existent	6
▁Arraying	6
▁hydrophobicity	6
▁Hills	6
▁splic	6
ectional	6
▁SK	6
difference	6
▁xdx	6
ntuitive	6
▁eukaryotes	6
synthesis	6
▁pleiotropy	6
III	6
▁FPC	6
▁ionises	6
▁drafts	6
▁goat	6
▁derivat	6
▁Great	6
▁ne	6
▁TRP	6
▁bride	6
▁cyclin	6
HCL	6
▁Alexa	6
soluble	6
kn	6
▁clonal	6
▁fung	6
▁fingertips	6
▁polyhydric	6
▁fal	6
▁endocrin	6
▁mortgage	6
spray	6
▁Hermitian	6
▁slideshow	6
\,.....	6
▁Kartikeyan	6
▁subunits	6
▁circumscribe	6
cancer	6
▁qz	6
TIR	6
▁formations	6
▁steril	6
▁iS	6
▁glycan	6
▁Dependen	6
xogenous	6
▁Expectations	6
▁normalizes	6
▁chemistries	6
gi	6
luent	6
▁epigenom	6
▁Fz	6
▁phagocytes	6
▁Pyro	6
▁washers	6
▁Period	6
▁Gould	6
tracker	6
▁Laemmli	6
epsilon	6
▁diverges	6
▁bioreactor	6
▁inoculat	6
▁monomers	6
▁Percentile	6
phosphate	6
▁Eukaryot	6
▁transloca	6
▁Plasmids	6
Kar	6
▁phosphorylation	6
▁diffus	6
▁revers	6
pressure	6
▁counteract	6
burg	6
ire	6
▁births	6
▁Peroxidase	6
▁dissolv	6
▁Bonferonni	6
▁infants	6
)\,...	6
▁Rahul	6
▁Dravid	6
▁kings	6
▁queens	6
▁Crowther	6
orner	6
AQ	6
Cos	6
▁CL	6
▁enriched	6
▁cir	6
vedberg	6
▁equities	6
▁Quart	6
▁methylcytosine	6
▁myelo	6
▁lungs	6
▁tract	6
llegal	6
xcluded	6
▁prob	6
▁TALEN	6
▁adsorb	6
▁haptens	6
▁Izmailov	6
iber	6
▁Hooke	6
Central	6
ermissible	6
▁RmC	6
▁Gate	6
vibrat	6
▁embryo	6
)!*	6
)/√	6
▁died	6
CH	6
▁ferri	6
▁precon	6
ceived	6
affinity	6
▁presentable	6
▁medicin	6
▁Insect	6
▁outflows	6
▁KY	6
▁folds	6
▁ARS	6
▁splitter	6
▁antiquitatem	6
dicto	6
▁simpliciter	6
▁paisa	6
▁Wednesday	6
▁Sult	6
▁simplifications	6
▁flavor	6
▁tomato	6
▁Validity	6
▁Suman	6
▁thyro	6
▁BamH	6
▁analogue	6
▁parallels	6
▁Deemter	6
▁Theoretical	6
omogeneous	6
▁sieve	6
kX	6
ital	6
xey	6
Module	6
▁Simultaneous	6
▁shake	6
enberg	6
Government	6
resolved	6
monic	6
▁hamper	6
ithioth	6
haven	6
▁carbonate	6
▁osteo	6
terling	6
▁dependable	6
▁{...	6
▁agro	6
bacterium	6
▁scatterplot	6
too	6
ransient	6
lending	6
Fift	6
▁permeant	6
▁Morgan	6
Inflammation	6
▁Albumin	6
▁activat	6
emolysin	6
phylo	6
cocc	6
▁aureus	6
▁wins	6
tMP	6
▁cow	6
▁distill	6
take	6
indirect	6
▁discriminant	6
▁aden	6
Ninet	6
▁BH	6
▁solvency	6
▁RIA	6
+.....+	6
into	6
▁rup	6
ture	6
fifty	6
▁CCC	6
▁GGG	6
▁seizures	6
▁drain	6
nth	6
▁redistribute	6
▁randomization	6
▁axe	6
▁lap	6
▁Pv	6
▁Cosets	6
ugmented	6
▁Rates	6
loci	6
yrophosphate	6
▁Contingen	6
▁equalize	6
▁initiat	6
▁HCL	6
▁sensitivities	6
▁borrowings	6
▁fk	6
▁Tswett	6
▁aged	6
▁Brook	6
)||	6
▁Isomorphism	6
▁Fenn	6
whisker	6
▁BACs	6
▁acridi	6
=√	6
▁-...	6
▁burie	6
▁pFz	6
▁FSC	6
▁Manova	6
oodness	6
▁GGT	6
▁Archana	6
▁Commutativ	6
▁coinage	6
▁ferro	6
▁bX	6
▁crashed	6
olymerase	6
▁fluorochrome	6
▁histo	6
▁fluor	6
nicated	6
▁schizophrenia	6
Discret	6
▁Guass	6
▁Ly	6
iophysics	6
ompound	6
▁COO	6
bonucleoproteins	6
▁understandably	6
organic	6
lytic	6
hra	6
▁scholarships	6
▁Alright	6
Lu	6
▁summati	6
▁isotop	6
confirm	6
▁Gov	6
▁collaborator	6
▁RealSTAT	6
▁helicase	6
▁bubbles	6
▁migrates	6
fj	6
▁Scheffe	6
hose	6
▁installment	6
▁Occupa	6
tional	6
▁swimming	6
▁maneuver	6
▁Va	6
▁Socrates	6
∵	6
▁Derivative	6
ruling	6
▁rankings	6
dding	6
▁Lips	6
▁splines	6
number	6
▁fluctuat	6
kth	6
Demonstration	6
▁Pac	6
Bio	6
▁vegetables	6
▁intestin	6
▁pathogenesis	6
▁phagocyt	6
wayam	6
acting	6
glycosylat	6
▁ABPA	6
uthen	6
▁Items	6
▁malignant	6
▁Bj	6
▁vegetable	6
di	6
▁doughnut	6
▁Mathematically	6
tri	6
ntibody	6
Tak	6
tariff	6
now	6
▁remittance	6
practicable	6
Stoke	6
▁takers	6
logx	6
)}=	6
▁SELEX	6
\,.....\,	6
HV	6
▁ent	6
▁delicate	6
▁Feel	6
▁dxi	6
Ri	6
inding	6
▁necessitate	6
▁localize	6
Jives	6
sector	6
wart	6
vegetarian	6
▁obt	6
▁Crore	6
▁referee	6
▁prokaryot	6
▁Plasmid	6
▁Ait	6
▁Treatment	6
▁aspirin	6
▁isoform	6
range	6
▁ady	6
▁macromolecule	6
▁photosynthetic	6
▁sulfur	6
▁bomb	6
nyi	6
▁lookup	6
▁Mars	6
▁Plato	6
▁Sugar	6
▁Leave	6
▁secretion	6
▁Khanna	6
▁snip	6
foresee	6
ingular	6
▁lacunae	6
▁vapor	6
denatur	6
chromicity	6
▁Bars	6
large	6
▁veterans	6
▁inhibition	6
▁traps	6
▁Vdx	6
charged	6
˂	6
▁Bacteriologist	6
▁Woese	6
▁zoo	6
▁viability	6
yltransferases	6
▁Fukushima	6
ntersection	6
▁Ethnicity	6
▁Peak	6
▁lacuna	6
yself	6
Average	6
▁Spade	6
▁ahh	6
▁archived	6
ample	6
▁tapping	6
▁Detecti	6
ASP	6
▁microprocessors	6
grain	6
les	6
LM	6
▁eavesdrop	6
▁catastrophic	6
▁digress	6
Insert	6
▁Folders	6
ammer	6
therland	6
▁Heating	6
nu	6
▁Smu	6
rf	6
▁Sand	6
▁smoothen	6
Major	6
astern	6
gal	6
orientation	6
▁Weka	6
▁maida	6
.....	6
▁aminoglycoside	6
▁pharmacology	6
sections	6
▁acyl	6
tine	6
ebt	6
dxp	6
Ng	6
▁Wallis	6
▁Jade	6
▁fp	6
▁undi	6
▁anecdotes	6
ineweaver	6
▁galaxies	6
▁LP	6
▁za	6
−(	6
npq	6
tools	5
▁ambit	5
▁multifaceted	5
▁Dimensions	5
▁transact	5
▁unconsciously	5
social	5
media	5
mentioned	5
ie	5
▁quoting	5
▁concreteness	5
ALU	5
basket	5
eg	5
tari	5
▁Ek	5
Hacking	5
▁Maxwell	5
▁Profits	5
▁mechanization	5
▁Description	5
Table	5
▁stylo	5
▁textbox	5
▁outdoors	5
Radio	5
▁iterat	5
east	5
see	5
▁erasers	5
▁saturating	5
bee	5
arden	5
▁park	5
▁XF	5
▁MK	5
▁strangers	5
▁worlds	5
▁Brick	5
▁KTC	5
▁impressed	5
aba	5
yana	5
▁Convenience	5
ecessarily	5
▁Microwave	5
▁Abstraction	5
▁Accommodation	5
▁upfront	5
shoot	5
▁Bracket	5
▁harmoniz	5
lance	5
▁winter	5
pathy	5
▁Ott	5
▁feedbacks	5
▁aircrafts	5
AV	5
wel	5
▁SPI	5
▁translat	5
▁cupboard	5
▁Driv	5
▁spreader	5
▁workplaces	5
▁Blender	5
DS	5
▁darkened	5
opped	5
▁woodcuts	5
▁fetche	5
▁tweet	5
▁slim	5
herence	5
▁licens	5
▁Lod	5
▁Admin	5
▁Appropriate	5
▁convict	5
▁inventor	5
▁colorful	5
▁WR	5
configured	5
ategorical	5
▁reusability	5
▁tran	5
▁careers	5
▁acknowledg	5
Eighty	5
▁restrain	5
Privacy	5
▁retouch	5
▁pur	5
ging	5
dating	5
▁Throw	5
▁afternoon	5
▁Rem	5
▁exclud	5
▁COBOL	5
▁Photograph	5
▁inaccessible	5
corporate	5
▁fittings	5
▁PROLOG	5
▁Compile	5
▁Parts	5
quires	5
▁Plugin	5
▁Korean	5
▁observ	5
▁filmed	5
▁Anticipation	5
▁proto	5
▁Mauri	5
▁Cable	5
generated	5
▁lin	5
ole	5
▁engravings	5
▁Mau	5
lana	5
▁Aspect	5
isaster	5
▁caption	5
▁forgot	5
▁Communicat	5
oimbatore	5
lagiarism	5
▁NP	5
▁Olympic	5
▁Logo	5
▁Lawyer	5
▁unhappy	5
talk	5
▁Dirac	5
▁muddy	5
▁deter	5
Red	5
▁badge	5
inning	5
▁cabins	5
Donnell	5
▁appraisal	5
▁Dada	5
▁webinar	5
▁cart	5
▁Progression	5
word	5
▁stout	5
▁turbine	5
▁El	5
▁Employer	5
loating	5
▁multilayer	5
opping	5
kind	5
▁preferr	5
▁passion	5
setter	5
putting	5
▁circumstance	5
▁Conclude	5
▁chopp	5
▁concentr	5
▁permitt	5
▁hobbies	5
▁Reconstruction	5
▁composer	5
▁expend	5
▁hubs	5
▁Worms	5
Internal	5
uppets	5
▁Bf	5
▁publicize	5
▁Chord	5
erification	5
▁Shri	5
▁Programme	5
ene	5
▁childhood	5
isitors	5
▁indents	5
isplacement	5
▁Dedicat	5
lipped	5
▁Calc	5
▁Backup	5
▁Laboratory	5
▁unordered	5
▁Preprocessing	5
▁Behind	5
▁smudge	5
▁Sports	5
▁compel	5
dmin	5
▁jerkiness	5
▁Harrison	5
▁Ruzzo	5
llman	5
▁Twisted	5
▁Sarkar	5
▁ruling	5
▁Mirror	5
▁Videos	5
▁lighten	5
▁backtrack	5
▁societies	5
▁indentation	5
▁folk	5
▁anticipate	5
▁proficien	5
▁NF	5
▁webcast	5
▁Spooling	5
▁altitude	5
▁stones	5
▁remarkabl	5
▁deadline	5
mouth	5
editing	5
▁dirty	5
▁postdated	5
types	5
▁Fail	5
lock	5
MH	5
▁quest	5
▁exercis	5
▁Irregular	5
▁pursuit	5
▁tamper	5
▁Coordination	5
▁mbps	5
▁exhaust	5
pay	5
▁dialer	5
▁truncate	5
▁astro	5
▁normalised	5
▁MinPoints	5
▁Script	5
▁Perl	5
▁capacitors	5
▁wrappers	5
▁Calculat	5
▁artefact	5
ridges	5
▁Lester	5
▁modifie	5
operative	5
▁globalization	5
Pro	5
▁MBR	5
▁Decode	5
Never	5
▁restful	5
fer	5
▁resell	5
▁presumption	5
▁Court	5
▁Carry	5
ridge	5
ST	5
tended	5
Program	5
▁arches	5
pendant	5
automated	5
▁disallowed	5
▁mal	5
AE	5
▁gi	5
▁tongue	5
▁Separate	5
▁ViV	5
Vi	5
▁celebrity	5
araj	5
▁diapers	5
▁phosphor	5
▁agglomerat	5
mentally	5
shot	5
lime	5
▁Medicine	5
touched	5
Delete	5
▁Vincent	5
working	5
▁Padding	5
▁Concern	5
▁Border	5
▁Kingar	5
▁iPod	5
chains	5
▁fasten	5
school	5
▁recognise	5
▁DF	5
oc	5
ks	5
▁automobiles	5
chit	5
▁Catalogue	5
percent	5
▁categoriz	5
▁uk	5
▁methodical	5
rbitrary	5
▁Land	5
ookies	5
▁Atul	5
▁eminen	5
▁Instance	5
MDA	5
▁ruler	5
ane	5
▁relieve	5
▁Estimat	5
▁protest	5
▁embraces	5
▁HEL	5
▁Technique	5
▁infrastructur	5
▁Sorter	5
▁perceiv	5
▁holistic	5
▁Routine	5
ritten	5
ita	5
▁Pr	5
▁Person	5
▁artifact	5
▁mil	5
PT	5
oherence	5
▁Leonard	5
▁EDI	5
▁pads	5
▁ROT	5
▁Recogniz	5
Transaction	5
▁diagnos	5
▁diary	5
▁darken	5
▁tensions	5
▁Surrealism	5
▁Improv	5
▁internationally	5
MSD	5
conferencing	5
▁overpower	5
▁Intersect	5
▁HRU	5
▁interfac	5
▁Azevedo	5
▁couldn	5
▁Symmetr	5
▁cre	5
▁permanence	5
▁thinner	5
▁sociology	5
Administrative	5
aged	5
▁challenged	5
readable	5
▁triplets	5
▁Contract	5
▁Improve	5
▁branched	5
old	5
▁overloaded	5
Black	5
▁Dutch	5
rain	5
map	5
▁cab	5
alling	5
▁pursu	5
▁frown	5
▁ancestor	5
▁Gary	5
yle	5
▁retransmit	5
▁spatio	5
cceleration	5
▁DN	5
sentinel	5
▁nuke	5
▁exhibitions	5
▁demo	5
▁inculcat	5
▁gum	5
clips	5
▁alarms	5
▁Filters	5
vertex	5
▁generalise	5
▁Specimen	5
▁Visualization	5
regulation	5
primary	5
PB	5
safety	5
▁infiltrat	5
▁Unexpected	5
▁Optic	5
▁Uniqueness	5
inspire	5
▁transitional	5
▁Vertices	5
▁offences	5
▁Crystal	5
▁catalysis	5
▁mentor	5
▁diligent	5
▁Archie	5
clockwise	5
counterclockwise	5
▁feathering	5
▁Reader	5
▁SMART	5
owned	5
▁compresse	5
antivirus	5
FTP	5
▁scrutin	5
OD	5
UR	5
IDE	5
LIVE	5
THE	5
▁pastels	5
▁Mission	5
▁rack	5
▁engraved	5
▁reorder	5
broadcast	5
▁Did	5
▁assert	5
▁bottleneck	5
▁proceeded	5
▁badgering	5
Position	5
▁Jarnik	5
representation	5
▁renderer	5
unauthorized	5
authoring	5
▁Incidence	5
▁Canad	5
resent	5
ESS	5
▁Popular	5
▁releas	5
▁inhaled	5
▁lining	5
ep	5
Name	5
andwidth	5
▁Bible	5
▁STAR	5
▁clipping	5
▁bookkeep	5
▁newcomers	5
▁Impressionism	5
behavior	5
▁assistants	5
Read	5
▁VM	5
▁Finger	5
War	5
▁Brown	5
▁Poor	5
▁Incident	5
▁Niel	5
▁interconnects	5
thought	5
words	5
rey	5
sley	5
cidentally	5
▁litera	5
being	5
▁prejudice	5
▁silencer	5
▁Zk	5
vj	5
▁freed	5
lean	5
▁ghost	5
▁References	5
▁leverage	5
▁Hyperlink	5
▁Uni	5
▁Embedd	5
hyper	5
▁Ta	5
PO	5
▁millimetre	5
▁Transposition	5
▁Princeton	5
Cut	5
pyware	5
▁Ether	5
▁cursive	5
igma	5
▁Cre	5
▁Miscellaneous	5
▁blad	5
Multiprogramming	5
Dimensional	5
▁Delay	5
▁blackboard	5
Broadband	5
▁kbps	5
▁superset	5
Assume	5
central	5
▁obj	5
▁exce	5
▁demotivating	5
ollaborative	5
▁Netscape	5
▁Tim	5
Goodbye	5
General	5
procedural	5
▁dirt	5
▁germs	5
▁MES	5
Reading	5
▁IEC	5
▁Futurism	5
andidate	5
PS	5
▁Bottom	5
▁picas	5
▁conta	5
▁cla	5
▁Depict	5
era	5
boxes	5
cene	5
ormalization	5
ki	5
▁bats	5
[...]
