\,	192491
.	177397
▁మరియు	82104
▁	75159
▁యొక్క	43278
1	33511
▁ఈ	31539
▁ఇది	28584
▁మీరు	25256
2	25015
0	24216
▁ను	23506
▁అనేది	22242
▁లేదా	21545
▁మనం	21491
ను	20112
▁ఒక	19840
▁లో	18493
-	16621
▁కాబట్టి	15273
▁ఉంటుంది	14420
▁.	14197
ని	14163
▁కోసం	13899
3	13272
▁ద్వారా	13069
▁=	12747
▁నుండి	12279
▁(	12045
▁కలిగి	11711
▁అవుతుంది	11578
స్	11235
▁-	11202
▁ఇక్కడ	11085
▁నేను	10783
▁x	10747
:	10601
▁ఇప్పుడు	10485
▁చాలా	10360
▁కూడా	10279
▁ని	10053
గా	9987
▁డేటా	9800
5	9195
▁లు	8929
4	8777
)	8572
▁గా	8213
▁అని	8196
▁రెండు	8107
▁అంటే	7862
కు	7776
్	7487
కావున	7439
▁కావున	7177
▁గురించి	7074
▁అది	6969
లో	6867
▁కు	6607
?	6535
ాన్ని	6534
తో	6490
▁లను	6312
▁ఆ	6183
కి	6133
▁ఉన్న	6126
/	5924
▁n	5605
x	5605
▁ల	5552
▁)	5544
▁తో	5533
▁టు	5533
6	5510
▁దాని	5404
▁ఉంది	5272
▁ప్రతి	5272
▁మనము	5180
▁+	5169
▁దీనిని	5159
▁ఉంటాయి	5127
▁మీ	5068
▁కి	5000
▁చేయడానికి	4960
▁సిస్టమ్	4956
▁చేయడం	4923
▁ఆఫ్	4862
▁అన్ని	4846
▁మీకు	4788
▁ఇన్	4575
▁ఈక్వేషన్	4556
▁A	4504
▁ఉన్నాయి	4491
▁y	4420
▁పై	4351
▁ఒకవేళ	4327
లను	4308
▁కొన్ని	4297
▁మొదటి	4287
▁అర్థం	4194
▁ఎందుకంటే	4186
9	4130
8	4124
▁a	4102
▁అయితే	4086
ల్	4082
▁గ్రాఫ్	4017
▁మధ్య	4001
(	3957
7	3946
కాబట్టి	3905
▁ఒకటి	3899
▁వివిధ	3882
▁ఇతర	3834
▁స్క్వేర్	3786
▁చేస్తుంది	3784
▁దానిని	3780
▁అవసరం	3774
▁ఫంక్షన్	3753
▁తరువాత	3736
▁మనకు	3732
▁G	3717
▁వర్క్	3705
▁మాత్రమే	3691
▁ఎలా	3667
▁మైనస్	3655
▁నెట్	3594
▁వంటి	3577
▁కంప్యూటర్	3569
▁X	3559
▁అవి	3553
▁విలువ	3519
▁విధంగా	3482
▁ఎక్స్	3481
▁మొత్తం	3480
▁చేయవచ్చు	3421
పై	3413
▁వేర్	3403
=	3394
+	3329
▁వరకు	3324
▁f	3315
▁అనే	3267
▁అప్పుడు	3255
▁ప్లస్	3229
▁మేము	3187
▁ఎక్కువ	3185
▁ఏదైనా	3180
ానికి	3148
▁ఉపయోగించి	3125
▁వన్	3110
▁P	3096
▁కానీ	3091
▁ఈక్వల్	3063
▁పని	3012
▁r	3006
▁మ్యాట్రిక్స్	2978
▁u	2970
▁కాదు	2955
▁వద్ద	2938
▁సమానం	2932
▁అనేవి	2925
▁అనేక	2922
▁అందువల్ల	2896
ింగ్	2848
▁సెట్	2827
▁రెండవ	2795
▁లోని	2689
▁లైన్	2669
▁జీరో	2662
▁చేయండి	2657
▁సాధారణంగా	2652
▁ఏమిటి	2626
▁లేదు	2603
▁పాయింట్	2565
▁మూడు	2560
డ్	2547
▁కంటే	2534
▁సమీకరణం	2529
▁డెల్	2528
ంగా	2526
▁మాడ్యూల్	2514
▁సాధారణ	2493
▁కాని	2488
ం	2463
▁సంఖ్య	2460
▁ఉంటే	2439
▁అలాగే	2432
▁తర్వాత	2425
▁తక్కువ	2424
▁డేటాను	2412
▁ఏమిటంటే	2383
▁వెబ్	2367
'	2361
▁దీని	2358
▁b	2342
▁ఉదాహరణకు	2335
▁చూద్దాం	2327
▁క్లిక్	2278
▁చేయాలి	2275
▁ట్రాన్స్	2245
▁c	2231
▁మీన్	2231
ు	2224
▁చేస్తాను	2223
▁k	2223
మరియు	2216
▁ఉండాలి	2212
_	2210
▁ఏ	2200
▁ఉత్పత్తి	2199
▁సాఫ్ట్	2190
▁భాగం	2187
▁పద్ధతి	2181
▁అంటారు	2163
▁ఒకే	2156
▁బై	2147
▁B	2143
▁అదే	2138
ఈ	2134
▁p	2118
▁ఆఫీస్	2116
లు	2114
▁ఇవి	2087
▁e	2083
▁చేయబడిన	2079
▁మెంట్	2069
▁సెలక్ట్	2059
▁విభిన్న	2059
▁ప్రోటీన్	2057
▁ఆపై	2050
▁నాన్	2048
ఇది	2034
▁చేస్తాము	2021
▁ఏమి	2016
▁చేసే	2010
ే	2008
▁మోడల్	1999
▁నిర్దిష్ట	1997
▁వాటిని	1991
▁మన	1985
▁ముఖ్యమైన	1983
▁రకాల	1979
ా	1968
▁ఎ	1946
▁ఎన్	1937
▁సెక్యూరిటీ	1928
▁యాక్సెస్	1924
▁_	1923
▁అనగా	1914
▁వారు	1912
▁డేటాబేస్	1902
▁C	1891
▁మరింత	1891
▁గల	1875
▁విలువను	1859
▁టూ	1854
▁చూడవచ్చు	1852
▁ఉదాహరణ	1849
▁కాలమ్	1838
▁సున్నా	1837
▁సూచిస్తుంది	1828
▁ఉపయోగించే	1824
▁i	1823
▁v	1821
▁ఫైల్	1811
▁R	1801
▁వాస్తవానికి	1789
▁చేసిన	1787
▁వాటి	1777
▁t	1768
▁సమయం	1748
▁మరో	1731
▁పుట్	1726
▁జరుగుతుంది	1715
▁కొత్త	1709
▁ఇచ్చిన	1701
▁సైబర్	1700
▁నకు	1694
▁తదుపరి	1692
▁సబ్	1680
▁నా	1677
▁టెక్స్ట్	1673
▁ఐదు	1673
ఇప్పుడు	1672
▁యూజర్	1668
▁అప్లికేషన్	1668
▁పవర్	1666
▁సమాచారాన్ని	1664
▁ఆధారపడి	1649
▁పెద్ద	1647
n	1646
▁ఆర్డర్	1640
▁అక్కడ	1631
▁కొంత	1626
▁లీనియర్	1620
▁అవుతాయి	1612
▁మనీ	1597
▁క్యాపిటల్	1587
▁సమస్య	1579
▁కమ్యూనికేషన్	1571
▁z	1567
▁నాలుగు	1563
▁మరొక	1547
▁అభివృద్ధి	1544
▁తెలుసు	1543
▁సమాచారం	1543
▁లలో	1542
▁కీ	1539
▁ప్రధాన	1537
▁DNA	1519
▁అంచనా	1516
▁డిస్ట్రిబ్యూషన్	1512
▁ఇంటర్నెట్	1490
▁S	1490
▁మెథడ్	1485
▁వారి	1484
▁ఉపయోగించవచ్చు	1472
ో	1472
▁ఎడ్జ్	1472
▁ప్రోగ్రామ్	1460
▁మూడవ	1456
▁చేస్తే	1451
▁సైట్	1444
▁ఉండవచ్చు	1439
▁ముందు	1429
▁చిన్న	1426
▁ఖచ్చితంగా	1424
▁వాల్యూ	1421
y	1419
▁మొదట	1418
▁ఉపయోగించడం	1412
▁విలువలను	1410
▁కేవలం	1406
▁ఆధారంగా	1405
▁ఆన్	1399
▁నిర్ధిష్ట	1395
▁అయిన	1385
▁సందర్భంలో	1384
▁వేరియబుల్	1380
▁అందుబాటులో	1376
▁వల్ల	1374
▁టెస్ట్	1372
▁d	1371
▁కమ్	1365
▁ఇన్ఫర్మేషన్	1361
▁xi	1352
▁ఉండే	1351
▁ఎంపిక	1348
▁T	1348
న్	1343
^	1340
▁D	1339
ర్	1338
▁సమయంలో	1323
ఉపయోగించబడుతుంది	1315
▁అధిక	1310
▁విలువలు	1310
▁E	1308
▁m	1307
▁చేయబడుతుంది	1302
▁చివరి	1299
▁డిజైన్	1297
▁V	1295
▁కంట్రోల్	1291
▁డిమాండ్	1290
▁వెర్టెక్స్	1286
▁సులభంగా	1283
▁మైనింగ్	1283
ి	1280
▁Y	1276
▁లకు	1273
▁ఫార్ములా	1271
▁అమలు	1267
▁వెర్టిసెస్	1264
;	1264
▁సి	1262
▁పరిమాణం	1262
▁ప్రాథమిక	1260
▁ప్రక్రియ	1257
▁దశ	1257
▁అనుకుందాం	1256
▁సరైన	1241
ది	1240
▁ఇస్తుంది	1237
▁సాధన	1235
▁రకమైన	1229
మీరు	1228
▁రూపంలో	1221
▁డి	1216
▁సెషన్	1215
▁టూల్	1208
▁ఎక్కువగా	1206
▁బార్	1206
▁[	1185
▁స్టాండర్డ్	1184
▁అవసరమైన	1177
▁డీవియేషన్	1172
▁పూర్తి	1170
▁డిజిటల్	1169
▁ఎస్	1167
▁అత్యంత	1164
▁తిరిగి	1158
*	1155
▁వర్డ్	1152
▁విషయం	1147
▁కావచ్చు	1147
▁పొందుతాము	1141
▁సొల్యూషన్	1137
▁చూడండి	1135
▁లైట్	1133
▁మంచి	1126
▁ఇప్పటికే	1126
▁టేబుల్	1124
▁అధ్యయనం	1124
▁మళ్లీ	1124
▁గ్రూప్	1120
▁క్రింది	1119
▁టైమ్	1116
▁ఇంటర్	1115
▁వెక్టర్	1115
ీ	1113
▁ప్రకారం	1113
▁వరుస	1109
▁ఫ్రీక్వెన్సీ	1095
▁అందిస్తుంది	1091
▁సిరీస్	1089
▁సంబంధించిన	1088
▁వేరు	1087
▁మోడ్	1081
▁ఉంటారు	1079
a	1078
▁వస్తుంది	1077
▁డిగ్రీ	1072
▁వ్యవస్థ	1070
▁బాగా	1069
నే	1066
▁సంబంధం	1064
▁F	1063
▁ప్రాథమికంగా	1061
▁పద్ధతులు	1055
▁సంబంధిత	1049
▁భద్రత	1045
▁ప్రారంభ	1042
▁H	1040
▁సరే	1035
).	1027
▁అండ్	1020
▁వ్యాపార	1019
▁పాలినామియల్	1017
▁కనుగొనడానికి	1015
▁నిలువు	1014
▁ఆర్	1011
▁రకం	1006
▁అవుట్	1005
▁సంస్థ	1005
▁మొదలైనవి	1002
▁పరంగా	1001
▁రిగ్రెషన్	999
▁ఎర్రర్	996
▁విషయంలో	993
▁మునుపటి	991
▁చేసి	990
▁వైపు	989
▁కలర్	989
ು	989
▁శాతం	984
▁ప్రాసెస్	979
▁లెవెల్	975
▁ఔట్	974
▁బ్లాక్	972
▁ఇంటూ	972
వ	968
▁స్పేస్	966
▁ఇమేజ్	964
▁ద	964
A	956
▁ఉన్నప్పుడు	956
▁&	956
ఒకవేళ	953
▁వందల	945
▁పిలుస్తారు	944
▁అంటాము	943
▁Σ	942
▁వ్యక్తి	939
▁ఏమిటో	938
▁సర్వర్	932
▁సెల్	932
▁నిజానికి	930
▁ప్రత్యేక	928
▁చేస్తారు	925
▁సైఫర్	924
▁చూస్తున్నట్లు	923
f	923
▁విశ్లేషణ	921
▁మొదలైన	915
▁కారణంగా	914
▁నిల్వ	911
▁రాండమ్	910
న	909
డానికి	906
▁ఉందని	905
▁ప్రభావితం	905
▁శాంపిల్	903
▁సహాయపడుతుంది	900
▁అ	898
ెడ్	895
DIFF	894
▁వేర్వేరు	894
▁నంబర్	893
−	891
మనం	889
▁ఫర్	889
▁ఉండదు	889
▁ఎడ్జెస్	888
▁రేట్	885
▁q	885
▁పాటు	881
▁దీనికి	876
▁ఉన్నారు	872
▁తక్కువగా	868
▁ఉన్నాము	865
▁మార్పు	864
▁]	864
▁పద్ధతిని	862
▁మూవ్	859
▁యూనిట్	859
▁లేకుండా	857
▁ఆపరేటింగ్	856
▁లోకి	854
▁బాక్స్	851
▁కాకుండా	851
▁వేరియబుల్స్	850
▁స్పష్టంగా	849
▁h	848
▁ఐ	847
▁ఆసక్తి	843
▁సైకిల్	841
▁పరిష్కారం	840
▁w	839
i	832
▁ఓపెన్	829
▁క్లాస్	824
▁స్థాయి	821
▁ఇంటిగ్రేషన్	820
▁అప్	819
▁మార్గం	819
▁లేయర్	819
ట్	817
▁అతను	817
▁ఆబ్జెక్ట్	817
▁డిఫరెన్షియల్	812
మైన	810
▁బ్యాక్	809
▁పేరు	809
▁పొందవచ్చు	807
▁ఎల్లప్పుడూ	805
▁తద్వారా	804
▁మెసేజ్	802
▁వ్యక్తిగత	801
దీన్ని	799
▁g	798
▁ఇండిపెండెంట్	797
▁ముఖ్యమైనది	793
▁విద్యార్థి	793
▁ఇంటర్వెల్	791
▁యానిమేషన్	790
▁కన్జంప్షన్	790
▁అదేవిధంగా	784
లోని	782
▁మంది	782
▁పదం	781
▁సమానంగా	780
▁అన్	779
▁పొందడానికి	776
▁s	774
▁మళ్ళీ	774
▁K	773
▁హౌస్	773
▁M	772
k	771
▁సూత్రం	770
▁సమాచార	765
▁ప్రయోజనం	765
▁లతో	765
▁ఇ	765
▁ప్లాట్	764
క్	764
▁బహుళ	763
ఒక	763
▁రంగు	760
▁ఎంత	758
▁కుడి	758
ప్పుడు	757
▁ఎందుకు	756
▁పి	756
▁సరిగ్గా	755
▁పరీక్ష	755
▁మరొకటి	753
▁కొన్నిసార్లు	751
▁తయారు	750
▁ఆపరేషన్	750
▁ఇంటిగ్రల్	750
▁దృష్టి	746
▁ప్రాబబిలిటీ	746
▁క్రియేట్	743
ిక్	743
|	742
▁ఇంకా	739
▁టెక్నాలజీ	738
▁రెండర్	738
▁చేసుకోవడానికి	737
▁కోడ్	736
దానికి	733
▁Q	732
▁స్టోరేజ్	732
▁ఈజ్	727
▁అంత	725
▁కర్వ్	725
▁తరువాతి	723
▁పాలసీ	721
▁సాంకేతికత	721
▁అల్గారిథమ్	720
▁టెక్నిక్	720
▁చేయాల్సి	720
▁పాపులేషన్	717
▁Z	716
▁|	713
▁నిర్వచనం	712
▁కోర్సు	710
▁స్టోర్	710
▁తరచుగా	710
▁అంశం	710
▁చేయబడతాయి	709
▁కనెక్ట్	708
▁ఇండెక్స్	708
▁మాతృక	707
▁మొదటిది	706
▁ఇరవై	706
▁డ్యాష్	706
▁పాస్	704
▁ఇన్కమ్	704
▁కవర్	702
▁తమ	701
▁వ్యత్యాసం	701
▁λ	700
▁పద్ధతులను	697
▁పట్టిక	695
▁సిస్టమ్స్	694
X	694
▁చేస్తాయి	694
▁సైన్	693
▁రేటు	693
▁రిలేషన్	693
▁టైప్	691
▁రోజు	691
▁రియల్	690
▁కింది	689
▁పాజిటివ్	687
▁మీద	686
▁పబ్లిక్	685
▁j	682
▁కంటెంట్	682
నేషనల్	682
▁ప్రెషన్	681
▁రూట్	680
▁చర్చించాము	680
▁ప్రాసెసింగ్	679
▁ప్రాబబిలిటి	678
▁జెల్	676
▁అన్నది	675
▁నార్మల్	674
▁``	673
▁పొందిన	672
▁తప్పనిసరిగా	672
▁ఆరు	672
▁సహాయంతో	669
▁థీరమ్	669
▁అవకాశం	668
▁లోడ్	667
▁ఆల్ఫా	667
h	667
▁ఏదో	665
▁నిర్వహణ	665
▁సంబంధించి	665
▁రెండవది	664
▁ఆధారిత	664
▁పాత్	659
▁సాంకేతిక	659
▁వ్రాయవచ్చు	658
▁మీడియన్	657
▁*	656
▁ఉపయోగిస్తాము	651
▁నిజంగా	648
▁వ్యూ	645
▁psi	644
▁ట్రీ	643
▁సెంట్రల్	643
▁డిస్	642
▁పైన	642
▁మల్టీ	640
▁ఖచ్చితమైన	640
▁చేద్దాం	640
▁విధానం	637
▁సులభం	636
▁ప్రోటోకాల్	635
ల	634
▁హార్డ్	633
▁బిట్	632
▁అథెంటికేషన్	632
▁సింగిల్	631
▁వ	630
▁ఫ్లో	630
lt	630
▁ఎనిమిది	629
▁ఓవర్	629
▁పరస్పర	628
▁N	627
▁ఫలితాల	626
▁అవగాహన	626
▁వ్యక్తీకరణ	626
▁లేని	625
B	624
▁ఫార్మ్	623
▁కొనుగోలు	623
)=	623
▁కన్నా	620
▁కస్టమర్	619
లా	619
▁మేనేజ్	616
▁ప్రైస్	616
▁పరిచయం	615
▁నోడ్	614
▁చర్య	614
b	613
▁చూశాము	607
ఉదాహరణకు	607
▁I	606
▁నియంత్రణ	605
▁ఫేస్	605
▁పద్ధతిలో	605
▁ఎఫ్	605
▁క్రెడిట్	605
▁బి	604
▁చేయబడింది	602
▁అయి	602
▁సంఖ్యలో	601
▁పూర్తిగా	600
▁కాంతి	600
▁భాగాన్ని	600
xi	600
▁స్వాగతం	598
▁పిలువబడే	598
▁ఇక్కడకు	596
▁అనుమతిస్తుంది	595
▁ప్రెస్	595
▁స్క్రీన్	590
▁మాన్యువల్	589
▁స్టాటిస్టికల్	589
▁సేవ్	588
▁తగిన	588
▁బదులుగా	587
''	587
బడుతుంది	586
▁ఏడు	585
▁ఇదే	584
D	583
▁ఆర్థిక	583
▁లాగ్	582
▁చూస్తే	582
▁ఉపయోగిస్తారు	580
▁క	580
▁ఉండడం	579
▁అటువంటి	579
▁దశలో	578
▁డిస్టిబ్యూషన్	578
▁పేపర్	577
▁లేబుల్	576
▁స్వంత	575
▁మార్కెట్	574
లోకి	574
▁అంశాలు	572
▁థీటా	572
ము	570
▁డాట్	569
▁ముందుగా	567
▁ఖర్చు	567
▁కోఎఫిషియంట్	566
▁వచ్చే	564
▁దీనిలో	564
▁ప్రభావం	563
▁ర్యాంక్	563
▁చర్చిస్తాము	562
▁ప్రయోజనాలు	562
▁ప్రస్తుత	562
▁పొందుతారు	561
▁మ్యాప్	561
▁L	559
▁త్రీ	559
▁ప్రశ్న	558
▁నమూనా	558
▁బేస్	556
▁క్రమం	554
▁×	554
▁సమీకరణాన్ని	552
▁ఉపయోగించబడతాయి	552
▁అనుగుణంగా	552
▁పది	552
▁pi	551
▁ఎడమ	550
r	549
▁వీడియో	548
▁ప్లే	547
▁సీక్వెన్సింగ్	547
ివ్	547
▁phi	547
▁కాపీ	546
▁కూడిన	545
▁నిర్వహించడానికి	545
▁చూస్తాము	545
▁రికార్డ్	544
▁కార్యకలాపాల	542
▁సైజ్	540
▁కొరిలేషన్	540
▁వేవ్	539
▁ఇవ్వబడిన	539
▁వాల్యూస్	538
▁రెండూ	537
▁ఎలక్ట్రానిక్	537
▁రో	537
▁ఫలితం	536
▁సర్ఫేస్	536
▁విజువల్	535
▁ఇమెయిల్	535
▁లెస్	534
▁క్లౌడ్	534
▁బదిలీ	532
▁ప్రైవేట్	532
▁వెళ్తాను	531
▁మద్దతు	530
▁వి	530
▁RNA	530
▁మీడియా	529
▁బ్యాంక్	529
▁వాటిలో	528
మ్	525
▁చేయబడును	524
▁అభ్యాస	523
▁డాక్యుమెంట్	522
▁హైపోథీసిస్	522
▁ప్రజలు	521
▁కనుక	521
▁ఉంటుందని	520
▁చెప్పవచ్చు	520
▁తప్ప	520
▁నేరుగా	518
▁రేంజ్	518
▁ఉన్నాయని	517
▁సీక్వెన్స్	517
▁కింద	516
ఇక్కడ	516
▁σ	516
▁ఉపయోగం	515
▁రకాలు	515
▁మారుతుంది	514
▁సంఖ్యను	511
▁తన	511
▁మాయా	510
▁కనుగొనడం	510
▁రైట్	510
▁డిఫరెన్స్	510
▁మేనేజర్	509
▁స్లైడ్	509
▁చిత్రం	508
▁శాంపుల్	508
▁షిఫ్ట్	507
▁అయినప్పుడు	507
▁లక్షణాలు	507
▁అన్నీ	506
▁{	506
v	506
▁చెయ్యడానికి	506
▁≤	506
▁మేనేజ్మెంట్	505
▁వర్చువల్	504
▁డిస్క్	504
▁చివరగా	504
▁వీటిని	502
▁లింక్	501
▁లక్షణాలను	501
▁మా	501
▁గణన	500
నేను	499
▁గ్రాఫ్స్	497
▁వేగంగా	497
▁దాదాపు	497
▁జరిగింది	497
▁సమస్యలను	496
▁ఫ్రేమ్	495
▁కార్డ్	494
▁డెల్టా	494
▁కనీసం	493
▁సమ్	493
▁టూల్స్	492
▁ముఖ్యం	492
▁మెరుగైన	492
▁U	492
▁అల్గోరిథం	491
▁పంపిణీ	491
▁ఫీల్డ్	491
"	489
▁దాడి	489
▁తనిఖీ	489
▁dx	489
▁విలువల	488
▁చూస్తున్నట్లుగా	488
▁వాస్తవ	487
▁టి	487
▁వలె	486
▁డిఎన్ఎ	486
▁క్రిప్షన్	486
▁ఇందులో	486
▁అందుకే	486
▁మెటీరియల్	485
▁/	485
▁సమితి	483
▁అయినా	483
▁నుంచి	483
▁ప్రోబబిలిటీ	483
▁ఎడిటర్	482
▁రికార్డుల	482
▁సమానమైన	482
ూ	481
▁నిర్మాణం	480
▁నాణ్యత	480
▁సగటు	480
▁అగ్రిగేట్	480
▁గమనించండి	479
▁వారం	479
▁హెచ్	479
▁విభాగం	478
▁సమీకరణాల	478
▁రిఫరెన్స్	477
▁వ్యక్తుల	476
▁వెర్షన్	475
▁లక్ష్యం	475
టివ్	474
▁పెరుగుదల	473
▁పెరుగుతుంది	473
▁న్యూటన్	473
▁భిన్నంగా	472
▁నల్	471
PE	470
▁వెళ్లి	470
▁షీట్	469
▁వ్యవస్థను	469
▁క్యారెక్టర్	468
▁ఉపయోగిస్తుంది	468
▁ఫోర్	467
▁బఫర్	467
▁సమస్యలు	466
వి	466
▁ప్రయోజనాల	466
▁చిత్రంలో	465
▁పనిని	465
▁పాత్ర	465
కాని	464
▁పొడవు	463
ేషన్	463
▁సర్వీస్	463
▁కోరిలేషన్	463
▁వెళ్తాము	462
▁ఆపరేటర్	462
▁ముందుకు	462
▁అలా	462
▁ఇవ్వబడుతుంది	460
▁మంచిది	460
▁ఇన్వెస్ట్	460
▁ఎల్	459
▁తెలిసిన	459
)/	458
▁పార్షియల్	458
▁స్టాటిస్టిక్స్	457
▁వైరస్	456
▁నాల్గవ	456
▁ఈక్వేషన్స్	455
▁μ	455
▁అట్రిబ్యూట్	454
c	454
▁చేసినప్పుడు	453
▁మొబైల్	453
▁ఫైవ్	453
▁మూడవది	452
▁లాంగ్వేజ్	452
▁ప్రాముఖ్యత	452
▁వర్కింగ్	451
▁స్థానం	451
▁J	451
▁వ్యక్తులు	450
▁జన్యువు	450
▁MT	449
Review	449
▁ఉదాహరణలు	449
▁టీ	449
▁ఫైల్స్	448
▁ಮತ್ತ	448
▁పోస్ట్	447
▁రన్	447
▁అంశాలను	446
▁మెయిల్	446
▁కొరకు	446
▁ల్యాంబ్డా	446
▁కారణం	445
వచ్చు	445
▁డబ్బు	444
▁వేరియన్స్	444
▁సెక్టార్	443
▁అవకలన	443
▁శిక్షణ	442
▁తొమ్మిది	442
▁స్కేల్	441
▁∈	441
▁సమస్యను	440
▁చేసుకోవడం	439
▁మొత్తంలో	439
▁ఇలా	439
▁సంబంధాన్ని	438
▁క్రాస్	438
ఇంటర్నెట్	437
▁అడ్రస్	437
▁గుర్తించడానికి	437
▁క్రింద	437
▁ఫార్మ్స్	436
▁హైపర్	436
▁కాస్	436
విస్తృతంగా	435
▁చివరకు	435
▁పరికరం	434
▁డొమైన్	434
▁ఈజెన్	434
▁ఫ్యాక్టర్	434
▁తదుపరిది	433
▁సామర్థ్యం	433
▁కాన్	432
▁బటన్	432
▁సూచించబడుతుంది	431
▁డబుల్	431
▁అదనపు	430
▁సైజు	430
▁కణ	430
▁ప్రమేయం	429
▁పొందడం	428
ారు	428
▁కట్	427
ల్ని	427
▁లాగా	427
▁విషయాలు	426
లలో	426
అందువల్ల	426
▁కనుగొనవచ్చు	426
λ	426
▁హోస్ట్	425
▁రుజువు	425
▁ఫామ్	425
ాయి	424
▁ప్రక్రియను	424
▁చూస్తారు	424
▁పరికరాలు	423
▁ఫిట్	423
డేటా	422
▁ప్లెయిన్	422
▁W	422
లకు	422
▁మానవ	422
▁భౌతిక	422
u	422
▁బరువు	421
▁సోష	420
పరిష్కరించడానికి	419
▁చేయడంలో	418
▁వెళ్లండి	418
▁వినియోగదారు	417
▁కంపెనీ	417
▁రేషియో	417
▁గుర్తించడం	416
G	416
▁స్పాన	415
!	415
కంటే	415
▁ఈవెంట్	415
▁స్మాల్	415
▁అడ్డు	414
▁సమర్థవంతమైన	413
▁డైమెన్షనల్	413
▁బౌండరీ	413
▁సింపుల్	413
▁ఎలిమెంట్	413
▁వెళ్దాం	412
▁ట్రాన్సాక్షన్	411
▁ది	411
▁సెట్టింగ్	411
ನ್ನು	410
▁టాప్	410
▁కనిపిస్తుంది	409
ందుకు	409
▁నిర్వహించడం	408
▁చేయగల	408
▁సాధించడానికి	408
▁డెరివేటివ్	407
▁గరిష్ట	406
▁కనెక్టెడ్	406
▁విద్యార్థులు	406
▁వీలు	406
▁విద్యార్థుల	405
▁ఫిజికల్	405
▁ధర	405
▁ఆర్గనైజేషన్	405
▁విద్య	405
▁ఉపయోగించ	405
▁వెయిట్	405
▁తప్పు	405
▁సమాధానం	404
కుండా	404
▁ఎం	403
▁సహా	403
▁ఫార్మాట్	403
▁కణాలు	403
▁ప్రోటీన్స్	403
▁ఏరియా	402
▁ఫైలింగ్	402
▁కాన్ఫిడెన్స్	402
s	401
▁పరివర్తన	400
▁మిమ్మ	400
▁చెక్	400
▁α	400
▁తీసుకుందాం	400
▁ప్రవణత	399
▁ఇంటు	398
▁ఆడ్	397
▁అందించడం	396
▁ప్రధానంగా	396
▁దాన్ని	396
▁ముప్పై	396
▁విద్యా	395
▁వస్తువులు	395
▁గురించిన	395
▁మెమోరీ	395
▁సప్లై	395
▁డౌన్	394
▁తెలియని	394
▁చేయు	394
gt	394
▁అసలు	393
▁భాగాలు	393
▁ఇంట్రెస్ట్	393
ాము	392
▁ఫలితంగా	392
▁బిందువు	392
▁ఫై	392
▁ఒక్క	391
▁రూపం	391
▁సెంటర్	390
▁అయ్యే	389
▁చెందిన	389
▁ప్యానెల్	389
▁భర్తీ	388
▁బట్టి	388
▁yi	388
▁క్రైమ్	386
▁ఎటువంటి	386
▁లోపల	386
▁ఎక్సెల్	385
▁అఫ్	385
▁విషయాలను	384
ాల్సిన	383
▁సమూహం	383
▁ఎక్కడ	383
▁జాగ్రత్త	382
▁ఏర్పాటు	382
▁mu	381
▁భాగంగా	380
▁ఇటరేషన్	380
▁విభాగంలో	379
▁వనరుల	379
▁తేడా	379
▁డ్	379
p	379
▁సమాన	378
▁బహుశా	378
▁రూ	378
▁మార్చడం	377
▁బేస్డ్	377
▁వరుసగా	376
లీ	376
▁ఆర్గ్యుమెంట్	376
▁అణువు	376
▁స్థితి	375
▁వస్తువు	375
▁కలిసి	374
▁ఉద్దేశ్యం	374
▁అనాలిసిస్	374
▁చూపుతుంది	374
▁ప్రణాళిక	373
▁పునరావృతం	373
▁గుర్తుంచుకోండి	373
▁స్టెప్	372
▁ఇవన్నీ	372
▁టర్మ్	372
▁పెండిచర్	372
▁చేశాము	371
▁వివరణ	370
▁స్థిరమైన	370
▁దారితీస్తుంది	370
▁సార్లు	370
▁ఫిస్కల్	370
▁కనెక్షన్	369
▁ఉపయోగించిన	369
▁తీసుకుంటే	369
▁ప్రామాణిక	369
▁మార్చవచ్చు	368
▁పరిశోధన	367
▁జత	367
▁ఫాల్స్	366
▁లోపం	364
▁ఉపయోగించడానికి	364
▁రూపొందించడానికి	364
▁గ్రౌండ్	364
▁ప్రాంతం	364
C	364
▁కోఎఫీషియంట్	364
▁లక్షణం	363
▁సిద్ధం	363
▁పరికరాల	363
▁గుండా	363
▁అతి	362
▁ప్లేన్	362
▁సాధనాలు	361
▁స్టార్	361
▁కణాల	361
ప్పటికీ	360
▁ఉంచడం	360
▁డేట్	360
▁ఉష్ణోగ్రత	360
▁మిగిలిన	359
▁ఫలితాన్ని	359
▁Δ	359
▁పరిమితం	358
▁పద్ధతుల	358
▁కార్యాచరణ	357
▁సమూహాల	357
▁ఎంజైమ్	357
▁సులభతరం	356
▁దిగువ	356
విధంగా	355
▁డ్రా	355
▁లైన్స్	355
▁మౌస్	354
▁వలన	354
▁శ్రేణి	354
▁అందించే	353
▁వేగం	353
▁కష్టం	352
▁ఉపయోగించబడును	352
▁సిగ్మా	352
్యారెక్టరిస్టిక్	352
▁చేయును	351
▁ఐడెంటిటీ	350
N	350
▁విలోమ	350
▁లైటింగ్	349
▁కాన్సెప్ట్	349
▁నిజమైన	349
▁ప్రత్యేకించి	349
టెస్ట్	349
▁అతని	348
▁ఇప్పటికీ	348
త	348
▁సామర్థ్యాన్ని	348
m	347
▁పొందే	347
▁గుర్తింపు	347
▁సర్దుబాటు	347
▁సాంద్రత	347
▁ఉన్నందున	347
▁వంటివి	346
▁ప్రసారం	346
▁పనితీరు	345
▁స్లయిడ్	345
▁లక్ష్య	344
▁బైనరీ	344
▁ఫీచర్	344
▁సూత్రాన్ని	344
▁ఎలిమెంట్స్	344
▁పేజీ	343
▁వైర్	343
▁జాబితా	343
▁ఎరుపు	343
▁గ్రాఫిక్స్	343
▁తీసుకోవడం	342
▁ఎండ్	342
▁ప్రాపర్టీ	341
▁θ	341
▁పనిచేస్తుంది	340
▁ప్రింటింగ్	340
▁ప్రింట్	340
Σ	340
▁ఎన్ని	339
▁సంస్థలు	339
▁సైన్స్	338
▁దానిపై	338
▁వ్రాయబడిన	338
t	338
q	338
డం	337
▁ఉన్నది	337
▁మెషిన్	337
▁వైపున	337
▁గామా	337
▁ప్రైమ్	337
▁ఉంచుతాను	336
▁కనుగొనండి	336
▁కణం	335
▁వారంలో	335
▁ఆవరేజ్	335
▁తీవ్రత	334
▁కలిగిన	334
▁అందువలన	334
▁భావన	334
▁సర్టిఫికేట్	334
▁చెయ్యడం	334
▁తీసుకుంటుంది	334
▁చర్యలు	333
▁విభజన	333
▁రీకాంబినెంట్	332
▁అందించడానికి	331
▁లభిస్తుంది	331
▁ఫైనైట్	331
▁వనరులను	330
▁ఆపరేషన్స్	330
▁వెళ్లాలి	330
▁కంప్యూటింగ్	330
▁ప్రత్యేకంగా	330
పు	329
▁రంగును	329
▁బాధ్యత	329
▁ప్రత్యేకమైన	329
▁పరిమితి	329
▁రూట్స్	329
▁అందరికీ	328
e	328
▁చర్చిద్దాం	328
d	328
▁^	328
▁కెమెరా	327
▁నమోదు	327
▁అసోసియేషన్	327
▁సూచించే	327
▁గాఢత	327
▁పేర్కొన్న	326
▁క్రమంలో	326
▁పర్	326
▁వాల్యూను	326
▁ఫ్లోరోసెంట్	326
▁క్లయింట్	325
▁వే	325
▁దగ్గరగా	325
▁వారికి	325
▁సరిపోతుంది	325
▁సేవలను	324
▁ఉండటానికి	324
కీ	324
▁స్థిరంగా	324
షన్	324
P	323
▁ఫార్వర్డ్	323
▁కాలం	323
▁సరళ	323
▁పందొమ్మిది	323
▁ఆశిస్తున్నాను	322
▁వేరే	322
▁వాటికి	322
▁జనరేట	322
▁న్యూ	322
▁ఇవ్వబడినది	322
▁వో	322
▁ఇన్వర్స్	321
▁మొమెంట్	321
▁ఉదాహరణను	320
▁భాగంలో	320
▁ఉత్తమ	320
▁ఫలితాలు	320
j	320
]	320
▁పోర్ట్	319
▁తీసుకుంటాము	319
▁తుది	319
▁లపై	318
▁ఆర్ట్	318
▁స్పష్టమైన	318
▁దానితో	318
▁తగ్గుతుంది	318
▁అనాలసిస్	318
▁వంద	317
▁విధానాలు	317
▁ప్రాతినిధ్యం	317
▁కారకం	317
▁మూలకం	317
θ	317
▁మార్గాల	316
▁కంప్లీట్	316
▁φ	316
▁లెర్నింగ్	315
▁}	315
్యూట్	315
▁లెక్చర్	314
▁ముఖ్యంగా	314
▁ఒకసారి	314
▁ప్రభావాన్ని	313
రు	313
▁ప్రయత్నం	313
▁పరిస్థితి	313
▁కాస్ట్	313
▁వ్యక్తీకరించ	313
▁మాస్	313
▁ఏది	313
▁స్టేట్	313
▁బైండింగ్	313
▁≥	312
▁సమీకరణంలో	312
▁ఉంచాలి	311
▁ఫోటోషాప్	311
▁క్లస్టర్	311
▁సెక్షన్	311
▁డిలీట్	311
▁ప్రక్రియలో	311
▁ఇన్ఫినిటీ	311
▁xn	311
▁ఒమెగా	311
▁ప్రోగ్రామింగ్	310
▁వేరియేబుల్	310
▁సరేనా	309
▁హై	309
▁స్ట్రక్చర్	309
▁పరస్పరం	309
▁ఎమ్	309
T	309
▁చాప్టర్	309
▁నిర్వచనాన్ని	308
▁ఉండును	308
▁సిమెట్రిక్	307
▁షిప్	307
▁ఎకానమీ	307
▁ఎలిమెంటరీ	307
▁అణువుల	307
▁నిబంధన	307
▁ఫంక్షన్స్	306
▁విద్యార్థులారా	306
▁బుక్	306
▁మార్పిడి	306
▁వస్తువుల	306
▁చేయబడ్డాయి	306
▁ట్రాక్	305
▁సోర్స్	305
▁మల్టిపుల్	305
▁థియరీ	305
▁మూలం	304
▁బిజినెస్	304
▁ఏవైనా	304
▁నిష్పత్తి	304
▁భాగాలను	304
▁పరిష్కారాన్ని	304
▁ఇవ్వబడింది	304
▁కాంప్లెక్స్	303
▁ఎఫెక్ట్	303
▁సందర్భం	303
▁ఎంటిటీ	303
▁వివరాల	303
▁సెపరేషన్	303
▁చిత్రాన్ని	302
▁చేసేది	302
▁వివరంగా	301
▁అయినప్పటికీ	301
▁అప్లికేషన్స్	301
▁లేక	301
▁క్వార్టైల్	301
▁మార్గాలు	300
▁దానిలో	300
▁హామిల్టోనియన్	300
▁పట్టికలో	300
▁UV	299
▁పైకి	299
ంట్	299
▁లుగా	299
▁GDP	299
▁ఎగువ	298
▁వివరించడానికి	298
▁కమ్యూనికేట్	297
▁క్రమాన్ని	297
▁కీని	297
▁స్థాయిలో	297
▁సెకండరీ	297
▁క్యాన్సర్	297
▁నేటి	296
▁లక్ష్యాలు	296
▁డైరెక్ట్	295
▁పరిశీలిస్తాము	295
▁బీటా	295
▁అప్లై	294
▁'	294
▁ఫోరెన్సిక్	294
ెస్	294
▁లేకపోతే	294
డు	293
▁విస్తృత	293
▁చెబుతుంది	293
▁లేవు	292
చే	292
అది	292
▁సమర్థవంతంగా	292
R	292
▁క్రోమాటోగ్రఫీ	292
▁చూపిస్తుంది	291
▁ప్రాసెసర్	291
▁ఇవ్వడం	291
▁పరిజ్ఞానం	291
▁ప్రాప్యత	291
▁వెళితే	291
I	291
▁దాన్	291
▁హలో	290
▁చేయాల్సిన	290
▁పాక్షిక	290
▁వినియోగదారులు	290
ంటి	290
▁అంతర్గత	290
▁వ్యవస్థలో	289
▁ఉపయోగించాలి	289
▁గుర్తు	288
▁పరిగణన	288
▁వేయడానికి	288
▁వ్యాపారం	288
▁ప్రత్యామ్నాయం	288
▁నెస్	288
▁మ్యాచింగ్	288
▁మార్గ	286
▁వీటిలో	286
▁బ్రౌజర్	286
▁ఆప్షన్	286
▁గాస్	286
▁శక్తి	285
▁సంభావ్యత	285
▁వరుసలు	285
▁ప్రత్యక్ష	284
▁వాల్యు	284
▁రికార్డులు	284
▁చెప్పాలంటే	284
▁డివైడెడ్	284
▁తొంబై	284
▁చేస్తున్నప్పుడు	283
▁పరిగణించండి	283
▁దారి	283
▁ప్రొడక్ట్	283
▁ప్రైమరీ	283
▁మార్పులు	283
▁పోలేషన్	283
dx	283
▁నియమం	282
▁చికిత్స	282
▁దశలు	282
▁పెయింట్	282
▁చేయాలనుకుంటే	282
▁ట్యాగ్	282
ెన్	282
▁హెడ్	282
▁సేవింగ్స్	282
▁అయాన్	282
▁సమయాన్ని	281
▁మార్క్	281
▁ఉందా	280
▁రొటేట్	280
▁వినియోగదారుల	280
▁ప్రజల	280
▁డిపార్ట్	280
▁సున్నాకి	280
▁అసైన్	279
▁దిశలో	279
▁వేల	279
▁షాడో	279
▁Φ	279
▁లాప్లాస	279
▁తీసుకోవాలి	278
▁విధానాన్ని	278
▁ప	278
▁నెగటివ్	278
▁అబ్సల	278
▁ప్లాన్	277
▁పాయింట్ల	277
▁వినియోగ	277
▁చోట	277
▁షార్ట్	277
▁పిలుస్తాము	276
▁పొందబడుతుంది	276
▁అటాక్	276
▁"	276
▁చేయబడినది	276
▁dy	276
్లో	275
▁గణిత	275
▁పెంచుతుంది	275
▁భారీ	275
▁సెకండ్	275
▁రే	275
▁విలోమం	275
▁పారామెట్రిక్	275
▁ఫ్లోరోసెన్స్	275
▁బ్లాట్	275
▁అనలైట్	275
▁అరవై	274
▁మైక్రోసాఫ్ట్	274
▁లెక్కించడానికి	274
▁కణాలను	274
▁అలాంటి	273
▁కోఆర్డినేట్	273
▁చేసుకోవచ్చు	273
▁రా	273
▁ట్యాబ్	272
▁ముఖ్య	272
▁సహాయం	272
▁జి	271
▁కాల్	271
▁కనిపించే	271
జ్	271
▁మొత్తాన్ని	271
▁లేఅవుట్	270
▁కార్యకలాపాలు	270
▁డెవలప్	270
▁సరైనది	270
▁త్వరగా	270
▁చార్ట్	270
▁సూచన	270
▁చుట్టూ	269
▁పరిశీలిద్దాం	269
▁తరగతి	269
▁సైకిల్స్	269
▁పరిమాణంలో	269
▁యాంటీబాడీ	269
▁ప్రభుత్వ	268
▁చెప్పినట్లుగా	268
▁ఫోన్	268
ಧ	268
▁కొంచెం	268
▁యూజర్స్	268
▁ఎంటర్	268
▁మాధ్యమం	268
▁వస్తాయి	268
▁ఆలోచన	267
▁అట్రిబ్యూట్స్	267
▁డ్రాగ్	267
▁స్థిరాంకం	267
▁అవును	266
▁వర్తిస్తుంది	266
▁మ్యాట్రిసెస్	266
▁జ్ఞానం	265
▁కలిపి	265
▁పనితీరును	265
▁పోలిస్తే	265
▁కనీస	264
▁సేవలు	264
▁సులభమైన	264
▁గవర్నమెంట్	264
▁ఎట్	264
▁ప్రొపెన్సిటీ	264
▁సిగ్నేచర్	263
▁ఉండేలా	263
▁ప్రతికూల	263
▁సేవల	263
▁ఒకదానికొకటి	263
▁ఎకానమీలో	263
▁పిలవబడే	262
▁విండో	262
▁డిపెండెంట్	262
▁ఫ్రీడమ్	262
▁హీట్	262
ాలనుకుంటున్నాను	261
▁ఉద్యోగులు	261
▁సిగ్నల్	261
▁ఉన్నట్లయితే	261
▁l	261
దు	260
▁ఒకటిగా	260
▁ప్రాజెక్ట్	260
▁వర్సెస	260
▁లేదని	259
▁మాకు	259
▁ఏర్పడుతుంది	259
▁సరళమైన	259
▁ఫస్ట్	259
S	259
▁మెష్	258
▁మార్చడానికి	258
▁వెక్టర్స్	258
▁అందిస్తాయి	258
▁సెట్స్	258
ఆ	258
▁లేజర్	258
▁హాఫ్	258
▁డై	258
▁dr	258
▁స్క్యూనెస్	258
▁గ్రాఫిక్	257
▁పరిమిత	257
లాజికల్	257
▁రేఖ	257
)+	257
*(	257
▁చేస్తున్నాను	256
▁పొర	256
రీ	255
▁చే	255
▁టిక్కెట్	255
▁ఫోటో	255
δ	255
▁కావు	254
▁చేయగలదు	254
ೀ	254
▁తగ్గిస్తుంది	254
▁వ్యాప్తి	254
▁ప్రామాణీకరణ	254
▁ప్రతిక్షేపిస్తే	254
yi	254
▁ఇంటిగ్రిటీ	253
▁ఫారమ్	253
▁రంగంలో	253
▁వచ్చిన	253
▁ముగింపు	253
▁జన్యు	253
దాని	252
▁విషయాన్ని	252
▁ప్ర	252
▁సెర్చ్	252
▁ప్రాడక్ట్	252
▁పరిమాణ	252
▁స్కాన్	251
▁ఆధునిక	251
▁సపోర్ట్	251
▁హార్మోనిక్	251
▁చేయబడి	250
ಜ	250
▁ఉద్యోగి	250
▁దశలను	250
V	250
స్లైడ్	250
▁రెండింటినీ	250
▁వివరించడం	250
▁వస్తువులను	250
ియస్	250
▁ప్రోబ్	250
▁నిర్ణయం	249
ಫ	249
▁స్వభావం	249
▁నేర	249
▁ఆర్కిటెక్చర్	249
▁సమాంతర	249
▁ఆకృతి	249
▁రింగ్	249
▁కా	248
▁ఉండవు	248
▁జరుగుతుందో	248
▁కట్టుబడి	248
▁సిబ్బంది	247
దీనిని	247
▁ప్రపంచంలో	247
▁సాధ్యం	247
▁ప్రభుత్వం	247
%	247
▁బలమైన	246
▁దాడులు	246
▁అంశాల	246
▁విషయాల	245
▁ఫైర్	245
▁సంభాషణ	245
▁చేయాలో	245
▁బ్రష్	245
▁మిషన్	245
▁కిందకు	245
▁తరం	245
▁బొమ్మ	244
▁సిస్టం	244
▁పదాలు	244
▁డిస్క్రీట్	244
▁ఎప్సిలాన్	244
▁నిర్మాణాన్ని	243
▁గూగుల్	243
▁లాజికల్	243
▁తీసుకోవచ్చు	243
▁ప్రమాణాల	243
▁ఎటాక్	243
▁అదనంగా	243
▁గొప్ప	242
▁నష్టం	242
▁జరిగే	242
▁మెషర్	242
▁కండీషన్	242
Y	241
▁ఫార్మేషన్	241
▁సాధనం	241
▁రూల్	241
▁బ	241
▁స్టంట్	241
బుల్	240
▁ಅ	240
▁డ్రైవ్	240
▁హోల్	240
▁కల్పిస్తుంది	240
▁ఆసక్తికరమైన	240
▁జీవ	240
▁ఉంటాము	240
▁పరిమితులు	240
▁చిత్రాల	239
▁ఇవ్వడానికి	239
▁ఉంచవచ్చు	238
▁స్థలం	238
▁β	238
▁ఇన్పుట్	238
▁అక్షరం	238
▁సరిహద్దు	238
▁దూరం	238
▁సాంపిల్	238
▁చేసాము	237
▁ప్రస్తుతం	237
▁డిటెక్షన్	237
▁సంబంధించినది	237
▁పునరావృత	237
▁బయో	237
▁AB	237
▁లాజిక్	236
సి	236
▁వాల్	236
▁పరిస్థితుల	236
▁సంఖ్యల	236
▁ప్యాడ్	236
▁దగ్గర	236
▁లక్ష్యాలను	236
▁విషయానికి	236
▁సిగ్నిఫికాంట్	236
▁ఎడిట్	235
▁డూప్లికేట్	235
▁చేయబడే	235
▁చర్చ	235
▁బైనామియ	235
▁లెక్కించవచ్చు	234
▁విధులు	234
▁mn	234
▁తగినంత	233
▁ఆడియో	233
▁రక్షణ	233
▁కంప్యూటర్స్	233
▁ఆమె	233
▁ప్రాబ్లమ్	233
▁వాల్యూమ్	233
▁ఎంట్రీ	233
▁అప్రోచ్	233
▁స్కాటర్	233
▁జ్యామెట్రి	233
▁ఫోరియర్	233
▁ప్లేనార్	232
▁మరిన్ని	232
▁స్క్రిప్ట్	232
▁బయటకు	232
▁రేడియో	232
▁వివరిస్తుంది	232
▁ఉండనివ్వండి	232
గెన్	232
▁డయాగ్రామ్	232
గన్	232
▁లొకేషన్	231
▁ఎంచుకున్న	231
▁సిద్ధాంతం	231
▁ప్రయత్నిస్తున్న	231
▁యా	231
×	231
▁న్యూక్లియ	231
▁ముఖ్యమైనవి	230
▁ఉద్యోగుల	230
▁ఉండటం	230
కంప్యూటర్	230
పరిగణించబడుతుంది	230
▁లర్నింగ్	230
▁ప్రాముఖ్యతను	230
▁రోజుల్లో	230
▁సమయ	230
▁చూడటానికి	230
▁ప్రవర్తన	230
▁ఉపయోగిస్తే	230
▁ఆదాయం	230
▁వ్యాల్యూ	230
σ	230
▁న్యూక్లియోటైడ్	230
▁ఇంతకుముందు	229
▁యు	229
▁గత	229
▁సేకరణ	229
▁స్టాక్	229
ಆ	229
▁కొద్ది	229
▁మ్యాక్రో	229
ాలనుకుంటున్నాము	228
ంత	228
▁పదాన్ని	228
▁తీసుకోండి	228
▁ఉత్పన్నం	228
▁నమూనాలు	228
▁ఆప్టికల్	228
▁కొలత	228
బడతాయి	228
▁లిగాండ్	228
)*	228
▁ప్రపంచ	227
▁అవసర	227
▁వచ్చింది	227
▁Xi	227
▁ప్రొఫైల్	227
▁ఉజ్జాయింపు	227
▁వికర్ణ	227
▁ఉపయోగకరం	226
▁తెలుసుకోవడానికి	226
▁విండోస్	226
▁బోన్	226
▁పరిమాణాన్ని	226
▁ఇంతకు	225
▁నీలం	225
▁స	225
▁విభజించబడింది	225
▁వెంటనే	225
ుంది	224
▁సూపర్	224
▁⇒	224
▁ధన్యవాదాలు	223
అంటే	223
▁మెషీన్	223
▁సబ్జెక్ట్	223
చూడండి	223
▁వరుసలో	223
▁nu	223
▁డెస్క్	222
▁ఇంటర్ఫేస్	222
▁తెలుసుకోవాలి	222
▁కాదని	222
▁సూచనలు	221
▁రీజియన్	221
▁కరెన్సీ	221
▁ఉంచండి	221
ైన	221
▁కనుగొంటారు	221
▁సారాంశం	221
▁చూసిన	221
మెయిల్	221
▁ఆదా	220
▁ప్రాంతాల	220
▁తెలుసుకున్నాము	220
టానికి	220
▁పనిచేసే	220
▁టెక్నిక్స్	220
▁ఓ	220
▁శాంప్లింగ్	220
▁ఎనాలసిస్	219
▁వనరులు	219
▁చేసేటప్పుడు	219
ప్పుడూ	219
▁పెయిర్	219
▁పరిశీలిస్తే	219
▁ఐదవ	219
▁క్వాడ్రేచర్	219
▁ఫోరెన్సిక్స్	218
▁షేప్	218
▁క్యూబ్	218
▁బయోమెట్రిక్	218
▁√	218
▁tau	218
▁ట్రేడ్	217
▁ఉపయోగకరమైన	217
▁చరిత్ర	217
▁వ్రాయబడి	217
▁కంటిన్యుయస్	217
▁లా	216
▁తెలుసుకోవడం	216
▁వెళ్తుంది	216
▁ప్రయోగం	216
▁ప్రొఫెసర్	215
▁సామాజిక	215
▁రిసీవర్	215
▁రిజిస్టర్	215
▁ఉదాహరణలో	215
▁రిలేషనల్	215
లేదు	215
▁కీస్	215
▁వ్యత్యాసాన్ని	215
▁సర్వీసెస్	215
▁ఏమీ	215
▁క్యాష్	215
▁ఛానెల్	214
▁మ్యాగజైన్	214
▁చేశారు	214
▁టెలిఫోన్	214
▁వ్యతిరేకంగా	214
▁ప్రొడక్షన్	214
అయితే	214
▁జాయింట్	214
▁ఈటా	214
▁విస్తరణ	213
▁బరువులు	213
▁ఖచ్చితత్వం	213
▁ఫిల్టర్	213
▁చేసుకోవాలి	213
▁సేల్స్	213
▁కో	213
▁వినియోగం	213
వెబ్	213
▁రోజువారీ	213
▁నిర్వచించబడింది	212
▁టెక్స్చర్	212
▁మైక్రో	212
▁సమూహాలు	211
▁సందర్భాలలో	211
▁స్థానంలో	211
▁దర్యాప్తు	211
లతో	211
▁అధునాతన	211
▁స్కీమ్	211
న్స్	211
▁అతిపెద్ద	211
▁కారకాల	211
▁ప్రొటీన్	211
▁మినిమమ్	210
▁సంతృప్తి	210
▁యాదృచ్ఛిక	210
▁జీవితంలో	209
▁జారీ	209
▁కలయిక	209
▁నాలెడ్జ్	209
▁డిస్పర్షన్	209
సెంట్రిఫ్యూగేషన్	209
▁భావనను	208
▁ఫ్రంట్	208
▁జాబ్	208
▁డైనమిక్	208
▁స్టేషనరీ	208
▁పోజ్	208
▁టెస్టింగ్	208
▁లూప్	208
▁విధులను	207
▁విధానాలను	207
▁ఇంజనీరింగ్	207
▁సహాయపడతాయి	207
▁సైడ్	207
▁ప్రీ	207
▁రంగులో	207
▁వర్గీకరణ	207
▁తగ్గించడం	207
▁లోపాల	207
▁క్లిష్టమైన	207
▁దిశ	207
▁లెక్కించాలి	206
▁క్రియేషన్	206
▁అవుతుందని	206
▁శాస్త్రీయ	206
▁ఏక	206
▁క్రోమటోగ్రఫీ	206
▁ఇమేజెస్	205
▁కంప్యూటర్లు	205
▁చూపిన	205
\,...\,	205
▁అనుబంధం	205
▁దీనితో	205
್	205
▁సుమారుగా	205
▁ఎంచుకోవచ్చు	205
▁రీడ్	205
▁ఉపయోగిస్తున్న	205
▁కాంపోనెంట్స్	205
▁వ్యవస్థలు	204
▁స్థాయిని	204
▁సంఖ్యలు	204
▁ఆటో	204
▁కమాండ్	204
▁దశల	204
▁ఆకుపచ్చ	204
▁చివరికి	204
▁ఎవరైనా	204
▁మెంటల్	204
≠	204
▁ఆర్థోగోన	204
▁తెలియదు	203
▁హాష్	203
▁సీన్	203
▁తీస్తుంది	203
టి	203
▁దయచేసి	203
▁మెటిక్	203
▁కీబోర్డ్	202
▁బిట్స్	202
▁చేసింది	202
▁టేబుల్స్	202
▁వెళ్లవచ్చు	202
▁అన్నింటినీ	202
▁పారామీటర్	202
▁చేస్తున్నాము	202
▁కేస్	202
▁మానిటరీ	202
▁తీసుకునే	202
▁రూపకల్పన	202
▁బ్యాంకింగ్	202
▁ఉపయోగిస్తాయి	202
▁విడుదల	202
▁సూత్రాలు	202
డి	202
)^	202
▁తగ్గించడానికి	201
▁స్థానిక	201
▁పెంచడం	201
▁సర్ట్	201
▁ప్రారంభంలో	201
▁స్టిట్యూషన్	201
▁దశాంశ	201
▁క్లాసిఫికేషన్	200
▁లైట్స్	200
▁సూత్రాల	200
▁వయస్సు	200
▁పరిశీలన	200
▁కావలసిన	200
▁జోడించడం	200
▁సూచించడానికి	200
▁చర్యను	200
▁సంక్షిప్త	200
▁ఇప్పటివరకు	200
▁ప్రోగ్రామ్స్	200
▁బోధన	199
ియన్	199
▁చెల్లుబాటు	199
▁ఫీచర్స్	199
▁యాభై	199
ఎందుకంటే	198
▁నెమ్మదిగా	198
▁చర్యలను	198
▁సాంప్రదాయ	198
▁ఆదాయ	198
నిర్ధారించడానికి	198
▁సరి	198
▁జనరల్	198
లెర్నింగ్	198
▁ఉందో	198
అలాగే	198
▁మల్టిప్లికేషన్	198
▁చేస్తున్న	197
▁ఒకదానితో	197
g	197
▁వస్తే	197
▁మార్గంలో	197
▁సంవత్సరాల	197
▁మోడల్స్	197
▁అవుట్పుట్	197
▁సిపియు	197
▁చేతి	197
▁వెళ్లడం	196
▁అనుబంధ	196
▁ట్రాఫిక్	196
▁ఉపయోగపడుతుంది	196
▁అవసరాలు	196
▁స్టడీస్	196
▁ఇవ్వండి	196
▁తీవ్రమైన	196
▁కోర్స్	196
▁వేగవంతమైన	196
▁విధమైన	196
▁కాపీరైట్	196
▁తీసుకొని	196
▁టోటల్	196
ω	196
▁వాణిజ్య	195
ింది	195
▁చెయ్యవచ్చు	195
▁చర్చించబోతున్నా	195
▁ఉప	195
▁విరుద్ధంగా	195
▁నిరంతరం	195
▁నియమాలు	195
▁నేర్చుకున్నాము	195
▁మైక్రోస్కోప్	195
▁ఇంటరెస్ట్	195
▁సింప్లిఫికేషన్	195
▁స్మార్ట్	194
ె	194
▁పురోగతి	194
▁గోదాము	194
▁అల్గారిథం	194
చ్	194
▁చిన్నది	194
▁జనాభా	194
▁ఆడిట్	194
▁తెలుస్తుంది	194
▁వెక్టార్	194
▁అనువర్తనాలు	194
▁కాంపోనెంట్	194
α	194
▁ఎకనామిక్స్	194
▁ఖాళీ	193
▁తొలగించడం	193
▁స్థిర	193
▁విలువలకు	193
▁వెయిటెడ్	193
▁పీ	193
▁ప్రసార	192
▁వైడ్	192
▁పరికరాలను	192
ిన	192
▁కాయిన్	192
▁సరఫరా	192
మని	192
ಖ	192
ఎస్	192
▁మూలకాల	192
▁లేకపోవడం	192
▁నిర్ణయించడం	192
▁కాగితం	192
▁అధికారం	191
▁విభాగాలు	191
▁పరిస్థితులలో	191
▁ప్యాటర్న్	191
▁కేబుల్	191
▁గ్రాఫికల్	191
▁సాధించడం	191
▁అత్యధిక	191
▁δ	191
▁నైంటీ	191
▁PCR	191
▁రెండింటి	190
▁సంస్థల	190
▁అవసరాల	190
▁కండిషన్	190
▁చేత	190
▁ఘాతాంకం	190
▁కాదా	190
w	190
▁ఇవ్వబడ్డాయి	189
పర్సనల్	189
▁రెజల్యూషన్	189
▁పోలార్	189
▁కలర్స్	188
▁నేరాల	188
▁జరగదు	188
▁సూచిస్తాయి	188
▁ఈరోజు	188
▁ఐటి	188
▁ఉన్నట్లు	188
▁సాధ్యమయ్యే	188
▁ఉన్నప్పటికీ	188
▁అధికంగా	188
లేదా	188
▁నలబై	188
ఇన్	188
పుల్	188
▁ఎన్విరాన్మెంట్	187
▁శోధన	187
▁క్లుప్తంగా	187
▁మ	187
▁లేదో	187
▁సాధించవచ్చు	187
మే	187
▁చట్టం	187
▁వేరియేషన్	187
నిర్ధారించుకోండి	186
బడింది	186
▁దాడుల	186
▁ఎన్క్రిప్షన్	186
▁మెరుగ	186
▁అవసరాలను	186
▁స్థానాల	186
▁ప్రశ్నలు	186
▁మ్యాపింగ్	186
▁రూపొందించడం	186
&	186
▁ఇలాంటి	186
▁పదాల	186
▁వరల్డ్	186
▁గుర్తించే	186
▁ఇమ్యునో	186
▁వెనుక	185
▁మధ్యలో	185
▁అంతటా	185
▁కాంబినేషన్	185
▁ఎక్స్ఛేంజ్	185
▁నామినల్	185
▁ఏజెంట్	184
▁కోరెల్	184
▁తయారీ	184
▁స్థితిలో	184
▁ఉంచడానికి	184
▁భావిస్తున్నాను	184
▁ఎనభై	184
▁నంబర్స్	184
▁మాడ్యూల్స్	184
▁పిహెచ్	184
▁ఫిక్స్	184
▁ఇన్వెస్ట్మెంట్	184
గ్రిగేట్	184
ప్రతి	183
▁పాత	183
▁డైరెక్టెడ్	183
▁భాష	183
▁డ్రాయింగ్	183
▁నీటి	183
▁వ్యాధి	183
z	183
▁ప్లాస్మిడ్	183
▁సమీకరణాలను	182
▁సంపూర్ణ	182
▁అకౌంట్	182
▁శ్రద్ధ	182
▁తెలుసుకుందాం	182
మీ	182
▁హక్కు	182
▁ఎంచుకోండి	182
▁డివైజెస్	182
▁కేసు	182
▁పెంచడానికి	182
▁ద్రవ్యరాశి	182
▁హోమోజీనియస్	182
▁ప్రైమర్	182
▁ఒకదాని	181
▁అనుసరిస్తుంది	181
▁మార్పులను	181
▁ఎత్తు	181
▁పెన్	181
▁ఓకే	181
▁యాబై	181
▁)/	181
▁ఈక్విలిబ్రియమ్	181
▁డొమెస్టిక్	181
▁ఫ్యాక్టోరియల్	181
▁స్కోర్	180
ಭ	180
్గా	180
▁ట్యుటోరియల్	180
▁విద్యార్థులకు	180
▁కారకాలు	180
▁ఉత్పత్తుల	180
▁ముందే	180
▁చేయగలరు	180
▁డిపాజిట్స్	180
▁మైక్రోస్కోపీ	180
▁పీక్	180
▁క్లస్టరింగ్	179
▁ఉపయోగించండి	179
ఉపయోగిస్తున్నారు	179
▁రీ	179
▁ఆఫీసు	179
▁ఉనికి	179
▁ఉన్నత	179
▁స్వయంగా	179
▁లోపాలు	179
▁మ్యాన్	179
▁సమ్మేషన్	179
▁సిడి	179
▁ట్యూబ్	179
▁వ్యక్తీకరణను	179
▁తరంగ	179
▁cos	179
▁అరిత్	179
▁చేస్తున్నారు	178
ఇన్ఫర్మేషన్	178
▁వ్యక్తికి	178
▁పిక్సెల్	178
▁కొలతలు	178
▁ఉండాలని	178
▁అందులో	178
▁సమీకరణాలు	178
xn	178
▁వేరియేబుల్స్	178
▁సిక్స్	177
▁చైన్	177
▁హైలైట్	177
▁స్ప్రెడ్	177
▁ప్రాబ్లెమ్	177
▁నిబంధనలు	177
ప్	177
▁ట్రస్ట్	177
▁ఇంజిన్	177
▁గ్రిడ్	177
సరే	177
నకు	177
▁రోగి	177
▁ఐపి	176
▁సరళంగా	176
▁స్వతంత్రం	176
▁రిస్క్	176
▁సర్క్యూట్	176
వారు	176
▁వనరు	176
▁గమనించవచ్చు	176
▁మూల్యాంకనం	176
▁అన్నవి	176
▁సమగ్ర	176
▁ఐటమ్	176
▁ప్రసిద్ధ	176
▁మూలకాలు	176
లీనియర్	176
ρ	176
ందున	175
▁డైమెన్షన్	175
▁బ్యాచ్	175
▁ప్రాధాన్యత	175
▁కనుగొనే	175
▁వైవిధ్యం	175
▁పరిధి	175
▁పాయింట్లు	175
ξ	175
▁కదలిక	174
మొదట	174
▁క్యూ	174
▁పెద్దది	174
ాలు	174
▁వెళుతుంది	174
▁వ్యవస్థల	174
▁సందర్భాల్లో	174
▁సమ్మషన్	174
▁గ్రీన్	174
▁వ్యత్యాస	174
▁చేశాను	174
▁సమూహ	174
▁పోర్ట్స్	174
▁క్వాంటిటీ	174
▁చెబిషెవ్	174
▁చూసే	173
▁సంక్లిష్ట	173
▁స్టేషన్	173
▁బౌండ్	173
▁ఐటెమ్	173
▁లైవ్	173
▁క్రిమినల్	173
▁మిగతా	173
లెక్కించబడుతుంది	173
▁జీరోను	173
▁చర్చిస్తాను	173
▁హిస్టోగ్రామ్	173
▁∫	173
▁జీవిత	172
▁రకాలను	172
▁రంగులు	172
▁గంటలు	172
▁చేయవలసిన	172
▁పరిష్కరించడం	172
▁వెళ్లే	172
▁సీక్రెట్	172
▁సగం	172
▁లిమిట్	172
^(	172
▁బాహ్య	171
▁చేసుకుందాం	171
▁స్టాల్	171
▁ನ	171
▁భాగాల	171
▁ప్రియ	171
▁సమస్యల	171
▁పెయింటింగ్	171
▁ఉన్నాను	171
▁ఒకరు	171
▁కదా	171
▁పర్సంటేజ్	171
▁చేయదు	171
▁ఎర్రర్స్	171
▁డివైస్	171
▁నిర్వచించవచ్చు	171
/(	171
▁క్యూబిక్	171
▁వక్రరేఖ	171
▁ఈస్ట్	171
▁గ్రాస్	171
▁బాగుంటుంది	170
▁ప్రింటర్	170
▁సృష్టించడానికి	170
▁వంటిది	170
▁సందేశం	170
▁ప్రొఫైలింగ్	170
▁రకాలుగా	170
▁డెబ్బై	170
▁మార్జిన	170
▁సిగ్నిఫికాన్	170
▁యాసిడ్	170
▁ప్రతిస్పందన	169
▁గేట్	169
▁గోప్యత	169
▁డిక్రిప్షన్	169
▁తీసుకున్న	169
▁పుస్తకాలు	169
▁లోపలి	169
▁మాల్వేర్	169
▁బ్యాండ్	169
▁విడ్త్	169
▁వర్గీకరించవచ్చు	169
▁సంవత్సరంలో	169
▁ప్లానింగ్	169
▁అంతరాయం	169
ికల్	169
▁మొమెంట్స్	169
▁నిర్ణయించడానికి	168
▁కనెక్టివిటీ	168
▁యాక్ట్	168
▁డాటా	168
▁అధ్యాయం	168
▁ఎనబై	168
▁విభిన్నంగా	167
▁మెమరీ	167
▁సానుకూల	167
▁ఉంచుతాము	167
▁సుమారు	167
▁అక్షం	167
▁రూపాన్ని	167
▁అణువులు	167
▁ఎపిసోడ్	166
▁ఏకీకరణ	166
▁సమగ్రత	166
లక్ష్యంగా	166
▁మోడలింగ్	166
▁కాలంలో	166
▁వరుసల	166
▁నిబంధనల	166
▁సృష్టిస్తుంది	166
ప	166
▁చెప్పాను	166
▁అంతా	166
▁డీ	166
▁ప్రారంభిద్దాం	166
▁పాయింట్స్	166
▁అభ్యాసం	165
▁బోర్డ్	165
▁స్కానింగ్	165
▁పరిశ్రమ	165
▁నిర్ణయాలు	165
ట్లయితే	165
▁హాని	165
▁ఇవ్వాలి	165
▁డిస్టెన్స్	165
▁లీస్ట్	165
▁ఎప్పుడు	165
▁ఎకనామిక్	165
▁ఇచ్చే	164
▁ట్రైనింగ్	164
▁సెల్ఫ్	164
▁స్ట్రక్చర్డ్	164
▁సహజ	164
▁గాస్సియన్	164
▁షేడర్	164
▁క్రిప్టోగ్రఫీ	164
▁రిజల్యూషన్	164
▁గుడ్	164
▁టేల్	164
▁ఇంటర్పోలేషన్	164
▁ప్రారంభించిన	163
▁పరిధిలో	163
▁నిర్ణయిస్తుంది	163
▁ప్రభావవంతంగా	163
▁కార్యాలయ	163
▁వినియోగదారులకు	163
▁ప్రశ్నల	163
▁పర్ఫెక్ట్	163
▁శాంపిల్స్	163
▁భారతదేశంలో	163
▁విద్యుత్	163
▁ప్రతీ	163
▁చర్చించిన	163
▁మరోవైపు	163
▁మాడ్	163
▁కాంపౌండ్	163
▁fx	163
ాలి	162
▁మెరుగుపరచడానికి	162
▁రూపొందించిన	162
▁మార్కెటింగ్	162
▁తీసుకుని	162
▁చేస్తుంటే	162
▁ఒకేలా	162
▁లక్షణాల	162
▁డేటాసెట్	162
▁మాగ్నెటిక్	162
▁చెప్పినట్లు	162
▁లెవెల్స్	162
▁నలుపు	161
్డ్	161
▁నిర్వహించే	161
▁ఇటువంటి	161
▁ఫిల్మ్	161
నెట్	161
▁వీటి	161
ియల్	161
▁బహిర్గతం	161
▁చేసారు	161
▁రీసెర్చ్	161
▁మీలో	161
▁అనుకుంటే	161
▁సున్నితమైన	161
▁లోయర్	161
▁స్క్యూ	161
▁dz	161
▁ప్రతిపాదన	160
▁అండర్	160
▁చట్టపరమైన	160
▁పాటర్న్	160
▁అద్భుతమైన	160
▁మేరకు	160
▁పొటెన్షియల్	160
▁డేటాలో	160
‍ను	160
▁యంత్రం	160
▁గుణించాలి	160
▁నెగెటివ్	160
▁ప్రతిచర్య	160
డెసిషన్	159
▁సృష్టించడం	159
▁ప్రేక్షకుల	159
▁విజువలైజేషన్	159
▁సందేశ	159
▁న్యూర	159
▁శక్తివంతమైన	159
ట్లు	159
▁చెప్పడం	159
▁ఆబ్జెక్ట్స్	159
▁ఒక్కటి	159
▁టార్గెట్	159
▁బకెట్	159
ఎ	159
▁చలన	159
▁ధరల	159
▁select	159
▁సాంకేతికతను	159
▁క్యుములేటివ్	159
▁x̄	159
▁లాక్	158
▁వాక్	158
▁అసలైన	158
▁విధాలుగా	158
▁తక్షణ	158
▁నిర్వహిస్తుంది	158
▁ಗಳು	158
▁స్టెమ్	158
▁చెయ్యబడిన	158
▁ఇన్సిడెంట్	158
▁సందేశాల	158
▁సేకరించిన	158
▁నెగిటివ్	158
▁జీటా	158
▁ఏకైక	157
▁పాఠశాల	157
▁సంబంధాల	157
▁మరికొన్ని	157
▁ఫంక్షనల్	157
▁గ్రూప్స్	157
▁స్పెక్టివ్	157
▁చిత్రాలు	157
బడ్డాయి	157
▁కీలకమైన	157
వలసిన	157
▁అభ్యర్థన	157
▁మెథడ్స్	157
▁ఫిషర్	157
▁ఈక్వేషన్ని	157
▁డ్రగ్	157
▁జ్ఞానాన్ని	156
▁బైట్	156
▁తీసుకోవడానికి	156
▁విభాగాల	156
▁ఇతరుల	156
▁ప్లేట్	156
▁గమనించాలి	156
▁రూల్స్	156
▁భాగాలుగా	156
▁గణిస్తాము	156
▁ఫేజ్	155
▁ట్రయల్	155
▁నమూనాను	155
▁వచ్చినప్పుడు	155
▁అనుకోండి	155
▁హౌసింగ్	155
▁నిర్ధారిస్తుంది	155
▁చేయబడుతాయి	155
▁ఏర్పరుస్తుంది	155
▁కామన్	155
▁ఆల్	155
▁వ్రాయబడినది	155
▁పరిమాణాల	154
▁కేంద్ర	154
▁స్కానర్	154
▁భిన్నమైన	154
ii	154
▁మిడ్	154
▁సంఘటన	154
▁చేయాలనుకుంటున్న	154
▁సంస్థలో	154
▁స్థాన	154
▁చూడడం	154
▁ఫ్యాక్టర్స్	154
▁చూపించాము	154
)/(	154
▁to	154
▁టెస్ట్స్	154
▁సప్లయ్	154
^-	154
▁లెజెండ్ర	154
▁కుట్ట	154
▁పర్సంటైల్	154
▁లోతైన	153
▁చాట్	153
▁స్కీమా	153
▁టాస్క్	153
మొదటి	153
ః	153
▁క్రిప్ట్	153
▁గోల్	153
▁గుర్తించవచ్చు	153
సర్చ్	153
▁కనుగొంటాము	153
▁తెలిసినట్లుగా	153
▁కావాలి	153
▁ప్రవాహ	153
▁ఫర్మేషన్	153
▁స్ప	153
▁రిలేటివ్	153
▁కప్పా	153
▁నాల్గవది	152
▁కంపెనీలు	152
▁సంవత్సరం	152
▁ఖాతా	152
▁విలువకు	152
▁చేయకుండా	152
▁హ	152
▁ఆధారం	152
▁నేర్చుకోవడం	152
▁సాధ్యమవుతుంది	152
▁ఐఓ	152
▁మ్యాచ్	152
▁పొందాము	152
▁నమూనాలను	152
▁కాల	152
▁గుణకం	152
▁ప్రయోజన	151
▁కావడం	151
▁ప్రెజెంటేషన్	151
▁డీఫాల్ట్	151
▁రంగులను	151
▁అను	151
▁వర్గాలు	151
▁శక్తిని	151
’	151
▁కనుగొనాలి	151
▁లాగ్రాంజ్	151
▁బహుపది	151
▁నిరంతర	150
▁ప్రాంతంలో	150
ప్పుడల్లా	150
▁నేర్చుకుంటాము	150
▁రివర్స్	150
అప్పుడు	150
▁కీలక	150
▁గణనీయ	150
▁ఎంచుకోవడం	150
▁మాస్టర్	150
▁వెలుపల	150
▁సంభావ్య	150
▁మారుతూ	150
ంటే	150
▁విజయవంతం	150
▁చక్క	150
▁స్పెసిఫిక్	150
▁ఎనోవా	150
▁పెరుగుతున్న	149
▁ప్రారంభం	149
▁చిరునామా	149
▁హామీ	149
▁కోర్	149
ఉపయోగించినప్పుడు	149
▁అర్థాన్ని	149
ర్ధారించుకోవాలి	149
▁కె	149
▁కాలమ్స్	149
▁పరికర	149
▁రౌండ్	149
±	149
▁sin	149
▁రిమోట్	148
▁స్టైల్	148
▁సంస్థకు	148
▁ప్రచారం	148
▁పరిస్థితులు	148
▁IP	148
టింగ్	148
▁తాత్కాలిక	148
▁విద్యలో	148
అవి	148
టు	148
▁మాట్రిక్స్	148
‍కి	148
▁స్వేచ్ఛ	148
▁లీఫ్	148
ిబుల్	148
▁కనిష్ట	148
▁సమీకరణ	148
నియస్	148
▁మల్టిప్లయర్	148
▁యాంటిజెన్	148
ಥವಾ	147
▁సంతకం	147
E	147
▁ప్రక్రియలు	147
▁ఇప్పుడే	147
▁చెయిన్	147
▁లెక్కించడం	147
▁భవిష్యత్తులో	147
▁నలభై	147
▁బాగుంది	147
క్రిటికల్	147
▁ఎంపికను	146
సారి	146
▁షెడ్యూల్	146
▁జాబితాను	146
▁పదహారు	146
▁మల్టీమీడియా	146
▁ట్రాన్సాక్షన్స్	146
▁ఎవరు	146
▁పోలి	146
▁చూసినట్లుగా	146
▁నైపుణ్యం	146
▁ఇప్పటి	146
▁అడిషన్	146
▁చేయబోతున్నాము	146
▁బ్యాక్టీరియా	146
▁బోలిక్	146
▁సహజంగానే	145
▁చేయలేరు	145
▁కథ	145
▁కలరింగ్	145
▁అవడం	145
▁ప్రదేశం	145
▁పనులను	145
▁వేరియెబుల్స్	145
▁రిపోర్ట్	145
▁సై	145
ర్ణయించబడుతుంది	145
▁డిజైనింగ్	144
▁హ్యాకింగ్	144
▁డెలివరీ	144
▁హానికరమైన	144
▁ప్యాకెట్	144
▁చివరిది	144
▁ఆర్టిస్ట్	144
▁మాదిరిగానే	144
▁సూచించవచ్చు	144
▁బస్	144
ప్రపంచవ్యాప్తంగా	144
▁డాష్	144
▁the	144
▁వాల్యూలను	144
▁బెసెల్	144
▁చెందుతుంది	143
▁చూడటం	143
సమయం	143
▁స్టాండర్డ్స్	143
▁నివేదిక	143
▁పెంచవచ్చు	143
▁పాత్రను	143
▁బెదిరింపులు	143
▁%	143
ిన్	143
▁వివరాలు	143
▁చెందినది	143
ల్లో	143
ఉపయోగిస్తున్నాము	143
▁లెక్కించండి	143
▁కన్సంప్షన్	143
▁ప్రైసెస్	143
▁అధికారిక	142
▁బ్లూ	142
▁సేవ	142
▁గ్లోబల	142
▁సెటప్	142
▁మెను	142
బేస్డ్	142
▁ధరలు	142
▁మెకానిజం	142
▁సంభవించే	142
▁వివరణాత్మక	142
దని	142
▁అక్షరాల	142
▁తొంభై	142
▁చివర	142
▁గరిష్టంగా	141
▁సహాయపడే	141
▁నేడు	141
▁ఎంచుకోవాలి	141
▁పూర్తయిన	141
▁సరిపోయే	141
▁రవాణా	141
▁క్లోన్	141
▁చెల్లింపు	141
▁అత్యుత్తమ	141
▁నివారించడానికి	141
▁మాన్	141
▁సెక్యూర్	141
▁మోషన్	141
▁స్పెండింగ్	141
▁బ్లాటింగ్	141
తరువాత	140
▁చేయబడినవి	140
▁పరిష్కరించ	140
▁చర్యల	140
▁సమన్వయం	140
▁అభ్యాసకులు	140
▁చేసుకునే	140
విశ్లేషించడానికి	140
▁ఇంటరాక్టివ్	140
▁రిలేషన్స్	140
▁స్వయం	140
▁సూచిస్తారు	140
▁చూపబడింది	140
▁స్మూత్	140
▁ఆందోళన	140
)-	140
స్క్వేర్	140
▁కై	140
▁ఎకనమిక్	140
▁బయాస్డ్	140
▁ఇన్స్టిట్యూట్	139
ర్వహించబడుతుంది	139
▁లాగే	139
▁మరోసారి	139
▁రోల్	139
▁వేయడం	139
▁సీక్వెన్షియల్	139
న్నీ	139
న్ని	139
దీని	139
▁త్రిభుజాకార	139
▁ఇక	138
▁టైప్స్	138
మీకు	138
▁అవకాశాల	138
▁ఆవిష్కరణ	138
ప్రారంభించడానికి	138
▁ఒకరి	138
క	138
▁ఉండాల్సి	138
▁కొంతమంది	138
▁బయటి	138
▁అవకాశాలు	138
▁హెడర్	138
▁డివిజన్	138
▁వేరియెబుల్	138
▁∞	138
▁పాలీ	138
▁తీసుకుంటారు	138
▁xy	138
→	138
▁సాల్వెంట్	138
▁సూచించడం	137
▁కౌంటర్	137
యస్	137
▁స్వయంచాలకంగా	137
▁ఒరిజినల్	137
పట్ల	137
▁మాటలో	137
▁విశ్లేషించడం	137
▁టెక్స్	137
▁ఉండి	137
▁పేజీల	137
▁సమయానికి	137
▁రిజర్వ్	137
ಗೆ	137
▁సాక్ష్యాల	137
▁కనుగొన్నాము	137
▁క్లోనింగ్	137
▁లేనప్పుడు	137
▁గుణించడం	137
▁అణు	137
▁pH	137
▁చేయబడినప్పుడు	136
▁థ్రెట్	136
▁ఎఫెక్ట్స్	136
▁మారింది	136
▁విచ్ఛిన్నం	136
▁అబ్	136
▁నేమ్	136
▁తాజా	136
▁ఒక్కొక్కటిగా	136
▁వెంట	136
▁స్టడీ	136
▁భవిష్యత్	136
▁ప్రత్యామ్నాయ	136
▁బయోమెట్రిక్స్	136
▁పదిహేను	136
▁నిర్ణయించవచ్చు	136
▁చలరాశి	136
▁ట్యాక్సెస్	136
▁పనులు	135
▁సరళీకృత	135
▁క్రిప్టోగ్రాఫిక	135
▁కార్యాలయం	135
▁కాంప్లిమెంట్	135
▁వెడల్పు	135
ಈ	135
▁నెంబర్	135
▁ఆప్షన్స్	135
▁సాధారణం	135
▁రొటేషన్	135
▁కారు	135
▁ఇండిపెండెన్స్	135
▁స్క్వేర్డ్	135
▁ఫ్రీ	135
ವನ್ನು	135
▁లైబ్రరీ	135
▁రూపొందించబడింది	135
▁ప్యాక్	135
పాయిజన్	135
▁ఛార్జ్	135
▁కంటిన్యూస్	135
=-	135
▁ఆమ్లం	135
▁క్లోజ్	134
▁ఏదీ	134
▁లభ్యత	134
▁పుస్తకం	134
▁ప్లేస్	134
▁నిమిషాల	134
▁ఎనాలిసిస్	134
▁తరుచుగా	134
ాడు	134
బిట్	134
▁డిగ్రీల	134
▁పోల్చినప్పుడు	134
▁అనుసంధానించబడిన	134
▁కవరింగ్	134
▁బ్యాంకుల	134
▁యాంటీ	134
∪	134
▁అప్పర్	134
▁శుద్ధి	134
వేరియేట్	134
▁స్టేట్మెంట్	133
▁వెళతాను	133
▁ప్రదర్శన	133
▁మార్చబడుతుంది	133
▁మనకి	133
ంది	133
▁అడ్జెసెంట్	133
▁సవరణ	133
▁విధానాల	133
▁రంగాలలో	133
▁ప్రతిదీ	133
▁హ్యాండ్	133
▁ఉంచుతుంది	133
▁స్టాఫ్	133
▁గుణకారం	133
▁కలెక్షన్	133
∂	133
▁విధి	132
▁వైపులా	132
▁ప్రముఖ	132
▁రికార్డు	132
▁మూలాన్ని	132
▁సన్	132
▁చివరిలో	132
▁ఉన్నవి	132
▁కావడానికి	132
▁పదాలను	132
ಸ್	132
▁అందించిన	132
▁థర్డ్	132
▁సాధనాలను	132
▁బేసి	132
▁కన్వర్జెన్స్	132
▁వాస్తవంగా	132
▁నిర్వచించబడిన	132
▁ప్రారంభిస్తాము	132
▁టెక్చర్	132
▁సమీప	132
▁ఏకరీతి	132
▁దూరంగా	132
▁విభజించబడిన	132
)*(	132
▁అంతరనిక్షేపం	132
▁వర్తించే	131
ాలను	131
▁అంశాన్ని	131
▁క్లోజ్డ్	131
▁ఫైనల్	131
▁అందించును	131
▁షరతు	131
▁ఉపయోగించగల	131
▁ఇచ్చి	131
▁ఉంచితే	131
ెబుల్	131
▁రకాన్ని	131
▁తేదీ	131
మెంట్	131
▁ఫాక్టర్	131
▁నిపుణుల	131
▁విడిగా	131
▁తప్పుగా	131
▁<?>	131
▁మిడిల్	131
▁డిఎస్	131
▁అబ్సర్వేషన్	131
▁ప్రపంచం	130
▁చెప్పే	130
▁ఇండియ	130
▁పోల్చితే	130
▁ప్రయత్నాల	130
▁స్కై	130
▁ప్రత్యామ్నాయంగా	130
▁లెటర్	130
నియంత్రించడానికి	130
▁పోటీ	130
▁స్వతంత్ర	130
▁పన్నెండు	130
▁జనరేషన్	130
▁ఇం	130
▁సెల్స్	130
▁సవరించిన	130
▁+...	130
▁కణాలలో	130
▁అమైనో	130
▁సంక్షిప్తంగా	129
▁ఫాంట్	129
▁రెండరింగ్	129
▁సూచించును	129
▁క్రొత్త	129
▁సిఫార్సు	129
▁ఏకకాలంలో	129
▁ఇటీవలి	129
▁మారుస్తుంది	129
▁కార్పొరేట్	129
▁రూపొందించబడిన	129
▁చిప్	129
▁మార్పును	129
గల	129
▁పొందుతాం	129
▁హైపోథెసిస్	129
▁స్టెబిలిటీ	129
▁హ్యూమన్	128
▁లోకల్	128
▁యానిమేట్	128
▁ఎంటిటి	128
▁ముందస్తు	128
▁ప్రైవసీ	128
▁యూలేరియన్	128
▁ఎయిర్	128
▁చూడాలి	128
▁టిపి	128
▁బైపార్టైట్	128
▁బ్రాకెట్	128
▁నేర్చుకున్న	128
బోతున్నాము	128
\,...	128
▁చూడగలిగినట్లుగా	128
▁ఇమేజింగ్	128
▁ట్రై	128
▁గలది	128
▁ప్రియర	128
▁ఫార్ములాలో	128
▁ఫ్లేషన్	128
▁సున్న	128
▁ఆప్టిమైజేషన్	127
▁జూమ్	127
▁గ	127
▁రంగం	127
▁వేగాన్ని	127
▁అనుకూలం	127
▁ద్వితీయ	127
ఆన్	127
▁యూనిట్ల	127
▁వాటర్	127
▁క్రోమాటి	127
▁ఆల్టర్నేట	127
▁పాలిమరేస్	127
▁మల్టిప్లైయర్	127
▁పోలిక	126
▁తెలుపు	126
సెట్	126
▁నైతిక	126
▁కోట్	126
▁బోధనా	126
▁మెనూ	126
▁ప్రిన్సిపుల్	126
▁స్పీడ్	126
▁నిర్వహించవచ్చు	126
▁డెప్త్	126
▁అనువర్తనం	126
వు	126
▁కామా	126
▁వివరించిన	126
▁స్ప్లైన్	126
▁ఆటోమెటిక్	126
▁ఫార	126
▁కనుగొన	126
▁ఉంటాయని	126
▁ల్యాబ్	126
మెరుగుపరుస్తుంది	126
▁నిజ	126
▁వర్గం	125
▁కాంప్లిమెంటరీ	125
▁షేర్	125
▁జీనోమ్	125
టిక్	125
▁వ్యవధిలో	125
▁గమనిస్తే	125
లి	125
▁వ్యయం	125
▁O	125
ాలనుకుంటే	125
▁భావనల	125
∩	125
▁ప్రజలకు	125
▁సింగ్యులర్	125
▁yn	125
)(	125
▁ప్రాంతాన్ని	124
▁ఖర్చుతో	124
▁మిశ్రమం	124
▁రచన	124
▁ఫోల్డర్	124
▁పరీక్షలు	124
▁చర్చించినట్లుగా	124
▁వర్తింపజేయడం	124
▁మానసిక	124
▁కలిగిస్తుంది	124
▁న్యూమరికల్	124
అక్షం	124
▁ఇటరేట	124
▁పోలేటింగ్	124
స్లయిడ్	123
▁అనుమతించే	123
▁ఒక్కరూ	123
▁వర్టిసెస్	123
▁గది	123
▁ప్రత్యర్థి	123
▁యజమాని	123
▁ప్రక్రియల	123
▁మెరుగుపరచడం	123
▁సురక్షితంగా	123
▁చేయాలని	123
▁వృద్ధి	123
▁ఉపన్యాసం	123
▁సురక్షితమైన	123
ಉ	123
సెస్	123
▁పార్ట్	123
▁సూచనల	123
▁సూచనలను	123
▁కోడింగ్	123
▁ఎంచుకోవడానికి	123
▁తెలుసా	123
▁పొజిషన్	123
▁చేంజ్	123
▁ఇన్షియల్	123
[	123
▁సైటోమెట్రీ	123
▁పనిచేస్తాయి	122
▁మార్ట్	122
ెన్స్	122
▁బ్యాకప్	122
▁రిపోర్టింగ్	122
▁ఇంటీరియర్	122
▁బెదిరింపుల	122
▁సూచిస్తాము	122
అక్కడ	122
▁డ్రాప్	122
▁తొలగించడానికి	122
▁ఆబ్జెక్టివ్	122
▁ఎంతమంది	122
▁బేసిక్	122
▁చదవడం	122
▁పేజీలు	122
▁క్లూసివ్	122
▁మాట్లాడాము	122
▁సెల్యులా	122
▁సైక్లిక్	122
▁డిస్పెర్షన్	122
▁ఉదాహరణలను	121
▁జరుగుతాయి	121
▁వాటితో	121
▁ఆశిస్తున్నాము	121
▁మెర్జ్	121
▁కోర్సులో	121
బడిన	121
▁స్థాయికి	121
▁స్కాలర్	121
▁ప్రవాహం	121
▁ఎగ్జిక్యూట్	121
▁ఉపరితలం	121
▁షాట్	121
▁వేడి	121
▁వ్యూహం	121
▁మొదలైనటువంటి	121
▁తీసుకున్నాము	121
▁తీసుకోబడుతుంది	121
▁టెక్నికల్	121
▁కణజాల	121
▁ట్ర్యాన్స్	121
▁చై	121
▁సంఖ్యా	120
▁అధ్యాయంలో	120
▁మార్కర్	120
▁సెమీ	120
▁చర్చించడం	120
▁అవసరమైనప్పుడు	120
▁విధానంలో	120
▁సృష్టి	120
▁ఆర్తోగోనల్	120
▁వహిస్తుంది	120
▁ప్రజాదరణ	120
▁వై	120
▁ఇంటరాక్షన్	120
దాన్ని	120
▁లాస్	120
▁ఆలోచనను	120
▁స్థితిని	120
▁ఉన్నాయా	120
▁స్ట్రింగ్	120
▁ఎంపికలు	120
▁బ్యాలెన్స్	120
▁γ	120
▁సైంటిఫిక్	120
▁టర్మ్స్	120
▁పరిగణిస్తాము	120
▁π	120
▁ఆమ్ల	120
కెమిలుమినిసెన్స్	120
μ	120
▁ర్యాంకు	120
▁డిటర్మినెంట్	120
▁ఆర్నాల్డ్	119
▁చేయబడితే	119
▁ప్రైజ్	119
▁క్యు	119
▁సాధ్యమే	119
▁జరిగిన	119
▁చేసుకున్న	119
▁పరామితి	119
▁స్థలాన్	119
▁చేయ	119
o	119
▁ప్రమాణం	119
H	119
▁సేవింగ్	119
▁ఇంక్	119
▁కెర్బెరోస్	119
▁కౌంట్	119
▁వె	119
▁ఘన	119
▁నాట్	119
▁ట్యాక్స్	119
τ	119
▁జాకోబీ	119
▁ఇంపోర్ట్స్	119
▁అనువర్తనాలను	118
▁హ్యాకర్	118
▁ప్రివిలేజ్	118
ఇవి	118
▁ఏకీకృత	118
▁చూద్దాము	118
ండి	118
▁పెరుగుతాయి	118
▁లాంగ్	118
▁తప్పుడు	118
▁నమూనాల	118
▁పార్టీ	118
M	118
▁ఇండియా	118
కొన్ని	118
▁రీప్లేస్	118
▁జతల	118
▁ఇనీషియ	118
▁ఉపయోగించాము	118
▁హోమ్	118
▁హుడ్	118
‍	118
</?>	118
▁ఐసోలేషన్	118
ఋ	118
▁గ్యాస్	118
▁అప్ప్రోక్సిమేట్	118
▁ELISA	118
▁పెక్టెడ్	118
▁రీనేమ్	117
▁పరిశోధకులు	117
▁ఉచిత	117
▁వేగవంతం	117
▁రూమ్	117
▁అర్ధం	117
▁ఇండక్షన్	117
▁వ్యక్తులకు	117
▁ఎప్పుడైనా	117
▁ఘాతం	117
▁కాంటాక్ట్	117
▁పోనెన్షియల్	117
్స్	117
▁డయాగోనల్	117
π	117
▁కంట్రోలర్	116
▁దృశ్య	116
▁...	116
▁ఫీడ్	116
▁అన్నింటి	116
▁కార్యకలాపాలకు	116
▁పోల్చడం	116
▁ప్రారంభించుదాం	116
▁బ్రాంచ్	116
▁ఉపన్యాసంలో	116
▁అధ్యయన	116
▁పేజ్	116
▁సంస్థలకు	116
▁అక్షర	116
▁కారణాల	116
▁మూల	116
▁ప్రకటన	116
▁చూశాం	116
▁లేయర్స్	116
▁పరిగణించ	116
▁నోట్	116
▁కాంట్రాస్ట్	116
▁న	116
▁బ్యాంకులు	116
▁రేట్లు	116
▁ఇంటిగ్రేట	116
▁దేశం	115
▁చెయ్యండి	115
▁నేరాలు	115
▁రక్షించడానికి	115
▁సహజంగా	115
▁కృత్రిమ	115
▁మార్గాల్లో	115
▁పొందేందుకు	115
టర్నల్	115
▁స్టోరీ	115
▁హెయిర్	115
▁నగదు	115
▁మార్చే	115
▁నిర్వచిస్తుంది	115
▁బలం	115
▁అక్షరాలు	115
▁అంచనాలు	115
▁మరి	115
▁కోరుకున్న	115
▁పంపడం	115
▁ఫ్లాట్	115
▁చేయని	115
▁ఆసక్తికరంగా	115
▁చెప్ప	115
▁గణించవచ్చు	115
రాఫ్స	115
▁మనీని	115
▁వాస్తవిక	114
డైమెన్షనల్	114
▁ప్రతికూలతలు	114
▁నిర్వచించడం	114
▁రి	114
దరికీ	114
డిగ్రీ	114
▁దోపిడీ	114
▁సెండర్	114
▁పొందుతుంది	114
▁నకిలీ	114
▁కోరెల్డ్రా	114
వ్	114
▁ఫిట్టింగ్	114
▁ఇద్దర	114
▁ఎక్కడైనా	114
▁హైబ్రిడ్	114
▁సంశ్లేషణ	114
▁సంఖ్యకు	114
▁అంతరం	114
▁గతంలో	114
▁సాపేక్ష	114
▁బిందువులు	114
▁పెరిగినప్పుడు	114
▁ఆమ్లాల	114
▁సాంప్లింగ్	114
Δ	114
▁అవకలనం	114
▁Sin	114
▁గ్రీన్స్	114
▁కన్స్యూమ్	114
▁దృష్టిని	113
▁గణనీయమైన	113
▁వివరించే	113
▁వేచి	113
ీకరించిన	113
▁చేద్దాము	113
▁విరామం	113
▁నొక్కి	113
▁ఆటోమేటిక్	113
▁చెందుతున్న	113
▁మిశ్రమ	113
Z	113
▁కనిపిస్తాయి	113
▁నేర్చుకుంటారు	113
▁తెలిస్తే	113
పి	113
ఐటి	113
▁అనుబంధించబడిన	113
▁వివరించబడింది	113
∈	113
ుగా	113
▁ఎంప్లాయిమెంట్	113
▁లైక్	113
▁an	113
▁పెరిమెంట్	113
▁సదరన్	113
▁సొల్యుషన్	113
▁అబ్సార్ప్షన్	113
▁గ్రేడ్	112
▁నిర్వచనాల	112
▁సర్	112
▁నొటేషన్	112
▁నిజం	112
డేటాబేస్	112
▁వాయిస్	112
▁గాలి	112
▁స్ట్రీమ్	112
▁ఇన్వెస్టిగేషన్	112
▁సమస్యకు	112
▁ప్రమాణాలు	112
డైరెక్ట్	112
▁ట్రీస్	112
▁నిర్ధారణ	112
▁ఇబ్బంది	112
▁ab	112
▁ఎలక్ట్రాన్	112
>	112
డిస్ట్రిబ్యూటెడ్	112
▁పరమాణు	112
▁గూడ్స్	112
▁Cos	112
≡	112
▁మాత్రం	111
▁ప్రేరణ	111
▁అభ్యసన	111
▁ప్రోటోటైపింగ్	111
▁గ్రేటర్	111
▁విభజించవచ్చు	111
ట్రాన్స్ఫర్మేషన్	111
▁అధికార	111
▁నిర్వహించాలి	111
▁వ్యవస్థకు	111
▁విలీనం	111
▁ఖరీదైనది	111
▁నష్టాలు	111
ినట్లయితే	111
▁ఇస్తాను	111
▁ఉండండి	111
ఇ	111
▁సంక్లిష్టమైన	111
▁నివేదికలు	111
▁థీరం	111
పాయింట్	111
▁తెలియజేస్తుంది	111
▁రెట్లు	111
▁హోల్డ్	111
▁ఎస్ఎస్	111
‘	111
∇	111
నా	110
▁నైపుణ్యాల	110
▁రాబోయే	110
అప్	110
▁గంటల	110
▁నిర్మాణాత్మక	110
▁ఆస్తి	110
న్ఫిడెన్షియాలిటీ	110
▁ఎగ్జిక్యూషన్	110
▁సవాళ్ల	110
వే	110
▁ఎవర	110
బ	110
▁ప్రతికూలత	110
▁క్రమ	110
▁ఉండకూడదు	110
▁లాగిన్	110
▁గేమ్	110
ంగ్	110
హైడ్రోజన	110
▁హైపాతసిస్	110
▁అప్ప్రోక్షిమేట్	110
సాధారణంగా	109
▁పరిణామం	109
▁డిపార్ట్మెంట్	109
▁ప్రవర్తనను	109
▁పేరెంట్	109
▁ఇంటెలిజెన్స్	109
▁చేస్తూ	109
యొక్క	109
వరకు	109
టర్	109
–	109
▁ಅನ್ನು	109
▁వెళ్లడానికి	109
▁భద్రతను	109
▁అటాక్స్	109
▁కే	109
▁ఈవెంట్స్	109
▁కంపోజిషన్	109
▁కలుద్దాం	109
▁అవసరమయ్యే	109
▁టెంప్లేట్	109
▁MAC	109
▁నిపుణులు	109
▁సమూహంలో	109
▁నీరు	109
▁ప్రారంభించి	109
▁మెజర్	109
▁లబ్దం	109
▁పాలీగాన్	109
టెడ్	109
▁రెండుసార్లు	109
▁కాన్స్టంట్	109
▁∆	109
▁యాక్షన్	108
ಒ	108
▁చేయగలవు	108
▁అభ్యాసకుల	108
▁శరీర	108
▁వ్యవహరిస్తుంది	108
▁మాయాలో	108
▁ఎన్వలప్	108
▁ఇన్సర్ట్	108
▁కలపడం	108
▁భాగస్వామ్యం	108
▁విలువైన	108
▁విశ్లేషణను	108
▁బాల్	108
▁ఆరోగ్య	108
పోర్ట్	108
▁కార్డల్	108
▁ట్రూడ్	108
▁అంతర్లీన	108
▁ఎంప్లాయ్	108
▁సైట్స్	108
▁లాంగ్వేజెస్	108
▁టౌ	108
▁ఎవరి	108
▁of	108
▁మార్పుల	108
▁రిపోర్టర్	108
▁ఆర్బిటరీ	108
▁డిటెక్టర్	108
▁గ్రోత్	108
▁స్టాటిస్టిక్	108
▁ఇన్వెస్టిమెంట్	108
డిజిటల్	107
▁నిర్మాణ	107
▁బ్రిడ్జ్	107
▁పరిమితులను	107
▁చెప్పండి	107
▁నాశనం	107
▁సమూహాన్ని	107
▁లేకుంటే	107
▁ఉన్నాయో	107
▁కలిగించే	107
అనేది	107
▁ప్రయత్నించండి	107
▁చర్	107
▁న్యూక్లియస్	107
▁డేటాతో	107
▁విభాగ	107
▁మోసం	107
▁ఆర్గనైజేషన	107
▁బ్లర్	107
సెల్	107
▁పర్యావరణ	107
▁ఎలెమెంట్స్	107
▁ఉండేది	107
ఇఆర్	107
▁క్లినికల్	107
బడుతున్నాయి	107
ఐ	107
▁భావనలు	107
▁టాక్స్	107
▁మీన్స్	107
▁బయాలజీ	107
▁ప్రోటోటైప్	106
▁సాధనాల	106
▁గ్రాడ్	106
▁సాధనంగా	106
▁క్రియేటివ	106
▁అభ్యాసన	106
▁భాగానికి	106
▁లెక్కిస్తాము	106
▁షేరింగ్	106
▁క్యారెక్టర్స్	106
▁సింప్సన్	106
▁ಸ	106
▁విశ్వసనీయత	106
▁స్ట్రక్షన్	106
▁ఎడిటింగ్	106
▁పరిగణించవచ్చు	106
▁పదార్థం	106
▁ఫార్వార్డ్	106
▁విస్తృతమైన	106
▁చివరలో	106
ారని	106
▁చదరపు	106
▁వక్రం	106
▁సిమ్మెట్రిక్	106
▁తగ్గుదల	106
▁స్క్వేర్స్	106
▁ఆర్గానిక్	106
▁ఆర్ఎన్ఎ	106
▁ప్రతిక్షేపించడ	106
▁ID	105
▁తరుచూ	105
▁నష్టాల	105
▁ఫోర్స్	105
▁ఉత్పాదకత	105
▁నిర్ధారించ	105
▁రిప్రజెంటేషన్	105
▁అకౌంటింగ్	105
▁ఇంపోర్ట్	105
▁కలిగ	105
▁ప్రొవైడర్	105
▁కనుగొన్నారు	105
▁ప్రయోగాత్మక	105
▁ట్రూ	105
▁pn	105
▁లైనర్	105
▁కంబైన్	105
▁సిఐఇటి	105
▁వ్రాస్తాము	105
▁టేలర్	105
▁∑	105
▁స్ట్రాండెడ్	105
▁మూక్	104
▁పరిమాణాలు	104
▁పడుతుంది	104
లర్నింగ్	104
▁ఆటోమేటెడ్	104
▁ఆస్తుల	104
U	104
కూడదు	104
ದ	104
▁మాడిఫై	104
▁దశను	104
▁గణాంక	104
▁వ్యత్యాసాల	104
▁ఏం	104
▁ఎడ్యుకేషన్	104
▁కనుగొనబడిన	104
రూపొందించబడ్డాయి	104
▁పెద్దదిగా	104
మిళితం	104
ఆపై	104
▁నేరం	104
▁నిమిషాలు	104
▁గుర్తుంచుకోవాలి	104
▁తెలుసుకోవచ్చు	104
▁అంకె	104
స్ప్రెడ్	104
ేటివ్	104
▁ఫిగర్	104
▁క్వాంటిటేటివ్	104
▁లిక్విడిటీ	104
లెక్ట్రోఫోరేసిస్	104
▁భౌగోళిక	103
▁సహకారం	103
▁నిరూపించడానికి	103
▁లావాదేవీలు	103
▁యూలర్	103
చాలా	103
▁చేస్తాడు	103
▁అనుభవం	103
▁ఆర్క్	103
సేవా	103
కమ్యూనికేషన్	103
▁రేఖాచిత్రం	103
▁ప్రాతిపదిక	103
▁ఎంఎస్	103
▁షార్	103
▁తీటా	103
▁స్వీయ	103
▁క్యాప్చర్	103
▁సాంకేతికతలు	103
▁చార్జ్	103
▁(-	103
▁క్షీరద	103
▁ప్రోటీన్లు	103
▁ప్రమోటర్	103
ఎలక్ట్రోఫోరెసిస్	103
▁మోటివ్	103
▁చేయబడాలి	102
▁సహాయపడును	102
▁పరిజ్ఞానాన్ని	102
▁తప్పనిసరి	102
▁తీసుకుంటాను	102
▁ఉపయోగించబడే	102
▁అవసరమైతే	102
▁అసాధ్యం	102
వలసి	102
▁వర్క్స్	102
▁ఫ	102
▁ప్రొజెక్ట	102
▁జోడించిన	102
▁దీనినే	102
▁యూనిట్స్	102
▁రంగుల	102
▁ఆరవ	102
▁నేర్చుకునే	102
▁లభించే	102
ప్రైమరి	102
▁గుర్తించ	102
▁ఫోకస్	102
▁భారతీయ	102
కైనా	102
▁ప్రాపర్టీస్	102
▁మెంట్స్	102
▁గురించినది	102
▁స్కోరు	102
▁ఇన్సులిన్	102
▁రేడియోధార్మిక	102
▁పర్ముటేషన్	102
ులు	101
▁ప్రారంభమవుతుంది	101
▁పొదుపు	101
▁శైలి	101
▁అవడ	101
▁ఇంటర్నల్	101
▁పిల్లల	101
▁స్పాట్	101
▁సర్కిల్	101
▁నమూనాలో	101
▁ఇంజెక్షన్	101
▁కరెంట్	101
ినప్పుడు	101
▁రచయిత	101
ఎన్	101
▁ల్యాప్	101
▁పట్టుకుని	101
ఆర్	101
▁భారత	101
th	101
▁అనుసంధానించబడి	101
χ	101
ఎక్స్	101
▁లక్ష్యాల	101
▁టాంజెంట్	101
▁అవుతుందా	101
▁వ్యాల్యూస్	101
▁పరిశీలించడం	101
▁ద్రావణం	101
▁పాయిసన్	101
▁పర్యవేక్షించ	100
▁ప్రభావవంతమైన	100
▁బెల్	100
▁అడోబ్	100
▁ప్రోగ్రామర్	100
▁భవిష్యత్తు	100
▁సింటాక్స్	100
ಾ	100
▁ప్రయోగాల	100
▁షేడింగ్	100
▁ఇంజన్	100
▁దేని	100
▁ఉపయోగించును	100
▁పొందండి	100
▁హైడ్	100
▁పెంచితే	100
▁బాడీ	100
▁దేశంలో	100
ೆ	100
▁పిలువబడుతుంది	100
▁కాకపోతే	100
ాల్సి	100
ెరికల్	100
▁వద్దాం	100
▁క్రౌడ	100
▁మాగ్జిమమ్	100
▁ట్రయల్స్	100
▁సమాకలనం	100
▁ట్రాన్సఫార్మ్	100
β	100
▁సేకరించడం	99
బడి	99
▁వైట్	99
▁ప్రయత్నిస్తాము	99
టం	99
▁డిస్క్రిప్	99
▁బడ్జెట్	99
అనేక	99
కానీ	99
ుతుంది	99
▁అనుమతిస్తాయి	99
▁వాదన	99
▁లావాదేవీ	99
టరీ	99
▁పీడనం	99
▁నియమాలను	99
▁జోక్యం	99
▁అనుకుంటున్నాను	99
▁యూనిట్లు	99
▁మలీష	99
పరికల్	99
▁ప్రదేశంలో	99
▁డాక్టర్	99
▁విదేశీ	99
))	99
▁అస్సే	99
▁డిఎన్ఏ	99
▁గాషియన్	99
▁రూపాంతరం	98
▁కష్టమైన	98
▁అనుమతి	98
▁వీక్షణ	98
▁చేసినది	98
▁మెయిన్	98
▁ప్రమాదం	98
▁సిగ్నల్స్	98
టప్పుడు	98
▁లిక్విడ్	98
▁వ్యాఖ్య	98
▁చేసుకున్నాము	98
▁ఉనికిలో	98
▁ఆక్ట్	98
▁వెంటిలేషన్	98
▁విజయవంతమైన	98
▁సర్వే	98
▁మార్కులు	98
▁వాడకం	98
▁ప్రో	98
▁పెరుగుదలకు	98
▁నంబరు	98
▁ప్రతిసారీ	98
▁సంతృప్తిపరుస్త	98
▁పోషిస్తుంది	98
▁నోడ్స్	98
▁హైబ్రిడైజ	98
▁వెలాసిటీ	98
▁మెషర్స్	98
▁సమ్మేళనాల	98
▁రిజర్వ్స్	98
▁చెప్పిన	97
▁అయినది	97
▁ఉండకపోవచ్చు	97
▁అంతే	97
▁సవాళ్లు	97
▁తగ్గించవచ్చు	97
▁చెయ్యబడుతుంది	97
ಿ	97
▁ఇంటి	97
▁అతనికి	97
▁న్యూస్	97
▁ఇలస్ట్రేషన్	97
▁ధృవీకరణ	97
‍లో	97
▁కీలు	97
▁యైట్	97
▁గుర్తిస్తుంది	97
▁సదుపాయాల	97
▁ఇంకొక	97
▁తీర్మానం	97
▁పసుపు	97
▁పర్ట్	97
▁ప్రూఫ్	97
▁ఫైనాన్షియల్	97
▁లక్షణాన్ని	97
▁మ్యూ	97
▁సెన్సిటివిటీ	97
▁బౌండెడ్	97
▁బ్యాంకు	97
▁పీర్	97
▁వాతావరణం	96
▁అనుసంధానించ	96
▁అనధికార	96
▁దీనిపై	96
▁తప్పకుండా	96
▁సరియైనదా	96
▁కార్మికుల	96
లన్నీ	96
▁లిస్ట్	96
కనుక	96
▁రిసోర్స	96
▁పరిమాణాత్మక	96
▁హిస్టరీ	96
▁ఉత్పత్తులు	96
▁ఇంటరాక్ట్	96
▁ప్రాతిపదికన	96
టెక్స్ట్	96
▁నో	96
▁పీరియడ్	96
▁టెన్	96
▁ఏర్పరుస్తాయి	96
▁వర్గమూలం	96
▁ప్రమేయాలు	96
▁కణజాలం	96
▁ak	96
▁మ్యు	96
▁వారీగా	95
▁టైం	95
▁సంగీతం	95
▁శీర్షిక	95
▁చర్చా	95
▁రహస్య	95
▁పదకొండు	95
▁వాతావరణంలో	95
▁సూచించబడును	95
▁సౌలభ్యం	95
▁పొందటానికి	95
▁పున	95
▁గదిలో	95
సన్	95
▁మౌలిక	95
▁ముప్పు	95
▁ఫైనాన్స్	95
▁వెనక్క	95
▁చేస్తుందో	95
▁వరుసను	95
▁తొలగింపు	95
▁ఉపాధ్యాయులు	95
▁ప్రాక్టీస్	95
▁సమతుల్యత	95
▁రీడింగ్	95
▁కంటి	95
▁మాత్రికల	95
▁పర్మ	95
ిజమ్	95
▁dt	95
▁Li	95
'(	95
▁ప్రొడ్యూస	95
▁ట్రీని	94
▁మినహా	94
▁క్లీన్	94
▁అభ్యాసకులకు	94
▁ఉపయోగ	94
▁జరుగుతోంది	94
▁నిర్వచనాలు	94
ೈಲ್	94
▁మానిటర్	94
▁నిర్ణయ	94
▁కృషి	94
▁చెందింది	94
▁SSL	94
▁అమరిక	94
▁కనుగొన్న	94
▁ప్రింటర్స్	94
▁లుక్	94
▁గంట	94
▁స్టిట్యూట్	94
రి	94
కలరబుల్	94
▁టైటిల్	94
‍కు	94
▁ఎవిడెన్స్	94
▁యంత్రాలు	94
▁ప్రాధమిక	94
▁కాలిక్యులేటర్	94
న్న	94
▁ఉత్తమమైన	94
▁వార్మ్	94
▁వర్తించబడుతుంది	94
▁కనుగొనడంలో	94
▁ఇంటీజర్	94
▁ఉంచబడుతుంది	94
▁రక్త	94
▁పైవట్	94
▁గణించడానికి	94
▁సైమల్టే	94
డల్	94
నెంట్	94
▁మీజర్మెంట్	94
▁రంగే	94
▁డిఫ్యూజన్	94
డ్మినిస్ట్రేటివ్	93
▁నియంత్రించే	93
▁నిర్ణయించే	93
▁గుర్తించడంలో	93
▁సంకేతాల	93
▁పెరిగిన	93
▁దిగువన	93
▁ఉంటుందో	93
▁పరిధిని	93
▁పేర్ల	93
▁ఈవెన్	93
లోమానుపాతం	93
ఏ	93
▁ఆపరేట	93
▁స్థాయిలు	93
▁పాటుగా	93
▁ప్రశ్నలను	93
▁ఆరోహణ	93
▁ద్రవ	93
▁ప్రోడక్ట్	93
▁అయ్యేలా	93
లపై	93
▁పంతొమ్మిది	93
▁సంకలనం	93
▁కాన్సెప్ట్స్	93
▁చర్చించుదాం	93
▁శాస్త్రం	93
▁థ్రెషోల్డ్	93
▁రీజనింగ్	93
▁ఫుల్	93
▁జీవశాస్త్రం	93
▁లభిస్తాయి	93
నూ	93
▁ఓరియంట	93
▁అథారిటీ	93
▁కర్వ్స్	93
▁chi	93
▁అనంతం	93
▁కరెక్టర్	93
!+	93
▁క్వాడ్రాటిక్	93
▁ఎఫినిటీ	93
▁స్కీం	93
▁సమీక్ష	92
▁చేస్తున్నది	92
▁హ్యాండిల్	92
▁ఒ	92
▁సంప్రదాయ	92
▁ఇటీవల	92
▁ఊహ	92
▁టచ్	92
▁సాపేక్షంగా	92
▁రాజీ	92
▁సర్వీసు	92
▁సంప్రదాయిక	92
టెలికమ్యూనికేషన్	92
▁కారణాలు	92
▁ఉంచ	92
▁సారి	92
▁అనువర్తన	92
▁స్థాయిలలో	92
▁పడిపోతుంది	92
▁మరేమీ	92
▁ట	92
▁గుర్తింపును	92
▁ఒత్తిడి	92
▁ప్రదర్శించ	92
▁మాత్రిక	92
▁స్టాటిక్	92
▁చేసుకోవడంలో	92
నైనా	92
▁పద్ధతికి	92
▁మల్టిప్లికేటివ్	92
▁బయాస్	92
ైడ్	92
▁సాంగర్	92
▁రసాయనిక	92
▁డీవియేషన్స్	92
▁ఘటన	92
▁OY	92
▁ఏకపక్ష	91
▁హ్యాకర్లు	91
▁గ్రహీత	91
▁విలువతో	91
▁ఖచ్చితత్వ	91
▁ఏర్పడిన	91
▁ఆర్టిఫిష	91
▁రెడ్	91
▁బల	91
▁ఫ్రేమ్స్	91
▁మెజర్మెంట్	91
▁PGP	91
▁కనిష్టంగా	91
స్తుంది	91
▁సమయాల్లో	91
▁కష్టంగా	91
▁డిఎన్	91
▁అప్రియోరి	91
▁మొదటిసారి	91
▁పార్టిషన్	91
▁సవాలు	91
▁బౌన్స్	91
▁మార్గాలలో	91
▁మందికి	91
తదుపరి	91
▁లావాదేవీల	91
తదుపరిది	91
▁స్ట్రక్చర్స్	91
▁వెనక	91
గలవు	91
▁సీరియల్	91
▁మారదు	91
▁ప్రయోగ	91
▁బిన్	91
▁టాస్	91
▁ఈక్వెషన్	91
▁అబ్సర్వేషన్స్	91
▁మెకానిజమ్	90
▁ಗಳನ್ನು	90
▁వ్యక్తిని	90
▁అందించబడిన	90
▁పేర్లు	90
▁మిలియన్	90
▁సర్చ్	90
▁ఏర్పడే	90
▁పరిగణించాలి	90
▁టెలివిజన్	90
టీ	90
▁మాగ్నిట్యూడ్	90
▁అవన్నీ	90
▁విశ్లేషణాత్మక	90
▁ప్రయత్నిస్తుంది	90
▁వర్తింపజేస్తాము	90
▁మెటీరియల్స్	90
▁పిఎస్ఎస్	90
▁స్విచ్	90
▁ప్రవేశపెట్ట	90
▁చట్టబద్ధమైన	90
▁పేమెంట్	90
▁అంతర్జాతీయ	90
▁కన్వర్ట	90
నాన్	90
▁ఎక్సెంట్రిసిటీ	90
▁నన్ను	90
▁బయట	90
▁పెట్టుబడి	90
▁ఆస్వాదించారని	90
మొదటిది	90
▁చేయవలసి	90
▁ఉపాధి	90
▁వర్గాల	90
AB	90
▁పారిశ్రామిక	90
▁వివరించాము	90
▁క్లాసికల్	90
▁పేమెంట్స్	90
జీరో	90
▁నిర్మించడానికి	89
ర్వచించబడుతుంది	89
▁ವಿ	89
పరమైన	89
▁విలువలో	89
▁వివరించండి	89
▁మార్చండి	89
▁ఆల్ఫాబెట్	89
▁భూమి	89
▁టేప్	89
▁ఆప్టిమైజ్	89
▁చేస్తుందని	89
▁వల్నేరబిలిటీ	89
‍ని	89
▁అమర్చబడి	89
▁థీయరీ	89
కపోతే	89
▁ఫోటోగ్రాఫ్	89
▁గానీ	89
▁సమస్యలో	89
▁స్పోక	89
జిబుల్	89
Q	89
▁క్వాలిటేట	89
▁ప్రోబబిలిటీని	89
ui	89
▁హౌస్‍హోల్డ్	89
▁పరిష్కార	88
ೇ	88
▁నిర్మించడం	88
▁అసెస్	88
▁రద్దు	88
యు	88
▁మార్చ	88
▁లైఫ్	88
▁స్థానానికి	88
▁అసిమెట్రిక్	88
ాలిటీ	88
▁డెవలప్మెంట్	88
▁ఆర్టికల్స్	88
▁డిఫాల్ట్	88
▁డిస్కవరీ	88
▁ఎగ్జిక్యూటివ్	88
▁పెరగడం	88
ీనెస్	88
▁ఆచరణాత్మక	88
▁ఇండివిడ్యువల్	88
బడుతాయి	88
▁నొక్కండి	88
▁వ్రాసిన	88
▁చోటు	88
▁ఉదాహరణగా	88
▁Cn	88
▁వివరిస్తాము	88
▁కంజంప్షన్	88
▁కాన్వాస్	87
▁చెడు	87
▁వ్యవధి	87
▁గోడ	87
మైనది	87
▁ధోరణి	87
▁ఉద్యోగులకు	87
▁మిగిలి	87
▁జోడించవచ్చు	87
▁కొద్దీ	87
▁ఫిల్	87
రెండు	87
▁యూ	87
▁సంఘం	87
▁తారుమారు	87
▁సాధ్యమైన	87
▁పునరుత్పత్తి	87
▁ప్రాంతాలు	87
▁తగ్గడం	87
▁మనిషి	87
ైనా	87
▁అయినందున	87
▁చెప్పడానికి	87
▁ఉపయోగిస్తాను	87
▁వేయవచ్చు	87
నెస్	87
▁పారామీటర్స్	87
▁చేర్చడం	87
▁సిలిండర్	87
▁ఉత్పత్తికి	87
▁యూనియన్	87
ఎఫ్	87
▁ui	87
▁నిర్వచించాము	87
▁అటానమస్	87
▁సృష్టించవచ్చు	86
▁డైమెన్షన్స్	86
చువల్	86
▁వైద్య	86
▁ఇండెక్సింగ్	86
▁గణించడం	86
▁ప్యానెల్స్	86
▁పేజీలను	86
▁భావిస్తాను	86
▁బ్లాక్స్	86
▁ఇదంతా	86
ాలనుకుంటున్నారు	86
▁ఇన్ఫర్మేషన్‍ని	86
▁అంకెల	86
▁కఠినమైన	86
▁టోకెన్	86
▁పారలెల్	86
▁ఇస్తే	86
▁సమానమని	86
▁ఖరీదైన	86
ుకుంటుంది	86
▁సామర్థ్యాలను	86
▁నిరోధించడానికి	86
▁వ్యత్యాసాలు	86
▁వైపుకు	86
▁ఉపయోగాలు	86
▁ఆటోమేషన్	86
▁చివరిగా	86
▁డీల్	86
▁అనుకూలమైన	86
▁పరీక్షించడానికి	86
▁దొంగతనం	86
▁షో	86
టైమ్	86
▁ఇస్తాయి	86
▁కోడ్స్	86
▁ఎడ్యుకేషన	86
ెంట్	86
▁ప్లగ్	86
▁ప్రయోగాలు	86
▁ఫ్రీక్వెన్సీస్	86
▁భిన్నం	86
▁అప్రాక్సిమే	86
▁సెల్సియస్	86
▁సు	85
▁సంక్లిష్టత	85
▁వినియోగదారుని	85
▁చేసుకుంటారు	85
▁కోణం	85
▁తెలిసి	85
▁and	85
బోతున్నాం	85
▁ఎలిమినేషన్	85
▁ఆధార	85
▁ఇంట్రూషన్	85
▁మొమెంటం	85
▁చ	85
▁డిజైనర్	85
▁చైనీస్	85
▁జియోగ్రాఫిక	85
▁ట్రావెల	85
▁కార్ల్	85
▁వెల్	85
▁వెయ్యి	85
▁పటంలో	85
▁రూప	85
▁ట్రివియల్	85
ట్రాన్స్	85
▁చర్చించబడ్డాయి	85
▁అప్లికేషన్లు	85
▁ఉపరితలంపై	85
▁రసాయన	85
▁మించి	85
▁అనువర్తనాల	85
▁చేయబడ్డ	85
▁డైనమిక్స్	85
▁లాన్	85
▁చేయాల్సిందల్లా	85
▁అఫినిటీ	85
▁XY	85
▁ఫార్ముల	85
▁ఎస్టిమేట్	85
▁ai	85
▁AX	85
▁కర్టోసిస్	85
▁కొసైన్	85
▁ప్రోబ్స్	85
▁కాగిత	84
▁పత్రాలు	84
ఉపయోగించుకోవచ్చు	84
▁మెరుగుదల	84
▁మెటల్	84
▁స్వచ్ఛమైన	84
▁మారవచ్చు	84
▁ఎంచుకుని	84
▁క్వైరీ	84
▁నిర్వహించబడతాయి	84
ೌ	84
▁ఉమ్మడి	84
▁హోల్డర్	84
సోష	84
▁పాత్స్	84
▁యాడ్	84
ట్లుగా	84
నల్	84
▁వైఫల్యం	84
▁రూపొందించవచ్చు	84
▁ఆర్డినల్	84
ాను	84
▁స్ట్రాండ్	84
▁క్రిందికి	84
▁ఎంతో	84
▁సాధ్యమైనంత	84
▁చెయ్యబడతాయి	84
▁....	84
▁చెప్పబడుతుంది	84
బి	84
▁in	84
▁డోర్	84
▁ఇంటర్మీడియ	84
▁మూలాలు	84
▁aij	84
▁ఆర్ఎన్ఏ	84
▁px	84
▁ట్రాన్సిటర	84
▁అపకేంద్ర	84
γ	84
▁స్పెషల్	83
▁నవీకరణ	83
▁అంశాలపై	83
▁ಇದು	83
▁ఇంటిజర్	83
▁మేధస్సు	83
▁ఐడి	83
▁ఎక్చేంజ్	83
▁పౌన	83
▁నమ్మకం	83
▁సౌకర్యవంతం	83
▁టోన్	83
▁క్లిప్	83
▁అనుభవ	83
▁క్యాప్	83
▁డీక్రిప్ట్	83
▁లలోని	83
మన	83
▁కొత్తగా	83
మనము	83
▁క్షమించండి	83
▁ఫిషింగ్	83
▁అందించాలి	83
▁పరీక్షలో	83
▁మినిమం	83
గలుగుతారు	83
స	83
▁ఆలోచనలు	83
▁దేశాల	83
▁చతురస్రం	83
▁వెళ్ళే	83
▁=(	83
▁కీపింగ్	83
▁చేయబోతున్నాను	83
▁సైక	83
▁సూచించబడతాయి	83
▁లేట్	83
▁పాల్గొన్న	83
▁పద్దెనిమిది	83
▁వెయిట్స్	83
▁లైయర్స్	83
▁స్లోప్	83
▁పెరిగింది	83
....	83
▁పరిగణించాము	83
▁తరంగదైర్ఘ్యం	83
ఫర్మేషన్	83
▁పాలినామియల్స్	83
▁జిడిపి	83
▁ax	83
▁పరిమితుల	82
▁ఆలోచనలను	82
గ	82
▁చూపే	82
▁ఇన్సిడెన్స్	82
▁సభ్యుల	82
▁కదులుతుంది	82
▁సంఘటనలు	82
▁నిర్ణయాల	82
▁అక్షరాలను	82
▁స్నాప	82
▁ముడి	82
▁కలిపే	82
పాన్ని	82
▁లైనక్స్	82
ఒకటి	82
▁నిర్మాణంలో	82
ట	82
▁సూచించబడే	82
▁నిర్వహణకు	82
▁ఆల్జీబ్రా	82
▁ఎడిషన్	82
ష	82
▁ఆర్బిట్రరీ	82
రోస్	82
▁CD	82
▁లాంబర్ట్	82
L	82
▁ఇంటర్నేషనల్	82
స్టాటిస్టిక్స్	82
▁ఐసో	82
▁రేడియోధార్మికత	82
▁లీయర్	82
▁డెఫిసిట్	82
▁లెఫ్ట్	81
▁ఒక్కరి	81
▁త్రిమితీయ	81
▁సంబంధించినవి	81
ారా	81
బడితే	81
▁డేటాపై	81
▁పనిచేయడానికి	81
▁పిక్చర్	81
▁స్టూడెంట్	81
▁మెకానికల్	81
▁సంస్థాగత	81
▁ఆపరేషనల్	81
▁ఉపయోగించారు	81
▁వాతావరణ	81
▁టైపోగ్రఫీ	81
▁రెండువేల	81
▁పైప్	81
▁కీలకం	81
▁అస్సలు	81
▁గ్రేడియంట్	81
▁చేయడాన్ని	81
▁బదులు	81
▁ఉపయోగించాలో	81
▁క్రమబద్ధమైన	81
కంట్రోల్	81
లేరు	81
బ్లాస్ట్	81
▁ఎంచుకుంటే	81
▁విభజించడం	81
▁స్కిల్	81
▁ఏడవ	81
▁పంచుకోవడానికి	81
▁చెందుతాయి	81
▁అయింది	81
మా	81
us	81
▁ప్రపోర్షన్	81
థమ	81
▁తగ్గుతాయి	81
▁శోషణ	81
▁ప్రతిరక్షకం	81
▁పియర్సన్	81
▁కాల్షియం	81
▁వెర్టిసెస్‍	80
▁ಸೈಬರ್	80
ವಾಗಿ	80
▁ట్రాక్షన్	80
▁ప్రారంభించడం	80
ంప్	80
▁డెవలపర్	80
రోజూ	80
▁ఫలిత	80
▁మూలకాన్ని	80
▁యావరేజ్	80
▁కంప్యూటర్ల	80
మనకు	80
▁CA	80
▁అనుసరించడం	80
▁స్వభావ	80
▁కమాండ్స్	80
▁రంగాల	80
▁వచ్చాయి	80
▁రెగ్యులర్	80
అన్ని	80
▁వృత్తిపరమైన	80
▁విశ్వవిద్యాలయం	80
▁ఆక్టివిటీ	80
▁పిసి	80
▁జరిగితే	80
▁మిలియన్ల	80
▁పొడిగింపు	80
▁వ్యయ	80
▁ట్రాకింగ్	80
▁మొదలైనవాటి	80
ాల్	80
▁పెరుగుతూ	80
లేము	80
▁ఏవి	80
▁కంపోసిషన్	80
▁డైలాగ్	80
▁లోతుగా	80
▁సిగ్మోయిడ్	80
▁కనుగొనబడింది	80
▁భావిస్తాము	80
▁చర్చించాం	80
=(	80
▁వాల్యూలు	80
▁బార్టర్	80
▁కుర్టోసిస్	80
▁గందరగోళం	79
▁రఫ్	79
▁వ్యతిరేక	79
▁ఏదేమైనా	79
▁క్రియాత్మక	79
చర్చించబోతున్నాం	79
మొత్తం	79
▁క్రియెట	79
▁సాధారణమైన	79
వ్యక్తీకరించబడిన	79
▁అవునా	79
▁సౌండ్	79
ోకల్	79
▁ఒకదాన్ని	79
▁వాలిడేషన్	79
▁ప్రాతినిధ్య	79
▁ట్రేస్	79
▁వాటన్నింటిన	79
▁ఎంచుకునే	79
▁వితిన్	79
▁వ్యక్తిగతంగా	79
▁సంవత్సరానికి	79
▁పరామితుల	79
▁కాన్ఫిగరేషన్	79
▁చేయాలనే	79
▁సరికాని	79
▁కాన్ఫరెన్సింగ్	79
▁పత్రాలను	79
ఆఫీస్	79
ేటప్పుడు	79
▁వాలు	79
టగారికల్	79
▁అభిప్రాయాన్ని	79
యల్	79
▁చెప్పగలం	79
▁గురి	79
▁చూపించడానికి	79
▁సవరించడానికి	79
▁పర్యవేక్షణ	79
▁కార్డినాలిటీ	79
▁ఉంచే	79
▁ఉంచి	79
▁మాడ్యులో	79
▁గుణించబడుతుంది	79
▁చేయబడదు	79
▁సెగ్మెంట్	79
▁)=	79
▁కొలిచే	79
yn	79
▁సంకేతం	79
▁Xn	79
▁జన్యువుల	79
▁క్యాబినెట్	78
▁యంత్రాల	78
▁రికార్డును	78
▁తగ్గింపు	78
▁రూపొందించే	78
▁విభాగానికి	78
▁అడ్డ	78
▁ఒకదానికి	78
▁మిస్సింగ్	78
▁దూరాన్ని	78
▁ఉపయోగించాల్సిన	78
▁బ్రేక్	78
▁తీసివేయడం	78
▁టాపిక్	78
▁అందరూ	78
▁జాతీయ	78
ರ್	78
▁కీవర్డ్	78
▁వర్టెక్స్	78
▁వేరుచేయడం	78
▁టైపు	78
▁రెడ్యూస్	78
▁ఏవీ	78
▁అప్పటి	78
▁ఉపాధ్యాయుల	78
▁ఎక్కడి	78
గలదు	78
▁జె	78
▁సారూప్య	78
▁మార్కుల	78
▁సాంప్రదాయిక	78
▁తగ్గించ	78
▁ల్యాండ్	78
▁పరిష్కారాలను	78
దానిని	78
▁శాస్త్రవేత్తలు	78
▁నిర్దేశిస్తుంది	78
▁ఉద్దేశించిన	78
▁అసమాన	78
▁వ్రాయడం	78
▁కొనసాగుతుంది	78
▁mod	78
▁స్పియర్	78
▁రావడం	78
▁ఉన్నారని	78
▁సమస్యలలో	78
రా	78
▁రుణ	78
సానుకూలంగా	78
▁లేబర్	78
▁స్థిరాంకాలు	78
▁యాంటీజెన్	78
▁log	78
▁MPC	78
▁ఆడ్స్	78
▁దుర్వినియోగం	77
▁మార్చాలి	77
ద	77
▁అలైన్	77
▁గ్రాంట్	77
▁మార్గనిర్దేశ	77
▁ఉపసమితి	77
▁స్పీ	77
▁రైటర్	77
▁అతివ్యాప్తి	77
▁మెయింట	77
▁పెక్టేషన్	77
▁తగినది	77
▁నిర్వహించబడే	77
యర్	77
▁ఆర్డినర	77
▁లెక్కించిన	77
▁సృష్టించబడిన	77
▁టర్న్	77
▁ఇంప్లిమెంటేషన్	77
▁రికవరీ	77
▁ఇంప్లిమెంట్	77
▁by	77
ನ	77
▁ఈమెయిల్	77
▁చేసేవారు	77
▁డైజెస్ట్	77
▁బిందువుల	77
▁టెంపరేచర్	77
▁ఐఒటి	77
▁మెడికల్	77
▁దశకు	77
▁ప్రమాదాల	77
▁గ్రా	77
▁మ్యా	77
▁ఊహించిన	77
▁దృష్టాంతం	77
▁పెరిఫెరల్	77
▁గైడ్	77
ీస్	77
▁సిద్ధాంతాన్ని	77
▁ఔషధం	77
▁జీవి	77
▁చలరాశుల	77
▁ఫోర్త్	77
▁పెరిగితే	77
▁ఒకటిలో	77
▁del	77
▁రెసిన్	77
xy	77
▁హైడ్రోఫోబి	77
▁అస్యూమ్	77
▁వాతావరణాన్ని	76
▁అందించబడుతుంది	76
▁టెక్నాలజీని	76
▁ఆర్గనైజ్	76
▁స్థాయిల	76
▁అందించ	76
▁క్రస్కల్	76
▁ఎంచుకుంటాము	76
▁సహకార	76
▁ముగింపులో	76
▁సమస్యలకు	76
▁పేలవ	76
▁గాజు	76
▁దారితీసింది	76
▁జిఐ	76
▁చేయాల్సింది	76
▁పీక్స్	76
▁పనిలో	76
▁ఏవిధంగా	76
▁డబ్ల్యూ	76
▁ఎక్విప్మెంట్	76
▁రేఖాచిత్రంలో	76
▁పొంద	76
▁మిస్	76
▁రిపీట్	76
▁ఊహిస్తాము	76
▁పిలిచే	76
▁స్పష్టం	76
▁ఫెయిర్	76
▁పైగా	76
▁బేయ	76
▁సున్నితత్వం	76
▁పోల్చడానికి	76
▁ఫండమెంటల్	76
▁సిపిఎ	76
▁బోన్స్	76
▁సెవెన్	76
▁స్థిరత్వం	76
▁భారం	76
▁రెండులో	76
$	76
K	76
▁ప్రిడిక్టర్	76
▁ప్రి	76
▁move	76
క్రీట్	76
▁ప్లాస్మా	76
▁గ్రేడెడ్	76
▁టూకీ	76
▁డాటాసెట్	76
Ψ	76
▁dp	76
▁ఖాసి	76
▁నార్మాలిటీ	76
▁అన్నింటిలో	75
▁గందరగోళ	75
▁ఉచితంగా	75
▁ఉద్యోగ	75
▁కరస్పాండెన్స్	75
▁సింబల్స్	75
▁దానినే	75
▁పత్రం	75
▁o	75
▁సంకేతాలు	75
▁సేఫ్టీ	75
▁ఏజెన్సీ	75
▁ఆచరణలో	75
▁రోస్	75
▁దృష్టిలో	75
▁కాంపోజిట	75
▁నష్టాన్ని	75
▁ప్లాస్టిక్	75
▁కండిషన్స్	75
▁చదవడానికి	75
▁డేటాని	75
▁DBMS	75
▁నొక్కడ	75
▁విశ్లేషించ	75
▁జాన్	75
▁సాక్ష్యం	75
▁సొల్యూషన్స్	75
▁డిఫైన్	75
▁uv	75
▁ఫ్రీక్వెంట	75
▁సెక్యూరిటి	75
▁భావించవచ్చు	75
▁లే	75
▁ప్రచురణ	75
▁పోల్చి	75
▁సైన్సెస్	75
▁శాఖ	75
▁మాధ్యమ	75
▁అడ్జెసెంట్‍	75
▁పిలవబడును	75
▁టీమ్	75
▁ధృవీకరించడానికి	75
▁చేస్తాం	75
▁గొలుసు	75
▁కిట్	75
▁స్టేట్మెంట్స్	75
▁క్లిష్ట	75
▁ఆగ్జిలర	75
re	75
▁మీడియం	75
▁కారక	75
ఫ్	75
▁స్క్వయర్	75
▁పాసిటివ్	75
▁కణితి	75
/√	75
▁లాప్లేస్	75
▁అవకాశాన్ని	74
▁వల్నరబిలిటీ	74
▁డయాగ్రమ్	74
దో	74
▁నియంత్రణలు	74
▁ఉద్యోగం	74
▁భాషలో	74
▁క్లైంట్	74
▁మాట్లాడుతాము	74
▁IT	74
▁కారణ	74
▁తొలగిస్తుంది	74
▁జీతం	74
▁ఫైబర్	74
▁నిర్వహించ	74
▁కోర్సులు	74
ఉపయోగిస్తున్నాను	74
▁లాంబ్డా	74
▁చేయబడిందని	74
▁క్విజ్	74
▁మిత్రులారా	74
▁చూసి	74
▁కనుగొనాల	74
▁వక్ర	74
▁చేరుకోవడానికి	74
▁వ్యాసం	74
▁డైరెక్షన్	74
▁వివరించబడ్డాయి	74
▁ఉంచిన	74
▁వైస్	74
▁చేశాడు	74
▁వడ్డీ	74
▁పోర్టబుల్	74
▁క్లెయిమ్	74
▁ఇంటిగ్రేటెడ్	74
▁చూసినప్పుడు	74
▁వేవ్స్	74
▁వాయు	74
▁ట్రీట్మెంట్	74
▁ఇంజెక్ట	74
▁వివరిస్తాను	74
▁జోడిస్తాము	74
▁జీవశాస్త్రంలో	74
)]	74
▁గానూ	74
▁ఇమ్యునోఅస్సే	74
▁చలరాశులు	74
].	74
▁An	74
▁సెక్యూరిటీపై	73
▁మూలాల	73
▁ఫేసెస్	73
▁ప్రసిద్ధి	73
▁త్వరలో	73
▁నియంత్రించడం	73
▁మ్యాథమెటిక	73
▁ఐసోమోర్ఫిక్	73
▁నెల	73
▁శిక్షణా	73
గలిగితే	73
▁ReLU	73
▁కేంద్రీకృత	73
▁పబ్లిషింగ్	73
▁చరిత్రను	73
▁హ్యూరిస్టిక్	73
▁అందుకున్న	73
▁మాట్లాడేటప్పుడు	73
▁ప్రారంభించే	73
▁పూత	73
▁సమాజంలో	73
▁దేశ	73
▁కార్టీజియన్	73
రెండవ	73
ఉదాహరణ	73
▁సూక్ష్మ	73
▁తెలుసుకుందాము	73
లింగ్	73
▁విజయం	73
▁ఎవిడెన్స్ల	73
▁బెస్ట్	73
▁చెబుతాను	73
ai	73
▁మూర్	73
▁రేట్స్	73
▁సరళీకరణ	73
▁పారాబోలిక్	73
▁జీన్	73
▁ఔషధ	73
▁బయోటిన్	73
▁స్టెయిన్	73
▁ఫినాల్	73
▁నానోపోర్	73
▁rho	73
రాండం	73
▁హైరార్కీ	72
▁చేసుకున్నారని	72
▁బృందం	72
విద్యార్థులారా	72
▁వినియోగదారుకు	72
▁స్ట్రోక్	72
▁ఉంచాల్సి	72
▁డివైసెస్	72
▁కొలతల	72
▁సంఘటనల	72
ేన్	72
▁అనుసరించే	72
▁పరిష్కరించవచ్చు	72
రల్	72
▁సృష్టించిన	72
▁ట్రెండ్	72
▁కార్యక్రమాలను	72
▁చట్ట	72
▁ట్రోజన్	72
▁బలహీనమైన	72
▁విభజిస్తుంది	72
▁వాస్తవాలు	72
▁ప్రతిసారి	72
బోయే	72
▁వ్యూలో	72
▁పేజీని	72
▁అనువైన	72
▁స్టేటస్	72
▁విజువలైజ్	72
}	72
▁ఆర్డర్డ్	72
వ్యాపార	72
▁సూచిక	72
▁సెకండర	72
▁సాధించిన	72
▁is	72
▁పిఈటి	72
▁కీన్స్	72
▁)/(	72
▁కౌచీ	72
▁ప్రక్కనే	71
రో	71
▁ధర్మాల	71
▁ప్రిమ్	71
▁చూస్తున్నారు	71
▁ప్రీసెట్	71
▁ఇవ్వవచ్చు	71
▁డార్క	71
▁సంగ్రహించడం	71
ఇతర	71
▁ఉండ	71
▁భావించబడుతుంది	71
▁చట్టాల	71
▁ఫెరోమోన్	71
▁అత్యల్ప	71
▁ఆలోచించండి	71
▁పెంచుతాను	71
▁పేజీలో	71
▁పఠనం	71
ర	71
▁ఫాల్	71
▁జరిగేది	71
▁తరగతిలో	71
▁లేనిచో	71
▁పనికి	71
▁డా	71
▁సెలక్షన్	71
▁యాక్సి	71
▁డిబిఎమ్ఎస్	71
▁ఇంతకుముందే	71
▁డ్రైవర్	71
▁గ్రామ్	71
▁ధనాత్మకం	71
▁ఐదులో	71
▁పిఎల్	71
▁పెప్టైడ్	71
▁సక్సస్	71
▁నానోమీటర్	71
▁గ్లూకోజ్	71
ూరు	70
▁ఐదవది	70
▁సేకరించడానికి	70
▁హక్కుల	70
▁యుటిలిటీ	70
▁కాగితంపై	70
▁క్లాసెస్	70
▁పథకం	70
▁కల్పించడం	70
▁నిర్వాహకులు	70
మ	70
▁చర్చించ	70
▁సమాచారంతో	70
సాధారణ	70
▁నేర్చుకోవడానికి	70
▁SQL	70
▁ಸಿಸ್ಟಮ್	70
▁ఫర్నిచర్	70
▁అసెస్మెంట్	70
సీజర్	70
▁సంరక్షణ	70
▁వక్రత	70
యూజర్	70
▁రూపాలు	70
▁రావచ్చు	70
క్టివ్	70
▁జోడిస్తుంది	70
అ	70
▁కొలుస్తారు	70
▁లెవల్	70
▁నివారణ	70
▁మెటా	70
▁తరువాతది	70
▁ఎదుర్కొంటున్న	70
▁ఐడియా	70
▁చెప్పారు	70
▁లోడింగ్	70
▁మానిటర్స్	70
▁పద్దతి	70
▁ఏకాగ్రత	70
▁చూపును	70
▁యంత్ర	70
▁పెట్టె	70
▁అడుగు	70
▁కోల్పోవడం	70
▁ఉన్నా	70
▁షేప్స్	70
▁సాధించే	70
స్పెక్ట్రోస్కోపీ	70
▁ఆక్వ	70
సెంట్రిఫ్యూజ్	70
▁రియాక్షన్	70
▁సిగ్నిఫికెన్స్	70
▁నియంత్రిస్తుంది	69
▁ఆహార	69
▁వృధా	69
▁విధుల	69
▁పెట్టడం	69
▁అర్థిమెటిక్	69
▁కార్యక్రమాలు	69
▁శీఘ్ర	69
వన్	69
▁క్వాలిటీ	69
▁చూడగలరు	69
▁పరిష్కారాలు	69
▁అనధికారిక	69
▁ఇండ్యూస్	69
▁కొలవడం	69
▁వేదిక	69
▁ఉపయోగపడతాయి	69
▁హిల్	69
బ్	69
▁చేయకూడదు	69
▁ఉంచబడిన	69
▁డిస్టిబ్యూటెడ	69
▁చెప్పబడింది	69
▁కిరణాలు	69
న్సీ	69
▁చెయ్యాలి	69
▁రికార్డింగ్	69
▁ప్రారంభిస్తుంది	69
▁ఊహించ	69
▁పునరుద్ధరణ	69
▁ప్రోటోకాల్స్	69
▁మొత్తంగా	69
le	69
▁కొలవడానికి	69
▁ముగిసే	69
▁స్థానభ్రంశం	69
ార్	69
▁ఐఇఎ	69
F	69
▁లీగల్	69
▁సూత్రంలో	69
▁కోఎఫీషియంట్స్	69
▁కణాలకు	69
▁అబెలియన్	69
▁బెర్త	69
▁గోస్	69
.--	69
▁పర్మ్యుటేషన్	69
▁సంభవిస్తుంది	68
▁మంజ	68
▁పరిణామ	68
▁వ్యవహరించే	68
▁సురక్షిత	68
▁యాంటీవైరస్	68
▁విడి	68
▁లాభం	68
▁చేయమని	68
▁పొందాలి	68
▁అభిప్రాయం	68
▁ఫ్లాష్	68
▁ఎలక్ట్రో	68
▁నాయిస్	68
▁ఫైళ్ళను	68
ప్రదర్శించడానికి	68
▁గుర్తించి	68
▁మార్గదర్శకాలు	68
▁పక్కన	68
▁జరిమానా	68
▁కోడర్	68
▁నిరూపించ	68
▁సినిమా	68
▁ట్రాన్స్పోజ్	68
▁ಡೇಟಾ	68
▁ప్రయత్నిస్తారు	68
▁పెడదాం	68
▁రిబ్బన్	68
▁ఫ్లూయిడ్	68
▁క్రిందివి	68
▁వెళ్ల	68
▁ఎనేబుల్	68
ಲು	68
▁చెందడం	68
▁చూడబోతున్నాము	68
▁చెప్పినప్పుడు	68
▁ఉపరితల	68
▁భద్రపరచడం	68
▁మరెన్నో	68
రియల్	68
▁జో	68
▁నిర్ధారించడం	68
▁లేషన్	68
రేజ్	68
▁తల	68
▁లయర్	68
▁చూపించే	68
ేట్	68
▁సుదీర్ఘ	68
▁వారిలో	68
న్నింటినీ	68
▁ట్యూటరింగ్	68
▁మైనర్	68
▁పునరుక్తి	68
▁రేడియేషన్	68
iii	68
▁రోటర్	68
మాథమెటికల్	68
▁పియర్సన్స్	68
▁కాన్ఫ	68
▁విస్కర్	68
▁టెన్డెన్సీ	68
▁ct	68
▁సమర్ధవంతంగా	67
▁దగ్గరి	67
▁ప్రాచుర్య	67
ವ	67
▁కమర్షియల్	67
ీయ	67
వాటి	67
▁వర్తింపజేస్తే	67
▁తొలగించవచ్చు	67
▁అసైన్మెంట్	67
▁ప్రయత్నిద్దాం	67
▁విస్తరించడం	67
▁లెక్కించా	67
▁ఉత్పాదక	67
▁క్లాసస్	67
▁సమృద్ధి	67
▁గుణించ	67
▁యూసర్	67
▁పదే	67
▁పెట్ట	67
▁క్రితం	67
▁మోనో	67
▁ఇవ్వబడినవి	67
▁ఫారం	67
▁పంపడానికి	67
దీనికి	67
▁పర్సెంట్	67
▁వైవిధ్య	67
▁సవరించవచ్చు	67
▁ప్రయోజనకరం	67
▁పెద్దగా	67
▁ప్రోబ్లమ్	67
▁బౌన్స	67
విగా	67
▁పరిశోధనలో	67
▁లాంటిది	67
▁పరిశీలించిన	67
▁డ్రైవ్స్	67
▁సూటిగా	67
▁సందేశాలు	67
పునరావృతమవుతుంది	67
▁జోడించండి	67
▁కనుగొని	67
▁దిద్దుబాటు	67
▁షేర్డ్	67
ంలో	67
మాట్లాడుతున్నాము	67
▁విస్తరించ	67
▁పరోక్ష	67
▁తరగతుల	67
▁భావిస్తారు	67
▁సూడో	67
▁పొడవును	67
▁పరిస్థితిలో	67
▁హాయ్	67
▁ఒకటవ	67
▁నిర్ణయించబడతాయి	67
ాన్	67
▁ఆగ్మెంట	67
▁((	67
▁స్ట్రేట్	67
▁రిలెటివ్	67
▁అయోనైజేషన్	67
▁టెండ్	67
▁యాంటీలాగ్	67
▁సిబ్బందికి	66
▁తాము	66
▁సవరించడం	66
బడాలి	66
విద్యార్థులు	66
▁చీమలు	66
▁వివరించవచ్చు	66
▁ఖర్చులు	66
▁ఇంటెలిజెంట	66
▁క్రమంగా	66
▁నేపథ్య	66
రావడానికి	66
▁ఇవ్వ	66
▁పర్వాలేదు	66
▁జ	66
అడ్మినిస్ట్రేటర్	66
▁మాస్క్	66
▁పర్యవేక్షించబడ	66
నట్లయితే	66
▁TGS	66
▁ಕಂಪ್ಯೂಟರ್	66
▁చెయ్యాల్సి	66
▁ఫోటోగ్రాఫ్స్	66
▁సూట్	66
దే	66
▁ప్రయత్నించవచ్చు	66
▁చేయగలను	66
▁శబ్దం	66
▁విస్తరించిన	66
▁డబ్య్లు	66
▁మెదడు	66
▁నిపుణుడు	66
▁మెథడాలజీ	66
▁ఉత్పన్న	66
▁ప్రదర్శించడం	66
▁ఆప్టిమ	66
సెట్స్	66
▁హాట్	66
ార్జ్	66
▁ఫార్మల్	66
▁రాయడం	66
▁విదేశాల	66
▁లైయర్	66
▁పద్ధతులలో	66
▁విశ్రాంతి	66
▁పరిగణించబడతాయి	66
▁కోఆర్డినేట్స్	66
▁<	66
▁చూపండి	66
∀	66
▁అమ్మకాల	66
▁నేర్చుకున్నారు	66
▁రూపాయలు	66
▁శరీరంలో	66
▁df	66
▁cDNA	66
▁ఫాఫియ	66
▁PET	66
▁గ్రూప్డ్	66
▁అయాన్స్	66
▁యాక్టివిటీ	65
▁వీల్	65
▁యాజ్	65
▁మినిమ	65
▁సజావుగా	65
▁వీలైన	65
▁రాష్ట్ర	65
▁మెమోరీలో	65
▁రూపొందించారు	65
▁క్వెరీ	65
▁స్వీకరించడం	65
▁మిక్స్	65
▁అనవసరమైన	65
బర్గ్	65
▁ఆయిలర్	65
▁ముదురు	65
▁స్టైలోమెట్రీ	65
▁సర్వర్స్	65
▁ఆధారాలు	65
▁Kn	65
▁అడ్వాన్స్	65
▁అర్థవంతమైన	65
▁కరెక్షన్	65
▁మార్కెట్లో	65
▁పెరగడానికి	65
▁బలంగా	65
▁ఆవశ్యకత	65
▁స్వల్ప	65
▁వ్యాపారంలో	65
యి	65
▁పంపబడుతుంది	65
▁పుస్తక	65
అవును	65
ెల్	65
▁ట్రస్టెడ్	65
▁నైపుణ్యాలు	65
▁ఇంటీజర్స్	65
ర్స్	65
▁సౌకర్యంగా	65
▁మొత్తానికి	65
▁ముందర	65
▁తగ్గించబడుతుంది	65
▁రాజకీయ	65
▁గణనలు	65
▁తొలగించబడుతుంది	65
▁గ్రాడ్యుయేట్	65
▁యుగంలో	65
▁పోల్చవచ్చు	65
▁అవుతుందో	65
▁సాలిడ్	65
▁చెప్పేది	65
▁ముగుస్తుంది	65
▁గ్రూపింగ్	65
▁తగ్గిన	65
▁మొదట్లో	65
▁ఇదేవిధంగా	65
▁అతిపాతం	65
▁ధన్యవాదములు	65
▁భ్రమణం	65
▁బాండ్	65
▁ఎమిషన్	65
)=(	65
▁eta	65
▁[(	65
▁చరరాశి	65
▁బేయి	65
▁డినామినేటర్	65
▁శకలాలు	65
▁లెన్స్	64
▁స్పెసిఫికేషన్	64
ಕ	64
▁సందర్శకుల	64
▁క్రమానుగత	64
▁దీర్ఘకాలిక	64
▁యాంగిల్	64
▁అనుసంధానం	64
వర్తింపజేయడానికి	64
గూగుల్	64
▁అంతేకాకుండా	64
▁రెండింటికీ	64
▁విభజించ	64
▁ముగించ	64
▁ప్రయత్నాలు	64
▁టికెట్	64
ండ్	64
▁మారే	64
లైన్	64
▁సంవత్సరాలు	64
▁శ్రమ	64
అదే	64
▁జీవన	64
▁లేనందున	64
▁పోజర్	64
▁యాంత్రిక	64
▁వెలికితీత	64
▁మాత్రికలు	64
▁చేతితో	64
▁ఇన్వెంటరీ	64
▁విజువల్స్	64
▁విత్	64
▁చేసేవారి	64
▁పొడవైన	64
▁క్రుస్కల్	64
▁చేస్తున్నాయి	64
▁భాగస్వామ్య	64
▁కాంబినేషన్స్	64
▁గమనిక	64
▁రెప్లికేషన్	64
▁జీవశాస్త్ర	64
▁అధ్యయనంలో	64
▁డాక్యుమెంట్స్	64
▁ప్రవర్తనా	64
▁ఒకటికి	64
▁చేయలేము	64
▁కాంపాక్ట్	64
+(	64
▁ఇంటర్వ్యూ	64
▁పెర్మిస	64
▁ప్రెసెంటేషను	64
▁కార్యక్రమం	64
▁నియమాల	64
▁ప్రాంతాలలో	64
నిజానికి	64
▁రివర్స	64
▁ఓఇఆర్	64
▁ప్రదేశాలలో	64
▁గణించాలి	64
▁నిరూపక	64
▁సమీకరణానికి	64
▁శాస్త్రవేత్త	64
▁ఫార్ములాని	64
▁సీసం	64
▁ప్రిజం	64
▁లైక్లీహుడ్	64
▁సగటుల	64
▁కమాడిటీ	64
▁ఇన్‍కమ్	64
▁pq	64
▁ట్రాప	64
జోయి	64
▁సల్ఫేట్	64
డేటాను	63
▁శరీరం	63
▁యున	63
మెట్రిక్	63
▁పరిశీలనల	63
▁చారిత్రక	63
▁ఇవ్వబడతాయి	63
▁పోస్ట	63
ಿಕ್	63
▁చేసాను	63
▁మందం	63
▁నిర్దేశించ	63
▁పర్యావరణం	63
▁మాట్లాడే	63
▁యాదృచ్ఛికంగా	63
▁మూలాలను	63
▁DES	63
▁కాలేదు	63
▁నివారించడం	63
▁కేంద్రం	63
▁కేసులు	63
▁వాన్	63
దీర్ఘచతురస్రాకార	63
▁ఇతరులు	63
▁స్థలంలో	63
▁ఆడమ్	63
▁శారీరక	63
▁చేసుకోండి	63
▁విశ్లేషించవచ్చు	63
వల్	63
▁జీవితం	63
▁లైబ్రరి	63
▁స్టేజ్	63
▁రెండో	63
▁చూపవచ్చు	63
▁సంబంధాలు	63
త్	63
▁ఉంచబడతాయి	63
▁మారడం	63
▁నిర్ణయించాలి	63
▁చార్ట్స్	63
▁చెందే	63
▁కల్చర్	63
▁చూపబడుతుంది	63
▁అనాలిటిక్స్	63
▁క్లీనింగ్	63
▁లేబుల్స్	63
▁డిపాజిట్	63
▁∩	63
▁మొత్తము	63
▁ముగిస్తున్నాము	63
▁పారాబొల	63
▁OQ	63
▁Yi	63
▁క్లోరోఫా	63
▁ఉప్పు	63
∴	63
స్పెక్ట్రోమెట్రీ	63
▁స్పామ్	62
▁అక్షరాస్యత	62
▁దూరాల	62
▁అథెంటికేట్	62
▁జ్ఞాన	62
▁వీడియోలు	62
▁సొంత	62
▁చిత్ర	62
▁సైట్లు	62
▁పెంచ	62
▁కదిలే	62
▁ప్రారంభించండి	62
▁డె	62
▁స్పెక్ట్రమ్	62
▁బ్రాడ్	62
▁చెబుతారు	62
▁జోడించబడుతుంది	62
▁చూడబోతున్నాం	62
ಿಂಗ್	62
▁ಅದ	62
ಾದ	62
▁వందలు	62
▁అపరిమిత	62
▁రూపొందించ	62
▁ఉన్నట్లుగా	62
▁స్ట్రా	62
▁రక్షించడం	62
▁ఆశించిన	62
▁కోరుకుంటున్నాను	62
ౌట్	62
▁వైర	62
▁వేస్తుంది	62
▁ఫ్లిప్	62
▁ప్రమాదాలు	62
▁కంట్రోల్స్	62
▁దాచిన	62
▁కలుసుకుందాం	62
▁విలువలతో	62
▁అవుతారు	62
▁ప్రవేశ	62
▁ఏర్పరుచును	62
▁రె	62
▁బాస్కెట్	62
▁సులభ	62
▁మాధ్యమంలో	62
▁స్టిక్	62
▁తీసుకున్నప్పుడు	62
▁సంవత్సరాలలో	62
▁సృష్టించే	62
▁యె	62
▁ప్రొఫెషనల్	62
▁సవరణల	62
▁పనుల	62
▁వాస్తవికత	62
▁శిక్ష	62
▁వ్రాయడానికి	62
▁చలనం	62
▁స్థిరత్వాన్ని	62
▁కెమెరాను	62
▁అనాలిటిక	62
▁సారాంశ	62
▁గ్రే	62
▁వెళ్దాము	62
▁పొందారు	62
▁కండీషన్స్	62
▁లెక్కించబడతాయి	62
▁రెప్రెసెంట్స్	62
▁ప్రోటియోమిక్స్	62
▁పాలినోమియల్	62
↑	62
▁నార్మ్	62
▁ఈక్వివాలె	62
▁ప్రోపోర్షన్	62
▁రుణాత్మకం	61
▁బలహీనత	61
▁డీప్	61
ాట్	61
▁ಸಾ	61
దుగా	61
▁తేడాలు	61
▁పెడుతుంది	61
▁కస్టమర్ల	61
▁కొనసాగించుదాం	61
▁తెలివైన	61
ఆధారిత	61
▁మెటాడేటా	61
▁ప్రకటనల	61
▁స్ట్రాక్ట్	61
▁వృత్తి	61
‍గా	61
▁పొందింది	61
▁కరోలరీ	61
జి	61
▁సామాన్య	61
ಲ್ಲಿ	61
▁కత్తిరించ	61
▁కోణంలో	61
▁ఉంచాము	61
▁జాగ్రత్తలు	61
▁తెలివిగా	61
మళ్లీ	61
▁ఆట్రిబ్యూట్	61
▁సరిపోతుంద	61
▁కూర్పు	61
▁అందించవచ్చు	61
▁కార్యాలయంలో	61
▁కుడివైపు	61
నేది	61
▁వెళ్ళవచ్చు	61
▁భాగించడం	61
▁రిటైల్	61
▁పదానికి	61
▁ప్రొడక్ట్స్	61
▁సహజమైన	61
▁అయస్కాంత	61
కనెక్టెడ్	61
మరో	61
▁కూ	61
▁జోడించబడతాయి	61
▁అవసరమని	61
▁తీసివేస్తే	61
▁తేలికగా	61
▁ఇమిడి	61
▁ఉద్భవించింది	61
▁పొగ	61
▁క్షితిజ	61
̄	61
▁కంటెంట్స్	61
▁ఇయర్	61
▁తొలగిస్తే	61
మాడ్యూల్	61
▁జనరేటర్	61
▁ఇంటరాక్షన్స్	61
డిస్ట్రిబ్యూషన్	61
▁ట్రీట్	61
▁సంకర్షణ	61
▁మ్యాట్రిక్	61
▁bn	61
మీన్	61
▁సీడెల్	61
xyz	61
▁ఫిల్టరేషన్	61
▁OM	61
ε	61
▁పెయిర్డ్	61
కోసం	60
▁చూపబడిన	60
▁ఫీల్డ్స్	60
వ్యాప్తంగా	60
మైనవి	60
ైటెడ్	60
▁వారాల	60
▁డైరెక్టర్	60
▁వ్యూహాలను	60
ప్రోత్సహిస్తుంది	60
▁హైరార్కి	60
▁ಸಂ	60
▁వైవిధ్యాలు	60
▁కోర్సుల	60
హెచ్	60
▁రెగ్యులరైజేషన్	60
కేవలం	60
▁ఇస్తారు	60
▁గుర్తించాలి	60
నీ	60
▁ట్రాన్స్ఫర్	60
▁భాషలు	60
▁కూడుకున్నది	60
▁ధృవీకరించ	60
▁ఫ్లాగ్	60
ఆఫ్	60
▁మారుతున్న	60
▁టోపోలాజీ	60
▁లింక్డ్	60
▁CPU	60
▁ఆటోడెస్క్	60
▁మార	60
▁పెర్ముటేషన్	60
▁జరుగుతున్న	60
▁అరుదుగా	60
▁ఆల్ట్	60
▁ప్రారంభించవచ్చు	60
▁కార్	60
▁సరిగా	60
▁పునాది	60
▁తప్పక	60
వందల	60
▁ప్రస్తావించ	60
▁చట్టాలు	60
▁దృశ్యమానం	60
▁కాలక్రమేణా	60
▁ఉద్యోగులను	60
▁సంగ్రహించడానికి	60
మెటిక్	60
▁ఆధిపత్య	60
▁నిరూపించాలి	60
▁అంశాలలో	60
▁వెళ్లాల్సి	60
▁మెరిట్	60
▁షార్ప్	60
▁పే	60
▁లాజిస్టిక్	60
▁థ్రెష	60
ఇదే	60
▁భ్రమణ	60
▁ఆవేశం	60
▁కమోడిటీ	60
mod	60
▁xj	60
▁పేర్	60
▁అడాప్టర్	60
▁న్యూట్రాన్	60
▁డిరిక్లెట్	60
▁ఐసొమార్ఫిక్	60
⁄	60
▁లిపిడ్	60
▁సిగ్నిఫికెంట్	60
▁జన్యువులు	60
▁డిస్టిబ్యూషన్స్	60
▁బిట్వీన్	60
▁ష్రోడింగర్	60
▁పాజిట్రాన్	60
▁పొందడంలో	59
▁నగరం	59
▁ఆర్ట్స్	59
▁లేవని	59
▁అందమైన	59
▁మనస్సులో	59
▁లాభాల	59
▁టెక్నాలజీలో	59
▁సంస్థలలో	59
▁సౌకర్యాలు	59
▁ఆడిటింగ్	59
▁స్పష్టత	59
▁తగ్గించే	59
▁గోళం	59
▁పోషిస్తాయి	59
▁పెద్దవి	59
▁ఆకర్షణీయంగా	59
▁దారితీసే	59
▁పరిశ్రమలో	59
సైక్లిక్	59
ఓ	59
▁బూట్	59
▁అధ్యయనాలు	59
▁యుఎస్	59
▁మేనేజర్లు	59
▁ఎఫెక్టివ్	59
▁అంతర	59
▁ఉద్దేశపూర్వకంగా	59
యా	59
▁పారదర్శకత	59
▁రిడక్షన్	59
▁ఆరులో	59
▁ఆఫ్టర్	59
▁ఓఎల్ఏపి	59
▁ఆధారపడిన	59
▁మార్చుతాము	59
▁బీమ్	59
▁చొరబాట్ల	59
▁మ్యాక్జిమల్	59
▁క్లూజివ్	59
▁ప్రయత్నించిన	59
▁వినోదం	59
▁అంతిమ	59
▁చేర్చ	59
లన్నింటినీ	59
▁పరిపాలనా	59
▁కనుగొంటుంది	59
≤	59
▁చూపడం	59
కే	59
▁రోజులు	59
▁మాధ్యమంగా	59
▁ట్యుటోరియల్స్	59
▁పేరుతో	59
▁చేయవచ్చో	59
▁అబ	59
▁స్టేట్స్	59
▁తీవ్రంగా	59
▁కమ్యూనికేషన్స్	59
▁మూడులో	59
▁సహసంబంధం	59
స్ట్	59
▁గుణించి	59
▁ప్రాంతానికి	59
ేజ్	59
▁Or	59
▁స్థానాలు	59
▁చి	59
▁టెండర్	59
▁అణుభారం	59
▁స్పెక్ట్రోమీటర్	59
▁చిత్రీకరణ	59
టర్మినేషన్	59
న్యూక్లియోటైడ్	59
▁కాంజుగేట్	59
▁సమాధానాల	58
▁మానిప్యులేషన్	58
▁వ్యూస్	58
▁కమ్యూనిటీ	58
ిక	58
▁కొలవవచ్చు	58
కోడ్	58
▁నిరూపణ	58
▁ఉద్దేశం	58
▁శాశ్వతం	58
▁భారతదేశం	58
వహించే	58
▁ఆపిల్	58
బోతున్నాను	58
▁నేర్చుకోవచ్చు	58
▁ఆప్షను	58
▁సెంట్రలైజ	58
▁రిగ్గింగ్	58
▁గ్రూపు	58
▁హార్స్	58
▁విద్యార్థికి	58
▁జరగవచ్చు	58
▁పంపుతుంది	58
▁గన్	58
▁పనిచేస్తుందో	58
▁కేటాయించడం	58
▁పద్ధతుల్లో	58
▁షెల్ఫ్	58
▁అనుకో	58
▁ము	58
▁లోతు	58
▁ఉంచుదాం	58
▁OS	58
▁చేతుల	58
▁ప్రమేయ	58
▁యాక్టివ్	58
▁క్లియర	58
▁తెలుసుకోవ	58
▁పరిశోధకుడు	58
స్థాయి	58
‍లు	58
▁స్ట్రెయింట్	58
▁అంతకన్న	58
▁కన్	58
▁ఉపయోగాల	58
▁నాణెం	58
▁కొలుస్తుంది	58
దూరంలో	58
టికల్	58
▁చేయబడవచ్చు	58
▁షేడ్	58
▁గుణిస్తే	58
▁ఫ్రీజ	58
▁పనిచేయడం	58
▁లెక్కింపు	58
▁చూపుతాము	58
వేల	58
▁ఇచ్చినప్పుడు	58
▁డైస్	58
ith	58
▁ఇవ్వదు	58
▁డయాగ్రామ్స్	58
▁సంపద	58
▁రికర	58
▁అపుడు	58
బంధించే	58
▁లేబులింగ్	58
▁డెరివేటీవ్	58
▁లైసిస్	58
▁Bn	58
▁ప్రోటీన్ల	58
▁లీయర్స్	58
▁అబ్జర్వ్	58
▁వివరించాను	58
▁ఒలిగో	58
▁అనోవా	58
▁కార్డులు	57
▁నిర్ణయించిన	57
▁క్యూఎల్	57
▁సంఘటనలను	57
▁ఆకారం	57
ణ	57
▁అధికం	57
▁ప్రయత్నించే	57
▁ఉపయోగించబడింది	57
▁కొన్నింటి	57
▁సరైనదేనా	57
▁st	57
▁ಮ	57
▁వ్యాప్తిలో	57
▁భవనం	57
▁కేసుల	57
కొత్త	57
▁ಎ	57
▁ట్రాన్స్మిషన్	57
▁డిటేల్	57
▁అంతర్గతంగా	57
ఆపరేటింగ్	57
▁డాక్యుమెంటేషన్	57
▁కాంట్రాక్షన్	57
▁ఒక్కో	57
▁తీసుకురావడానికి	57
▁నిర్వచించిన	57
▁చూడగలిగే	57
▁బిల్డింగ్	57
వల్ల	57
▁కల	57
▁సమర్థత	57
▁నమస్కారం	57
▁నాణ్యమైన	57
▁స్విచింగ్	57
నప్పుడు	57
▁హెల్త్	57
▁బలవంతం	57
▁హాప్	57
▁వ్యవకలనం	57
▁తిరస్కరించ	57
▁రోజుల	57
▁సిస్టంను	57
▁రిజర్వేషన్	57
▁టీరియర్	57
▁తిరస్కరించడం	57
▁స్టాలేషన్	57
▁దరఖాస్తు	57
▁డిప్రెషన్	57
▁ii	57
▁స్వీకరించే	57
▁మానిపులేట	57
▁దృగ్విషయం	57
▁కార్పొరేషన్	57
▁విశ్లేషణలో	57
▁వివరించగలరు	57
డమే	57
ును	57
▁వోల్టేజ్	57
▁రంధ్రాల	57
▁తీసుకుంటున్నాను	57
▁నిష్పత్తిలో	57
▁జియోమెట్రిక్	57
▁సార్టింగ్	57
▁పొందబడతాయి	57
▁క్రమానికి	57
▁రుణాలు	57
▁కర్ల్	57
▁పెయిర్స్	57
▁కోఎఫిషియంట్స్	57
ిఫికేషన్	57
qua	57
▁హాంకెల్	57
స్ట్రెప్టావిడిన్	57
▁కణజాలాల	57
▁ఆమ్లాలు	57
▁బయోకెమిస్ట్రీ	57
స్ట్రన్	57
▁సర్కులర్	57
▁దుర్బలత్వం	56
▁లబ్ధం	56
ಲ್	56
▁చేయడమే	56
▁శాస్త్ర	56
కపోవచ్చు	56
▁రోగుల	56
▁ప్రారంభించారు	56
▁దోషాల	56
▁సహాయపడటానికి	56
▁వ్యూహాలు	56
▁పారామితులను	56
బింబిస్తుంది	56
మాయా	56
▁సరళత	56
▁సందర్భ	56
▁ఉపయోగించకుండా	56
▁దేనినైనా	56
టేబుల్	56
సంగ్రహంగా	56
▁పెంచుతాము	56
▁మినీ	56
▁పోతుంది	56
అని	56
▁చురుకు	56
▁కోరుకునే	56
▁ESP	56
▁గ్రాంట	56
▁పెరుగుతోంది	56
▁డే	56
▁సూచించబడిన	56
▁ఉన్నారా	56
▁వెనుకకు	56
▁ಇಮೇಲ್	56
▁డీకోడర్	56
▁డివైజ్	56
▁వల్నరబిలిటీల	56
▁ఆధారపడే	56
▁సెక్టార్స్	56
ఏదైనా	56
▁కొనడానికి	56
▁పాజ్	56
ించబడుతుంది	56
▁ఉంటాడు	56
అనగా	56
▁గురుత్వాకర్షణ	56
▁ఫెక్షన్	56
▁దృక్పథం	56
▁ఫోటాన్	56
▁అనబడే	56
▁అసెంబ్లీ	56
బర్ట్	56
ట్యూడ్	56
▁నీడ	56
▁ఆర్టికల్	56
▁సంఘర్షణ	56
▁సిలిండ్ర	56
▁మిట్	56
▁ప్రిఫరెన్స్	56
▁ర్యాంక్స్	56
ుల	56
▁చేయబోయే	56
డ	56
▁తొమ్మిదిలో	56
ఐదు	56
▁రెండెర	56
▁తీసుకోబడింది	56
▁అంకెలు	56
▁క్లోరైడ్	56
▁డిఫరెన్సెస్	56
▁పూల్	56
▁చర్చించుకున్నాం	56
▁cf	56
▁సంభవించిన	56
▁కన్సిస్టె	56
▁ఫాస్ఫేట్	56
▁సీరమ్	56
▁మోలార	56
▁డిఫ్లేషన్	56
▁పికె	56
▁కనుగొనాల్సి	56
▁ఫినై	56
▁లాగ్రాంజ	56
▁పెర్సెంటేజ్	56
▁−	56
∊	56
▁ఐసిటి	55
▁స్కెచ్	55
▁మిత	55
తను	55
▁చేర్చడానికి	55
▁పత్రాల	55
▁సామర్థ్యాలు	55
▁మెట్రిక్స్	55
▁రెస్టారెంట్	55
▁కనిపించడం	55
▁అర్హత	55
▁సమతుల్యం	55
▁సెన్సార్	55
ైల్	55
▁నిర్దిష్టంగా	55
▁కొరెల్	55
▁ఉల్లంఘన	55
▁ముఖాముఖి	55
ಂಬಂ	55
▁ప్రమాణ	55
డీ	55
▁వాక్యం	55
▁సెట్ల	55
▁పొరలో	55
▁వృత్తాకార	55
▁చూపుతాయి	55
▁చూసినట్లయితే	55
▁క్రియాశీల	55
▁పంచుకోవడం	55
▁సంస్కరణ	55
▁ప్రారంభమైంది	55
▁డాట్స్	55
▁బ్లెండ్	55
▁సవాలుగా	55
▁మేధో	55
▁ప్యాకేజీల	55
▁అంకిత	55
నేచుర	55
▁ఆధారపడుతుంది	55
▁ధనాత్మక	55
▁ఆధారాల	55
▁సూచిస్తుంద	55
▁వచ్చి	55
▁కెపాసిటీ	55
▁టైమ్స్	55
కామర్స్	55
▁జోడించడానికి	55
▁చతురస్ర	55
గుర్తించబడుతుంది	55
▁వ్యాసార్థం	55
▁ఆకార	55
▁రూపాయల	55
▁రిటెన్షన్	55
▁సంభవిస్తాయి	55
▁అస్థిరమైన	55
▁డిస్పోజ	55
▁అడి	55
▁లెట్	55
▁cn	55
▁సారాంశంగా	55
▁రియాజెంట్	55
▁సోడియం	55
▁అబ్జర్వేషన	55
▁సదిశ	55
~	55
▁ప్యూరిఫికేషన్	55
▁ఎగ్జైటేషన్	55
▁ప్రత్యేకత	54
▁బ్రౌజ్	54
▁అనుసరించాలి	54
▁ప్రదర్శిస్తుంది	54
ధీకృత	54
సైబర్	54
▁AI	54
▁సా	54
శ	54
▁బూలియన్	54
▁వర్తిస్తాయి	54
▁రూపొందించాలి	54
▁మనమందరం	54
▁కాం	54
▁ఏర్పడతాయి	54
▁పాల్గొనే	54
▁ಗಳ	54
▁డెన్సిటీ	54
▁వేతనాలు	54
▁వివరించ	54
▁చెయ్యగల	54
▁SET	54
▁మ్యూజిక్	54
▁క్వాంట	54
▁విధాన	54
▁ధృవీకరించడం	54
▁ఫాంగ్	54
▁సింబల్	54
▁సవరణలు	54
▁గుర్తించండి	54
▁ఓమ్ని	54
▁చూస్తుంది	54
▁సాధ్యపడుతుంది	54
▁తాను	54
▁పేర్కొన	54
ుట	54
▁చేయబడడం	54
ాల	54
క్లాత్	54
▁లక్షణాలతో	54
ిస్తున్నారు	54
▁మార్చుతాను	54
▁కాగా	54
▁ప్రెడిక్ట	54
▁ఆరోగ్యం	54
▁అగ్ని	54
సివ్	54
ప్పటికే	54
▁జర్నల్	54
▁జరిగినప్పుడు	54
తం	54
▁ప్రాపర్	54
▁లాభాలు	54
▁IDEA	54
▁ప్రమాద	54
▁కోరుకుంటారు	54
▁మల్టిప్లై	54
▁బంతి	54
▁అపరాధి	54
▁పద్ధతులతో	54
▁బెడ్	54
▁సున్నాలు	54
▁విరామ	54
ుక్క	54
▁మోల్	54
▁మూమెంట్	54
▁స్టాన్స్	54
▁ఎత్తున	54
▁CT	54
▁లెక్కించాము	54
▁or	54
▁పొందితే	54
▁వెనుకబడి	54
▁ఎక్సర్సైజ్	54
▁సిలికా	54
▁ఎండ	54
▁వేయండి	54
▁సిక్	54
▁ఎక్స	54
▁mRNA	54
-(	54
bi	54
▁టిఎల్	54
▁ధర్మ	54
▁స్పెసిమెన్	54
▁ప్యాన్షన్	54
▁శోధకం	54
▁సంతృప్తిపరుచును	54
▁ఆర్గానెల్లెస్	54
▁నిర్ణాయకం	54
▁వారానికి	53
▁చేయకపోతే	53
వివిధ	53
▁రొటీన్	53
▁కళ	53
▁చేస్తున్నారా	53
ందరికీ	53
▁సంఖ్యాత్మక	53
▁పేలోడ్	53
▁ప్రతికూలతల	53
▁పెంచే	53
▁ప్రారంభిస్తాను	53
▁రిట్రీవల్	53
▁పిక్చర్స్	53
▁నిరోధిస్తుంది	53
▁సరియైనది	53
▁ಯಾವುದ	53
▁పంపినవారి	53
▁సాధారణీకరణ	53
▁అస్పష్టత	53
▁విస్తరించవచ్చు	53
▁సున్నిత	53
▁సంతతి	53
▁ప్రణాళికలు	53
▁వైరస్లు	53
▁హ్యాండ్లింగ్	53
▁పట్టుకోవడం	53
ిటీ	53
▁ముందరి	53
▁దిగుమతి	53
▁అందరి	53
▁మే	53
పర్	53
▁తెల్ల	53
▁రక్షణను	53
▁పరిశీలించాలి	53
▁రౌటర్	53
▁చేయి	53
▁చేస్తోంది	53
▁ఇంత	53
▁మాయ	53
▁చెందినవి	53
సాఫ్ట్	53
▁సౌకర్యాల	53
▁డెఫినిషన్	53
▁నిర్లక్ష్యం	53
ab	53
ly	53
▁పెన్సిల్	53
▁స్లాష్	53
▁అవ్యక్త	53
▁కనెక్టర్	53
▁రంగ	53
▁మెట్రిక్	53
క్స్	53
▁సమక్షంలో	53
గలగాలి	53
▁am	53
ష్	53
▁నడిచే	53
ేటెడ్	53
▁శుద్దీకరణ	53
▁సీ	53
▁In	53
▁ప్రజెంటేషన్	53
▁బ్ల	53
▁వర్తించదు	53
▁టెయిల్	53
▁ఆర్సెనిక్	53
▁మాలిక్యుల	53
▁కన్జ్యూమ్	53
ినరీ	53
▁బాకులోవైరస్	53
▁ఎక్సప్లిసిట్	53
▁పర్సెంటైల్	53
▁న్యూమరేటర్	53
▁స్పెసిఫిసిటీ	53
▁bx	53
▁థంబ్	52
▁రంగుతో	52
▁ఐడెంటిఫికేషన్	52
▁వ్యాపారాలు	52
▁నిర్మాణాలను	52
▁లెమ్మా	52
▁అడ్జెసెన్సీ	52
▁సారూప్యత	52
▁పంచ్	52
▁పునర్నిర్మించ	52
▁నిర్వచించే	52
యానిమేటెడ్	52
దా	52
▁వాస్తవం	52
▁చేసినా	52
▁సంతోషంగా	52
▁విషయంగా	52
▁కొందర	52
▁వాడకాన్ని	52
▁మెరుగైనది	52
▁రెండింటిని	52
▁లెక్కిద్దాం	52
▁ఏమైనా	52
▁నొక్కితే	52
▁అలవాటు	52
▁లెంగ్త్	52
▁ప్రామాణీకరించ	52
▁ఆలిస్	52
ేర్	52
▁తార్కిక	52
లేని	52
▁ఉండేవి	52
▁తరగతికి	52
▁విండోకి	52
▁పంపే	52
▁స్టార్ట్	52
▁వరుసలోని	52
▁బ్లిన్	52
▁సమీపంలో	52
కొంత	52
▁విషయ	52
▁లైబ్రరీల	52
▁మెసెంజర్	52
▁రైటింగ్	52
▁ఆకృతిలో	52
▁పూర్వ	52
▁అడ్డంకి	52
▁సరళమైనది	52
▁శాస్త్రంలో	52
▁సమాధానాలు	52
▁తప్పులు	52
▁కుడివైపున	52
▁కొనసాగించడానికి	52
▁పెరిగే	52
▁వాక్యూమ్	52
▁ప్రొటెక్షన్	52
▁నమ్మక	52
▁అనలిటిక	52
▁ఉష్ణోగ్రతను	52
▁లీ	52
▁దాడిని	52
ont	52
▁కావాల్సిన	52
▁మాట్లాడ	52
▁పెట్టవచ్చు	52
▁ఉద్దేశించబడింది	52
ర్డ్	52
▁కనుక్కోవడానికి	52
దిగా	52
▁ఫోక	52
▁ఆథరైజ్	52
▁ఇచ్చును	52
▁ఆవేశ	52
▁ఎమిటర్	52
▁చర్చాంశం	52
▁పేస్ట్	52
▁సిస్టమాటిక్	52
▁విలువపై	52
▁తీసుకోబడిన	52
▁యూనిటీ	52
▁రాయవచ్చు	52
▁చెందును	52
ο	52
స్ట్యాటిస్టిక్స్	52
▁బౌండరి	52
▁ఫ్రీడ్మాన్	52
▁Tn	52
▁కమ్యుటేటివ్	52
▁జీవక్రియ	52
▁అవధి	52
▁సిగ్నిఫికంట్	52
▁పరిశోధనా	51
ేష్	51
▁ప్లాంట్	51
▁పంపవచ్చు	51
య	51
▁వ్యవస్థలలో	51
దర్	51
▁మార్చాల్సి	51
▁సంవత్సరాలుగా	51
▁యూజర్లు	51
▁పిక్	51
▁లైసెన్స్	51
▁మానవుల	51
▁చేయబోతున్నారు	51
▁మెమోరి	51
▁ప్రపంచానికి	51
ರ	51
▁నిర్వహిస్తారు	51
▁ఎరేజ	51
▁యుని	51
▁అప్రయోజనాలు	51
▁రూపాల్లో	51
▁ప్రవణతలు	51
▁ఆథరైజేషన్	51
▁ఫార్మాటింగ్	51
▁సంబంధ	51
▁ఆహారం	51
వ్యక్తం	51
పంపినవారు	51
▁పంపిన	51
ಿಗೆ	51
▁నిర్వహణలో	51
▁చూప	51
▁అనుకూలత	51
▁మ్యుటేషన్	51
▁విషయాలలో	51
▁క్లిష్టమైనది	51
▁పార్టిషనింగ్	51
▁నేర్చుకో	51
▁ఇక్కడి	51
▁స్టెప్స్	51
▁మెక్	51
▁దూర	51
▁వినియోగదారుడు	51
▁రిజిస్టర్స్	51
▁ప్లేట్స్	51
▁కోవియారిన్స్	51
▁దశలలో	51
▁ప్రజలను	51
▁పిన్	51
▁వర్గీకరించ	51
▁వేయ	51
▁ఊహించడం	51
▁పుట్స్	51
ಡ್	51
▁వర్తింపజేయవచ్చు	51
▁అంశానికి	51
▁ట్రి	51
▁చేస్తానంటే	51
▁రిట్రైవ్	51
ధ	51
బులియన్	51
▁స్కేలార్	51
▁పేర్కొనడం	51
▁ప్రారంభిస్తారు	51
▁ఆయన	51
▁ఒంటరిగా	51
▁సులభమైనది	51
సు	51
▁జామెట్రిక	51
▁యాక్టివేట	51
▁విఫల	51
l	51
▁అవుతున్న	51
▁వచ్చినది	51
▁వాణిజ్యపర	51
ాలనుకున్నప్పుడు	51
▁వాల్యూడ్	51
▁రీడర్	51
▁రెసిప్రొక	51
▁స్ట్రాట	51
▁చూడ	51
▁యూవి	51
జోన్	51
▁మారుతుందని	51
జెన్సీ	51
▁చెప్పబోతున్నాను	51
▁విపరీతమైన	51
▁వేయబడుతుంది	51
బోలిక్	51
▁బాక్టీరియా	51
▁ఫ్యాట	51
▁రూంగే	51
▁[-	51
▁ఆఫీస్లో	50
▁చేతిలో	50
▁స్టేజింగ్	50
▁సబార్డినేట్	50
▁ప్రయత్నించడం	50
▁ప్రింటెడ్	50
▁ఎనిమిదవ	50
▁అల్ట్రా	50
▁అధిగమించడానికి	50
▁అన్వేషించడానికి	50
▁నడుస్తుంది	50
▁ప్రాఫిట్స్	50
▁బాధితుల	50
▁పదార్థాలు	50
▁తరంగాల	50
▁హిట్	50
▁సంగ్రహించ	50
▁స్టాంప్	50
రందరూ	50
▁రేడియస్	50
▁ఫోరమ్	50
దీనిలో	50
▁అసెట్	50
టూ	50
▁పరీక్షించడం	50
▁నిర్వహించగల	50
▁సామర్ధ్యం	50
▁బాధితుడి	50
▁కర్స	50
▁చెప్పగలను	50
▁క్రోమోజోమ్	50
▁చేయలేదు	50
కం	50
▁కలుపుతుంది	50
▁చర్చించబడింది	50
▁వర్తింపజేయండి	50
▁వేలా	50
▁అన	50
▁సడలింపు	50
▁క్యాండిడేట్	50
▁లెటర్స్	50
▁ప్రాక్సీ	50
ఇవన్నీ	50
▁కాన్ఫిగర్	50
▁థియరమ్	50
▁ఉపయోగాలను	50
▁నిర్వహించడంలో	50
▁ధ్వని	50
▁షరతులు	50
▁పఠన	50
▁బహిరంగ	50
▁అనుభవాల	50
▁ర్యాంకింగ్	50
▁చేస్తుందా	50
▁రెస్పాన్స్	50
▁కెర్నెల్	50
మయ్యే	50
ఎఎన్	50
▁చదివిన	50
▁వెళ్తున్నాము	50
▁స్కూల్	50
▁MD	50
▁చేయబడుతున్న	50
▁అయినట్లయితే	50
▁పీరియాడిక	50
సిస్	50
▁దేశాలలో	50
ల్యూట్	50
▁కారణమవుతుంది	50
▁చక్రం	50
▁పల్స్	50
▁}.	50
▁వేల్యూ	50
▁MX	50
▁ప్రయోగంలో	50
▁పెరగడంతో	50
▁యువి	50
▁ఉష్ణ	50
▁మెల్లి	50
▁ద్రావణంలో	50
▁చార్పిట్	50
▁వేజెస్	50
▁యాంటీబయాటిక్	50
▁పిసిఆర్	50
▁కంపారిజన్	50
▁ఎపిటోప్	50
▁స్ట్రైట్	50
̅	50
▁యురేనియం	50
▁ఇన్ఫినిటి	50
▁బంధితమై	50
▁చిత్రీకరించ	49
▁మద్రాస్	49
▁ಪರ	49
▁సహాయక	49
▁అందర	49
గలిగే	49
▁డ	49
▁ప్రభావాలను	49
▁ఫ్యాక్స్	49
▁ప్రకృతి	49
▁బాటమ్	49
▁ఉద్దేశ్యంతో	49
▁నేర్చుకుందాం	49
చ	49
▁కళాశాల	49
MS	49
ಾಗಿ	49
▁ನಲ್ಲಿ	49
▁తీసుకోవలసి	49
▁ಎಲ್ಲ	49
▁లింక్స్	49
▁బోల్డ్	49
▁వెర్టె	49
▁MS	49
▁ఓరియెంటెడ్	49
బ్యాక్	49
▁సాధించ	49
▁పాలసీలు	49
▁యూజర్లకు	49
▁వ్యవస్థీకృత	49
▁తొమ్మిదవ	49
వద్దు	49
▁కాస్టింగ్	49
▁కలిగిస్తాయి	49
▁పరిగణలో	49
▁గలవి	49
▁ఫింగర్	49
▁స్లిప్	49
▁గుణాత్మక	49
▁చిట్కాలు	49
▁చెయ్యబడింది	49
▁ఫీచర్లు	49
▁సన్నని	49
▁www	49
▁లోనే	49
▁టెర్మినల్	49
▁II	49
▁రౌండ	49
▁నియమాన్ని	49
▁సృష్టించ	49
▁కదలికలు	49
రైట్	49
▁క్రికెట్	49
రిలేషనల్	49
▁భాగంపై	49
▁ఉంటాను	49
▁అకౌంట్స్	49
▁పారామితులు	49
▁అమర్చడం	49
పరంగా	49
▁సరిపడ	49
▁సూచించిన	49
▁భౌతికంగా	49
▁ఒకటే	49
▁మాధ్యమాల	49
▁లైబ్రరీలు	49
▁మ్యాక్జిమమ్	49
▁సెపరేట	49
▁అందుచేత	49
▁జర్నల్స్	49
▁షరతుల	49
▁టాబ్లెట్	49
▁ఎడమవైపు	49
▁ఇంట్రడక్షన్	49
▁కుటుంబ	49
▁పక్క	49
▁జనాభాలో	49
▁ద్విమితీయ	49
▁బహుమతి	49
▁పేర్కొనబడింది	49
▁కార్డ్స్	49
ెట్	49
▁బెర్నౌలీ	49
▁నిర్వచింపబడును	49
ించబోతున్నాను	49
▁పెంచుతాయి	49
జెక్టివ్	49
▁ఎక్స్ప్రెషన్	49
▁wi	49
▁రుణం	49
▁బాండ్స్	49
▁గణిద్దాం	49
▁ప్రెడిక్టర్	49
▁నీటిలో	49
▁ఇంటర్పోలేట	49
▁ప్రతిరక్షక	49
▁అవశేషాల	49
▁బార్స్	49
▁నార్తర్న్	49
▁కుర్తోసిస్	49
వీక్షించిన	49
▁స్టెయినింగ్	49
▁కోసెట్	49
డిబిఎంఎస్	48
▁ఎడ్జెస్‍	48
▁ఆటోమేట	48
▁ఉపయోగపడే	48
ಿಶ	48
▁వెళ్తాయి	48
▁వైఖరి	48
▁ఒకదానిపై	48
▁ప్రాక్టికల్	48
▁అమ్మకాలు	48
▁ఒక్కసారి	48
▁ఆట	48
▁ప్రమాదాన్ని	48
▁పొందుతాయి	48
▁కాంట్రడిక్షన్	48
▁ప్యాకేజీ	48
▁పద	48
▁డిజిట్స్	48
▁ac	48
▁పాయింటర్	48
▁క్రెడెన్షియల్	48
▁ఇంజనీర్	48
▁పంచుకునే	48
▁మార్పులకు	48
▁ದಾ	48
▁సౌకర్యవంతమైన	48
▁పాప్	48
కలర్	48
▁ఉపయోగిస్తుంటే	48
▁మీరే	48
పెన్	48
▁ద్రవ్య	48
▁స్పందన	48
▁గుర్తించబడిన	48
▁భాగాలలో	48
▁థీరమ్‍	48
▁పొడ	48
▁ఉపయోగించాల్సి	48
జన్	48
▁ಎಂದ	48
▁కేర్	48
▁మానిపులేషన్	48
లోనైనా	48
▁అగ్రిగేషన్	48
▁నగరాల	48
▁ఎఐ	48
▁నిర్మిస్తాము	48
▁జర్నలిజం	48
▁మిగిలినవి	48
ట్స్	48
▁విధంగానే	48
అవుట్	48
OR	48
▁ఉపయోగించబడుతాయి	48
గ్రామ్	48
▁ట్రాక్ట్	48
▁హెల్	48
▁విచారణ	48
▁సభ్యులు	48
సమ్	48
కా	48
▁చెట్టు	48
▁విక్రయించ	48
▁Rn	48
▁అవాంఛిత	48
▁చెబితే	48
▁ప్రచురించ	48
▁నిరోధించడం	48
కో	48
▁రక్షించ	48
▁నిర్వచించడానికి	48
ఎమ్	48
▁నిర్ణ	48
ీత	48
పాడ్	48
▁చేయబడవు	48
▁సేకరించి	48
రే	48
▁ఖచ్చితమైనది	48
▁గ్యాప్	48
బడుతున్నది	48
▁ఫంక్షన్ల	48
▁పూర్ణాంకం	48
సార్లు	48
▁మాగ్న	48
▁రంగాలు	48
▁నియంత్రించ	48
▁ధన	48
▁అపారమైన	48
ిల్	48
▁జన్యువులను	48
▁బొరుసు	48
▁వీడియోలో	48
▁నోటేషన్	48
▁చక్కెర	48
▁లింకర్	48
▁one	48
▁లైసేట్	48
▁టీటా	48
▁బయోమార్కర్	48
▁డిస్పెర్సివ్	48
▁హ్యాంకెల్	48
▁ఏకమితీయ	48
▁రిజల్ట్స్	48
▁పిడిఇ	48
▁ఆవరేజస్	48
▁హోమోమార్ఫిజం	48
▁ప్రారంభించాలి	47
▁చేయబోతున్నాం	47
▁ఖాప్రా	47
▁అందించాము	47
▁ಸೆಕ್ಯೂರಿಟಿ	47
▁సన్నిహిత	47
▁బుకింగ్	47
వా	47
▁ఎలక్ట్రిక	47
▁క్రిప్టోగ్రఫీలో	47
▁అనవచ్చు	47
▁ఒకటిని	47
▁సోర్సస్	47
▁కనిపించదు	47
▁పెర్ఫార్మన్స్	47
▁బాణం	47
▁జోడించబడిన	47
▁వ్యాఖ్యానం	47
▁అభ్యర్థించిన	47
▁ఎరేజర్	47
▁సెరిఫ్	47
ಿತ	47
▁అద్దె	47
▁పన్ను	47
కాలంలో	47
▁స్టాప్	47
▁న్యూరాన్	47
▁అన్న	47
▁మ్యాప్స్	47
▁ఆర్గనైజషన్	47
▁ప్రోత్సహించడ	47
▁మోసాలు	47
▁బీజగణిత	47
▁గుర్తించగలదు	47
▁ఛానల్	47
▁సమస్యగా	47
▁బ్లెండ	47
▁నిర్వహించిన	47
▁సేకరణను	47
▁ముడిపడి	47
▁డైరెక్టరీ	47
▁ತ	47
▁అమర్చిన	47
▁లియర్	47
▁వేసిన	47
▁డిజైనర్స్	47
▁హాజరు	47
▁నిర్ణయించండి	47
▁త్రి	47
▁అంశంపై	47
▁వృత్తం	47
▁సినారియో	47
xj	47
▁నిర్మించ	47
▁పెట్టారు	47
▁కెర్నల్	47
▁సురక్షితం	47
▁AA	47
▁యూనివర్సిటీ	47
▁లిమిటెడ్	47
ఎఎల్	47
రెండవది	47
▁క్రొమాటిక్	47
▁సర్క్యులర్	47
▁సమ్మతి	47
డర్	47
▁యూసేజ్	47
▁పంప	47
▁వివరణలు	47
▁వెళ్లినప్పుడు	47
▁కార్యకలాపాలలో	47
ికి	47
▁చూసాము	47
▁క్యాచీ	47
▁లెక్కిస్తుంది	47
స్టాండర్డ్	47
విభిన్న	47
▁వెళ్తే	47
▁మొదటగా	47
▁ప్రిన్సిపల్	47
▁చీలిక	47
▁వెళ్తున్నాను	47
▁సేకరించే	47
▁రెట్టింపు	47
▁అనువైనది	47
▁ఈక్వివలెంట్	47
▁గుర్తులు	47
▁di	47
▁చర్చించుకుందాం	47
▁హ్యాష్	47
▁ప్లై	47
▁ఫుట	47
▁అనుకోవచ్చు	47
▁సాధించబడుతుంది	47
▁రిపీటె	47
▁మొక్కల	47
▁లెక్కించ	47
▁ఏడులో	47
▁నిర్వచిస్తాము	47
బస్	47
▁నివారించవచ్చు	47
▁డ్రైవెన్	47
▁వివిక్త	47
▁సమ్మరీ	47
▁జాతుల	47
▁నాలుగులో	47
▁క్లోజర్	47
▁పద్ధతిగా	47
▁తీసుకున్నాం	47
▁మ్యుచ్యుయల	47
▁ఈక్వేషన్లో	47
▁X̄	47
▁క్రోమాటోగ్రఫీలో	47
▁స్ట్రాటిఫ	47
▁రీఏజెంట్	47
▁మార్షల్	47
▁స్టాటిస్టికల	47
▁టేబల్	47
▁క్వార్టైల్స్	47
▁బర్జర్	47
cos	47
▁యాంప్లిఫికేషన్	47
▁bk	47
▁కణంలో	47
▁సుదూర	46
▁పత్రాన్ని	46
▁ఐటిఎస్	46
▁మాట్లాడబోతున్నా	46
▁నైపుణ్య	46
▁ನೆಟ್	46
▁చూస్తున్నాము	46
▁డ్రాలో	46
▁వస్తోంది	46
▁ಪುರಾವೆಗಳ	46
▁విభిన్నమైన	46
▁మెషిన్స్	46
రింగ్	46
▁కమింగ్	46
▁సాల్వ	46
▁బాధ్యతలను	46
▁పిల్లలు	46
▁బిగ్	46
వచనాన్ని	46
▁వైజ్	46
ొ	46
▁ప్రయాణించే	46
▁సంగ్రహిస్తుంది	46
▁అవుతున్నాయి	46
ున్నారు	46
▁బంధం	46
▁యైటీ	46
▁చూశారు	46
▁వాక్య	46
▁మెకానిజమ్స్	46
▁వర్ణమాల	46
▁అధ్యయనాల	46
▁క్లాసిక్	46
▁సమాహారం	46
▁ఆక్టివేట	46
వర్గీకరించడానికి	46
▁చర్చిద్దాము	46
▁చౌకైన	46
▁సదుపాయం	46
ఎలక్ట్రానిక్	46
▁మానవులు	46
ాసివ్	46
▁అక్కడి	46
▁పారామితుల	46
▁హ్యామిల్టోనియన్	46
▁గడువు	46
▁నిరూపించవచ్చు	46
▁రాస్టర్	46
▁స్ట్రిప్	46
▁పేటెంట్	46
▁ఆలోచించ	46
▁కంపెనీల	46
▁మల్టీమోడల్	46
▁అవసరమో	46
▁తర్వాతి	46
▁లేఔట్	46
▁చేయటానికి	46
▁నవీకరణల	46
అనుమతించబడుతుంది	46
▁CBC	46
▁ఈజెన్వాల్యూ	46
పుడు	46
▁మైన్	46
▁పరిశీలించడానికి	46
▁యాజమాన్యం	46
▁శాశ్వత	46
▁ఉచితం	46
▁చూపించండి	46
▁శ్రేణిలో	46
▁ఇబ్బందులు	46
▁బుక్స్	46
▁సంపత్తి	46
▁డౌ	46
▁పద్ధతులకు	46
ఫైల్	46
▁విలక్షణమైన	46
▁ఉపయోగించుకునే	46
ప్రభావితమవుతుంది	46
it	46
▁డిగ్రీలు	46
▁ప్రదేశాల	46
▁ఎవల్యూట	46
▁HTTP	46
▁సాహిత్యంలో	46
▁గిల్	46
హ	46
▁సార్వత్రిక	46
▁ఇంపె	46
▁vi	46
▁వైవిధ్యాల	46
▁బూడిద	46
▁ఈనాటి	46
▁గుర్తుంచుకోవడం	46
▁ఆధారపడటం	46
ಾವು	46
▁AT	46
▁కాకపోవచ్చు	46
▁రేషనల్	46
▁ఇస్తుందని	46
పెద్ద	46
ుకోవాలి	46
ుకోవడం	46
▁టోపీ	46
▁నావిగేట	46
▁సన్నివేశం	46
చివరగా	46
▁తెలుసుకుంటారు	46
వాస్తవానికి	46
▁కదిలించండి	46
▁సమాధానాన్ని	46
▁జాయ	46
▁నైట్రో	46
▁నిధులు	46
▁తీసుకుంటాయి	46
▁పోస్	46
▁తీర్మానాలు	46
▁Pn	46
▁స్వచ్ఛత	46
▁బంధిస్తుంది	46
▁రోగనిర్ధారణ	46
▁అల్బుమిన్	46
▁ఆనయాన్	46
▁tan	46
▁కానోన	46
▁ఫ్రాక్షన్	46
▁ద్రవం	46
▁ప్రతిరోధకాల	46
▁ఫ్రాక్షనేషన్	46
▁అవే	45
▁ప్రయాణించ	45
▁పోస్టాఫీసు	45
ాత్మక	45
▁గుర్తించబడతాయి	45
▁ఎలక్ట్రికల్	45
▁బాగుంటుంద	45
▁మాదిరిగా	45
వో	45
ಿಕ	45
▁ಲಾಗ್	45
▁అవేలబిలిటీ	45
▁ఉపాధ్యాయుడు	45
▁కండిషనల్	45
▁పరికరంలో	45
▁చేస్తార	45
▁నైనా	45
▁దశగా	45
▁తగినవి	45
▁ప్రింటర్లు	45
▁రూటర్	45
▁లేత	45
▁సోర్సింగ్	45
▁ఫైనాన్సింగ్	45
▁స్ట్రాక్షన్	45
▁ఆదేశాలను	45
▁కంపోజ్	45
▁మినహాయింపు	45
బిలిటీ	45
▁అంచుల	45
▁లక్షల	45
▁కలుస్తుంది	45
▁ప్రకృతిలో	45
▁థ	45
▁Vi	45
నుండి	45
▁నైతికత	45
▁ETL	45
▁ఆదేశాలు	45
▁చర్యలకు	45
▁అనుమతించడం	45
▁కస్టమ్	45
▁నిర్వచించారు	45
ನ್	45
▁వ్యాపారాలకు	45
▁ఇచ్చాను	45
▁పొజిషన	45
ందరూ	45
▁శబ్ద	45
▁టెన్షన్	45
▁రక	45
▁నిరోధక	45
సైట్	45
▁సందర్భాలు	45
తరువాతి	45
▁హక్కులు	45
▁ప్రిన్సిపుల్స్	45
▁మొదలవుతుంది	45
▁బ్రాండ్	45
లాగ్	45
▁క్షేత్రం	45
యింగ్	45
▁క్రియేటివీటి	45
▁మరేదైనా	45
ిద్దాం	45
▁ఉపయోగంలో	45
▁అనుకూల	45
▁కాపీలు	45
▁మీడియాలో	45
▁JPEG	45
సైన్స్	45
▁లై	45
▁మార్చాలనుకుంటే	45
▁నిరూపించాము	45
మర్	45
▁ప్రారంభిస్తే	45
▁ప్రత్యేకమైనది	45
▁ఒపాసిటీ	45
▁గ్లో	45
▁బీర్	45
O	45
▁పెరిగేకొద్దీ	45
▁పద్నాలుగు	45
▁వాయువు	45
▁మాక్జిమమ	45
▁కార్బన్	45
ఆర్డర్	45
▁చెందితే	45
▁గమనించిన	45
▁క్విక	45
▁ఆర్కైవ్	45
▁వేయి	45
▁బే	45
ెస్ట్	45
▁తీసుకోబడతాయి	45
▁స్థిరీకరణ	45
▁బేక్	45
▁సాధారణమైనది	45
▁లీనియారిటీ	45
గేట్	45
▁పారామీటర్ల	45
▁మామూలు	45
▁సాధనలో	45
▁ఇండక్	45
▁కంటిన్	45
▁వ్యక్తీకరణలో	45
▁కీటకాల	45
ప్రికాషనరీ	45
fi	45
▁క్రోమటోగ్రఫీని	45
▁మైక్రోఅరే	45
▁ఎఫ్ఈ	45
▁ఆంటిజెన్	45
▁ఊహించవచ్చు	44
▁ఫైళ్ళ	44
▁రెండింటిలో	44
▁బ్రౌజింగ్	44
▁కొనసాగుతున్న	44
▁కార్డుల	44
▁లోగో	44
▁ట్యూటర్	44
▁సస్పెన్షన్	44
▁దాడులకు	44
▁ఏమైనప్పటికీ	44
▁ಮೂಲಕ	44
▁అడుగుతుంది	44
▁పెంచండి	44
ಞ	44
▁సిద్ధాంతాలు	44
ఎల్	44
▁లావాదేవీలను	44
ాటిన్	44
▁పంచ	44
▁క్వరీ	44
▁IDS	44
▁అనుసరించాల్సిన	44
▁సామాగ్రి	44
▁కాంట్రాడిక్షన్	44
▁యూజ్	44
▁పునరావృతమయ్యే	44
▁చేసినట్లుగా	44
నో	44
▁పుస్తకంలో	44
▁కోల్	44
▁అంతర్	44
▁మళ్ళి	44
▁తీసుకోవడంలో	44
▁రన్నింగ్	44
▁అసాధారణ	44
ఫ	44
▁కేటాయించిన	44
మాటిక్	44
▁ఉదాహరణకి	44
▁వచ్చాము	44
▁కలప	44
▁ರ	44
▁డ్రాఫ్ట్	44
▁ఉంచుతారు	44
▁రిఫ్లెక్షన్	44
▁కోరుకుంటే	44
▁విశ్వాసం	44
▁సెలవు	44
▁అనుమతించ	44
▁అటాచ్	44
ైన్	44
▁ఇష్టపడతారు	44
▁నిర్మించిన	44
▁కరెక్ట	44
▁విస్మరించ	44
▁డయల్	44
▁నిమిష	44
▁తెరపై	44
▁ప్రెషన్స్	44
▁సరిహద్దులు	44
▁బీమా	44
▁భాగిస్తే	44
▁విద్యుదయస్కా	44
▁పటం	44
ప్రోగ్రామ్	44
▁ఆపరేటర్స్	44
▁పాఠకుల	44
▁ఎనలిటిక	44
▁నావిగేషన్	44
▁అవ	44
▁వర్గీకరించడం	44
బోతున్నారు	44
▁జోనల్	44
▁ప్రచురించిన	44
▁చుక్కల	44
▁అంతర్నిర్మిత	44
▁ఇస్తాము	44
డొమైన్	44
పారామెట్రిక్	44
▁ప్రభుత్వానికి	44
▁పాల	44
▁అవలోకనాన్ని	44
▁ఎనిమిదిలో	44
▁రిజల్ట్	44
▁పొందినది	44
▁ప్రపోర్షనల్	44
▁కనిష్టం	44
▁ex	44
▁సారాంశంలో	44
▁పేద	44
.....	44
▁పదవ	44
▁ఐజెన్	44
▁క్రోమటోగ్రఫ	44
▁ఎకానమిక్	44
▁xp	44
▁సైటోమీటర్	44
▁పరిమెంట	44
▁థియరం	44
▁క్రోమాటోగ్రాఫ	44
Xn	44
▁ఏస్	44
▁స్ట్యాటిస్టిక	44
▁పరిమెంట్	44
▁LU	44
▁ఆమోదయోగ్యమైన	43
▁సెన్సిటివ్	43
పైన	43
▁ప్రాదేశిక	43
▁వ్యూహ	43
▁సాంస్కృతిక	43
▁వాడుకలో	43
▁పరికల్పన	43
▁ఉద్దేశపూర్వక	43
▁సమావేశం	43
▁ట్రాన్సాక్షన	43
▁చీమ	43
ಾಗ	43
ak	43
తాయి	43
ాలనుకుంటున్న	43
▁చూస్తున్న	43
▁కార్ల	43
▁పదాలలో	43
▁ఉపయోగించడ	43
ಗಳನ್ನು	43
▁విభాగాలలో	43
▁యునిక్	43
మూడు	43
▁హ్యాక్	43
▁కేటగిరీలు	43
▁మేకింగ్	43
▁రిజిస్ట్రేషన్	43
ాయని	43
▁పరామితులు	43
▁సమూహంగా	43
▁ఆడ	43
▁చూడబోయే	43
▁బిఐ	43
▁తార్కికం	43
ైజ్	43
▁కొత్తది	43
షియన్	43
▁తగ్గిస్తాను	43
లాగే	43
▁వస్తువులకు	43
▁ముఖ	43
క్రో	43
నిర్ణయించుకోవాలి	43
▁కలిపితే	43
▁విభజించబడ్డాయి	43
▁చైల్డ్	43
▁నికర	43
▁ఆనందించ	43
▁టెల్లింగ	43
▁జమ	43
▁సెక్యూరిటీలో	43
▁పెరుగుతుందని	43
▁యంత్రాన్ని	43
▁దృగ్విషయ	43
▁నిర్వచించ	43
▁ఉండదని	43
▁డ్రాయర్	43
▁తరంగాలు	43
బడును	43
▁రామ్	43
▁ప్రొజెక్షన్	43
▁చెయ్యబడే	43
▁మోడెమ్	43
దగిన	43
కంప్యూటర్స్	43
లాగా	43
▁ఆరిజిన	43
▁మరలా	43
▁ఇంజన్స్	43
▁హాల్	43
ఎం	43
▁చేయవచ్చ	43
▁రికార్డ్స్	43
▁అసురక్షిత	43
▁వ్యాధుల	43
▁సాంకేతికతల	43
▁ఎవల్యూషన్	43
▁స్టంట్స్	43
▁అనువదించ	43
▁min	43
▁ట్యూబ్స్	43
▁స్టీరియో	43
▁లోన్	43
▁లీవ్	43
▁లక్షణాలలో	43
▁జావా	43
▁సంతృప్తిపరిచే	43
▁వెల్త్	43
▁వర్షం	43
▁కెమెరాలు	43
▁ప్రొటీన్లు	43
▁వెల్ఫేర్	43
▁ఉండవచ్చని	43
దీ	43
▁క్షీణత	43
▁పునరావృత్తులు	43
▁దట్	43
మొత్తంమీద	43
▁ధర్మం	43
▁నిలువ	43
బంధాన్ని	43
{	43
ఇచ్చిన	43
▁ఇంటిగ్ర	43
▁ఇంటర్‍పొలేషన్	43
▁bar	43
▁pl	43
▁fdx	43
▁సిమ్మెట్రికల్	43
▁సూక్ష్మదర్శిని	43
▁క్వొశ్చనైర్	43
▁ప్రతిక్షేపించ	43
▁సోపానం	43
▁qx	43
▁లాస్పేయర్స్	43
▁ప్రయోగాలలో	43
▁qy	43
▁Cov	43
▁ఐసొమార్ఫిజం	43
▁డెరివేటివ్స్	43
▁ఐసోటోప్	43
▁ఫెనోటైప్	43
▁kth	43
▁ఎష్	43
▁లేనట్లయితే	42
▁క్లరికల్	42
ట్రివియల్	42
▁దృష్ట్యా	42
▁యుగం	42
▁మిన	42
▁ఎంపికల	42
▁అనారోగ్యం	42
▁ప్రమాణంగా	42
▁చేసుకుంటాము	42
లీఫ్	42
▁ఎయిడ	42
▁మారుతాయి	42
▁ట్రాన్సిటివ్	42
▁కలిగించవచ్చు	42
▁వినియోగదారునికి	42
▁ఎఫిసియన్సీ	42
▁సూచిస్తాం	42
▁విస్తరించడానికి	42
▁కల్పించే	42
ing	42
▁ఇంగ్లీష్	42
సీ	42
▁మాక్రో	42
▁తీసుకుంటున్నాము	42
▁పూరించడానికి	42
ಗ	42
▁లక్షణ	42
కనుగొనబోతున్నాము	42
▁ఇండస్ట్రీ	42
▁గోధుమ	42
▁కోర్టు	42
▁వార్తాపత్రికలు	42
▁సంస్కృతి	42
▁పరిశీలించండి	42
▁పుస్తకాల	42
▁ఎప్పటికప్పుడ	42
ప్ర	42
▁అభ్యర్థించ	42
▁చూసుకోండి	42
▁వ్యూహాల	42
▁ప్రారంభమయ్యే	42
▁డిజైన్స్	42
▁ఖర్చుల	42
▁వర్గంలో	42
▁పరిశోధకుల	42
▁గీయడం	42
పింగ్	42
▁మారినది	42
ఆబ్జెక్ట్	42
▁నిర్మాణాలు	42
▁ప్రసిద్ధమైన	42
▁కటాఫ్	42
చేసే	42
▁తొలగించబడిన	42
▁మినహాయించ	42
▁అభివృద్ధిలో	42
▁న్యుమరిక	42
▁శాఖల	42
బ్రిడ్జ్	42
▁ఉంటుందా	42
▁TCP	42
▁నైవ	42
▁పేరోల్	42
▁వ్రాసే	42
▁వ్యూహాత్మక	42
▁ఫిఫ్త్	42
▁అర్థ	42
▁ప్రారంభించాము	42
ర్డాన్	42
మూడవ	42
▁అన్నింటికీ	42
▁పుట్టిన	42
స్తున్నాము	42
ిత	42
మొబైల్	42
▁కల్పిస్తాయి	42
కపోవడం	42
అభ్యాస	42
సా	42
▁నిఘంటువు	42
▁కార్యక్రమాల	42
▁చెక్కుచెదర	42
▁ఆధారపడును	42
▁కొ	42
▁జోన్	42
▁కథనం	42
▁వీడియోలను	42
▁పక్షపాతం	42
▁సరిపోతాయి	42
▁మరొకరి	42
▁ఏంటి	42
▁ఆకస్మిక	42
▁ఉండవలసి	42
ిస్ట్	42
▁అనుసరించ	42
▁సామర్థ్యంతో	42
▁అనుసరిస్తాయి	42
▁జీవుల	42
▁లోహ	42
▁two	42
మో	42
▁మెనీ	42
మై	42
కింది	42
▁సిటి	42
▁సంకేత	42
▁బంగారం	42
▁పదార్థాన్ని	42
▁చెప్తాను	42
ిస్	42
Pa	42
▁ప్రాబబుల్	42
sin	42
▁మెలి	42
▁వర్గమూలాల	42
▁బయోలజీ	42
)!	42
ప్రెసిపిటేషన్	42
▁పాలినామియల్‍ల	42
ఇన్ఫినిటీ	42
▁పూసల	42
*∑	42
▁ప్రక్కన	41
▁చట్టవిరుద్ధమైన	41
▁కాంట్రాక్ట్	41
▁చేయవచ్చనే	41
సేపు	41
▁క్రిప్టో	41
▁సలహా	41
▁క్రమబద్ధీకరించ	41
లచే	41
▁అనువర్తనాలలో	41
▁సమయంలోనైనా	41
▁డైగ్రాఫ్	41
▁ఎలక్ట్రానిక్స్	41
▁AES	41
▁సీనియర్	41
ಿಂದ	41
రె	41
▁you	41
▁మెంబర్	41
▁డిక్లరే	41
▁నాటికి	41
▁బ్లాగ్	41
▁మాక్స్	41
▁విండోలో	41
▁రీప్లే	41
▁ప్రాసెసర్స్	41
▁కల్పించును	41
▁డెడ్	41
▁నిర్ణయిస్తారు	41
ఎండ్	41
▁స్కేలింగ్	41
▁మాట్లాడినప్పుడు	41
▁మెషీన్లు	41
▁శ్రేణికి	41
▁దారితీయవచ్చు	41
▁స్టోరేజీ	41
▁బిల్	41
▁కరెన్సీని	41
▁సమయాల	41
▁అవుతున్నది	41
▁జరగడం	41
▁అసోసియేటివ్	41
▁ఫ్లోర్	41
▁మార్గదర్శకాలను	41
▁ప్రెజర్	41
▁వేలు	41
▁ఎంటిటీలు	41
▁జాబితాలో	41
▁సూచించినట్లుగా	41
▁పో	41
పారదర్శకంగా	41
▁అంతర్దృష్టి	41
వంద	41
▁విమర్శ	41
▁ఫిషర్స్	41
▁నిర్వహించబడును	41
▁చెప్పగలరు	41
▁నెలవారీ	41
▁అడగవచ్చు	41
▁భావించడం	41
▁ij	41
▁ఏర్పడినది	41
▁వర్తింపజేసిన	41
▁పొడవుగా	41
ైతే	41
▁ఆక్ట	41
▁హాక్	41
▁తీర్చడానికి	41
▁చూపుతాను	41
▁పేపర్స్	41
▁ప్రారంభించింది	41
సృష్టించబడుతుంది	41
▁సమన్వయ	41
▁అనలైజ్	41
▁కేటాయింపు	41
▁మొత్తంతో	41
సిన్	41
▁మెజర్స్	41
▁ఆథరింగ్	41
▁అమెరికన్	41
▁ఉంచాల	41
▁స్పెషలైజేషన్	41
▁కథన	41
▁పరిశోధనల	41
▁పదార్థాల	41
▁స్లో	41
▁బ్రూట్	41
▁పురుషులు	41
▁మోడ	41
▁మొదలగునవి	41
▁మారతాయి	41
▁ఏజెంట్లు	41
▁ఆగిపోతుంది	41
▁ఆదర్శ	41
▁విక్రయాలు	41
▁రీతిలో	41
▁చర్చలో	41
▁షెల్	41
▁వెండి	41
▁పెరుగుదలతో	41
▁సున్నితత్వ	41
▁టన్నెల	41
▁PA	41
▁ప్రదర్శించే	41
▁క్లా	41
▁ఉ	41
▁తెలుసుకోండి	41
▁నూట	41
▁ప్రాపర్టి	41
తే	41
▁శుద్ధీకరణ	41
▁నియంత్రణలో	41
▁సాధించాల్సి	41
▁నిరూపించండి	41
▁హైపోతెసిస్	41
▁మర	41
▁AD	41
▁సూక్ష్మీకరించ	41
▁తెలిసినట్లు	41
▁వివరించబడుతుంది	41
▁OP	41
]\,	41
▁గణిస్తుంది	41
▁సూచించనివ్వండి	41
▁సిస్టంలో	41
▁Bi	41
▁కరిగే	41
▁√(	41
▁కేం	41
▁qn	41
▁ఎమ్‍పిసి	41
▁ఇథనాల్	41
▁∫-	41
La	41
▁విక్రయాల	40
▁కదల	40
▁ఎథిక్స్	40
▁హ్యాకర్ల	40
▁బహిరంగంగా	40
▁అడ్డంకుల	40
▁పీటర్	40
▁కేంద్రీకరణ	40
వారి	40
ೃ	40
▁పొరలు	40
టువంటి	40
▁ఆఫర్	40
▁సె	40
▁టెక్సచర్	40
సిస్టమ్	40
▁నిజాయితీ	40
▁ఐడిఎస్	40
▁న్యూరాన్లు	40
▁.....	40
ದಲ್ಲಿ	40
గలరు	40
▁కీబోర్డ్స్	40
▁బ్రైట్	40
▁లక్షణాలకు	40
▁మోస	40
ఎడ్జ్	40
బాబ్	40
▁పెంచాల్సి	40
▁భిన్న	40
▁సగటున	40
▁దాచి	40
▁విజయ	40
▁iii	40
ಬಹುದು	40
▁అస్పష్టంగా	40
▁నిర్ధిష్టమైన	40
డెన్స్	40
▁ಮೇಲ	40
ೂ	40
▁పదార్థాలను	40
ర్గీకరించబడ్డాయి	40
▁మునుప	40
▁బెలూన్	40
▁పరిష్కరించే	40
ట్జ్	40
యే	40
▁పంక్తి	40
▁ప్రొడ్యూస్	40
▁ధృవీకరించండి	40
▁విలక్షణ	40
▁సింబాలిక	40
▁తిరస్కరణ	40
డిస్ట్రిబ్యుటెడ్	40
▁నేరస్థులు	40
మల్టీ	40
▁చూస్తాను	40
▁సాహిత్య	40
▁ఫైన్	40
▁తీసివేయాలి	40
▁రిపోర్ట్స్	40
▁లక్ష	40
▁ఉపశీర్షికలు	40
ఆప్టికల్	40
▁పార	40
▁శాండ్	40
▁ఉపాధ్యాయ	40
▁విభజించారు	40
▁స్కేలబిలిటీ	40
▁గమనించాము	40
▁పనిచేస్తున్న	40
▁ఢిల్లీ	40
▁చదవ	40
▁చెప్పొచ్చు	40
▁జోడించాలి	40
కల్	40
▁తెరిచి	40
▁జాయిన్	40
▁ప్రవేశపెట్టడం	40
▁చూపించవచ్చు	40
డటానికి	40
▁జోడించబడింది	40
▁యూనిఫార్మ్	40
▁ప్రొసీజర్	40
▁BA	40
▁ప్రిడిక్ట	40
▁బ్లైండ్	40
▁ఉపయోగించడంలో	40
▁పరీక్షల	40
▁మారినప్పుడు	40
▁చేయగలిగితే	40
▁వైవిధ్యమైన	40
౦	40
▁స్వయంచాలక	40
▁వార్షిక	40
▁పదిహేడు	40
▁అంశాలతో	40
▁మాట్రిసెస్	40
▁లేనిది	40
ధన్యవాదాలు	40
▁జోడిస్తే	40
▁మొత్తాల	40
▁శాస్త్రజ్ఞుడు	40
▁సూచిస్తున్నాను	40
iv	40
▁గణిస్తారు	40
▁అనువర్తించ	40
▁ముక్కలు	40
▁మగ	40
▁వివరించినట్లుగా	40
▁మహ	40
▁వేరొక	40
ఎలక్ట్రిక	40
▁ఇన్‍	40
▁పదమూడు	40
▁ఘనపరిమాణం	40
▁సచ్	40
▁రిప్లేస్	40
▁ప్రొడ్యూసర్	40
▁mx	40
▁స్పియర్మన్	40
▁GM	40
▁డెట్	40
ఫ్లోరోసెన్స్	40
▁సమ్మేళనాలు	40
coli	40
▁డిడక్టివ్	40
▁అక్రైలమైడ్	40
▁అయనీకరణం	40
▁Nu	40
▁ప్రతిరక్షకాల	40
▁లాప్లేస	40
▁రిలాక్సేషన్	40
▁Be	40
Ir	40
▁పట్టింపు	39
▁వీధి	39
▁ఎంటిటీల	39
ిస్తుంది	39
▁విశ్వసనీయ	39
సమాచారం	39
మమ్	39
▁కాలనీ	39
▁జరగడానికి	39
▁తటస్థ	39
com	39
▁ఉందనుకుందాం	39
▁కోట్ల	39
▁ఎక్సెన్ట్రిసిటీ	39
▁ఇన్స్ట్రక్షన్	39
▁సవరించ	39
▁ಸಮಯದಲ್ಲಿ	39
▁తరగతులు	39
▁తగ్గించండి	39
▁సంబంధితంగా	39
ಯನ್ನು	39
అలాంటి	39
▁జోడించ	39
▁రేఖీయ	39
▁చూపించిన	39
▁తనకు	39
▁అందిస్తారు	39
▁నేరస్థుల	39
▁రకంగా	39
బోతోంది	39
▁పరిష్కారాల	39
▁రేఖాచిత్ర	39
▁ಮಾಹಿತಿ	39
▁అనుసరించి	39
▁కోణ	39
▁మనుగడ	39
▁కంప్యూటర్లలో	39
డబ్ల్యూడబ్ల్యూ	39
సెక్యూరిటీ	39
▁Hi	39
▁సబ్జెక్టు	39
▁సిఏఐ	39
▁లాంటి	39
ప్రాసెస్	39
ీకరణ	39
▁నేరస్థుడి	39
▁ఐడెంటిఫైయర్	39
▁లిమిట్స్	39
▁లెక్కిస్తారు	39
▁ఎంచుకున్నాము	39
▁పర్యవసానంగా	39
▁తరంగదైర్ఘ్యాల	39
▁అర్ధాన్ని	39
▁హో	39
▁కార్మికులు	39
▁కెరీర్	39
▁మౌ	39
▁వ్యవహరించ	39
▁ఆప్టిక్స్	39
▁వచ్చేది	39
▁నైబర్	39
▁యెల్లో	39
▁మరింతగా	39
వీడియో	39
పదే	39
▁తెలియకుండా	39
▁సంగ్రహించవచ్చు	39
▁సూచికల	39
▁స్థూల	39
నవసరం	39
▁చూపడానికి	39
▁ఆంప్లి	39
▁క్రమశిక్షణ	39
▁వాస్తవాలను	39
▁ఫోటోగ్రాఫర్	39
▁నిర్వహిస్తాయి	39
▁సంఖ్యాపరమైన	39
వైపు	39
▁పేర్కొంది	39
▁విచలనం	39
▁కొంతసేపు	39
▁టేప్స్	39
▁పోల్చ	39
▁అందం	39
▁చెప్పగలరా	39
▁విధానానికి	39
పవర్	39
▁అప్రయోజనాల	39
▁మెమరీలో	39
▁కాపి	39
▁మూలధన	39
▁గీసిన	39
▁పాదాల	39
▁చర్చించే	39
▁ప్రజెంట్	39
▁భావిస్తే	39
▁పూర్తయింది	39
▁చేయలేని	39
▁స్వేచ్ఛా	39
▁వార	39
ర్ట్	39
▁వ్రాయండి	39
▁గణనల	39
క్రిప్షన్	39
▁ఆల్జీబ్ర	39
▁>	39
అవుతుంది	39
▁తగ్గినప్పుడు	39
into	39
▁ఎల్లిప్టిక్	39
▁అవక్షేపణ	39
▁హైడ్రోడైనమిక్	39
▁భాగించబడుతుంది	39
▁కమోడిటీస్	39
▁ఎలమెంట్స్	39
ుండా	39
▁మనీగా	39
▁Pi	39
▁ఎలుక	39
▁క్రోమటోగ్రఫీలో	39
▁ఫెర్టిలైజ్డ్	39
√	39
▁జెల్స్	39
▁ఫైల్యూర్	39
▁డోమెస్టిక	39
▁)]	39
▁సౌలభ్య	38
▁స్టూడియో	38
▁పరిశోధనలు	38
▁భావించండి	38
▁తెలుసుకున్న	38
వాటిని	38
▁ప్లేయర్	38
▁నిర్మించబడింది	38
▁మార్జిన్	38
▁ఫ్రాస్ట్రక్చర్	38
▁చేయబడలేదు	38
▁సారుప్య	38
▁నిరూపిస్తాము	38
▁మ్యాగ్జిమ	38
▁ముగించాము	38
▁గణితం	38
▁పెట్టుకుంది	38
▁రాష్ట్రం	38
సే	38
▁మనీలాండరింగ్	38
నిర్వచించబడ్డాయి	38
▁అసిస్టెంట్	38
▁చేర్చబడిన	38
▁అస్థిర	38
▁క్లాసిఫై	38
▁శాటిలైట్	38
▁పాఠం	38
▁HTML	38
▁కూడి	38
▁భాషా	38
▁రిలే	38
ಲೆಕ್	38
▁రిసోర్సెస్	38
▁ప్రతిరూపం	38
ిడెన్	38
▁కంపైలర్	38
▁వేతనం	38
▁అనిపిస్తుంది	38
▁ఛేంజ్	38
▁అలాంటప్పుడు	38
▁వర్కర్	38
▁ప్యాచ్	38
▁మ్యాజిక్	38
▁తరచ	38
▁ప్రతిదాన్ని	38
▁మారుతోంది	38
▁సర్వర్లు	38
▁స్నేహితుల	38
ాలని	38
▁పంప్	38
▁ఎల	38
▁ధృవీకరిస్తుంది	38
▁భావోద్వేగ	38
షన్స్	38
సెలక్ట్	38
▁వేసే	38
▁చీకటి	38
ులను	38
▁నాలుగవ	38
▁ప్రెడిక్షన్	38
▁లంబ	38
▁పనిచేయదు	38
▁నొక్కుతాను	38
▁ఇంట్రూ	38
పిజి	38
▁పాటించ	38
▁వేయబడిన	38
▁డెన్సిటి	38
▁జోడించి	38
▁సంతతికి	38
▁పుస్తకాలను	38
▁కుటుంబం	38
▁ఆర్గనైజేషన్లో	38
▁లాగానే	38
▁సదుపాయాలు	38
తి	38
▁మై	38
ఉమేష్	38
▁అర్థవంతం	38
▁యూజర్ల	38
▁పరిపాలన	38
ద్దాం	38
▁యూనివర్స	38
▁థర్టీ	38
▁లైన్లు	38
▁కేంద్రీకరించ	38
▁రెండింటిలోనూ	38
▁ఉన్నపుడు	38
▁సైటేషన్	38
▁కొనుగోలుదారు	38
=''	38
ami	38
her	38
ఒకే	38
▁డయాగొనల్	38
▁సగ	38
▁ప్రయత్నించాలి	38
వార్డ్	38
▁స్పూఫింగ్	38
▁తదనుగుణంగా	38
▁బెంచ్	38
▁''	38
▁బిలియన్	38
▁చూపించ	38
▁కిరణాల	38
▁ప్రెసెంటేషన్	38
▁కంట్రోలింగ్	38
▁కేటలాగ్	38
▁సీరీస్	38
▁కూడిక	38
▁ఫీ	38
or	38
వర్	38
▁సాంకేతికంగా	38
▁అమర్చబడిన	38
▁స్వింగ్	38
▁ವರದಿಯ	38
▁విస్తరించి	38
▁యునీక్	38
▁ఫెలిక్స్	38
▁స్థానికంగా	38
▁ఫైళ్లు	38
▁ఫౌండ	38
▁చూపబడ్డాయి	38
▁కఠినం	38
▁పాలీనామియల్	38
▁ఉదాహరణల	38
▁ఫాలో	38
▁జే	38
▁థియరి	38
▁ఆచరణాత్మకంగా	38
▁గరిష్టం	38
▁స్థానాల్లో	38
▁ఫిఫ్టీ	38
▁ప్యూరిఫై	38
▁జీవసంబంధ	38
▁మొక్క	38
▁uij	38
▁స్టాట్	38
▁ద్రవాభిసరణ	38
▁ఎంఎల్	38
▁లాగరిథమ్	38
Tn	38
▁పునరావృతంలో	38
▁హెచ్ఐవి	38
▁సైటోసిన్	38
▁పర్ముటేషన్స్	38
▁hi	37
▁గీత	37
▁నిజమ	37
▁భరోసా	37
▁మోసాల	37
▁పిలవబడుతుంది	37
▁ఉపయోగించాలని	37
▁నోట్స్	37
యంత్రించబడుతుంది	37
▁జీన్స్	37
▁స్ట్రాటజీ	37
▁వర్తించవచ్చు	37
▁స్వీకరించడానికి	37
▁పొరపాటు	37
రన్	37
▁కంపెనీలో	37
▁గెయిన్	37
▁వర్గానికి	37
▁కేంద్రీకృతమై	37
▁సైద్ధాంతిక	37
▁పరిణామాల	37
▁పరిశీలనలు	37
▁త	37
ల్స్	37
▁అంచు	37
to	37
▁నిశ్చల	37
▁భ్రమ	37
గ్	37
▁రూపొందించబడినవి	37
▁స్పైవేర్	37
▁అసమానత	37
▁ಕೆಲವ	37
▁రీడ	37
వారికి	37
▁కావాలంటే	37
▁అస్థిరం	37
▁డిస్కషన్	37
▁ఫ్యూచర్	37
▁చిల్డ్రన్	37
▁ఒప్పందం	37
▁క్రైమ్స్	37
▁సమూహానికి	37
▁మార్చితే	37
▁కలయికగా	37
▁కోరుకుంటున్నాము	37
▁జరిగిందో	37
మాట్లాడుతున్నాను	37
▁చేశాయి	37
▁వీటన్నింటి	37
▁నిమిషం	37
▁ప్రభావాలు	37
▁మూలధనం	37
▁ఎంచుకుంటాను	37
▁మాట్లాడటం	37
▁ముగిసింది	37
▁పర్టికల్	37
▁ఉపయోగించని	37
ున్న	37
▁వర్చువలైజేషన్	37
▁ఫోటోగ్రఫీ	37
▁ఉంచాను	37
▁చర్చించవచ్చు	37
ాలనుకుంటున్నారో	37
▁మిల్	37
▁నిరోధించ	37
▁సన్నివేశంలో	37
▁మార్చబడతాయి	37
▁లక్షణాలపై	37
▁లయబిలిటీ	37
కంటెంట్	37
▁టిసిపి	37
▁షాపింగ్	37
▁ఉత్తర	37
▁మోసపూరిత	37
ేస్	37
▁కన్స్యూమర్	37
▁ప్రవేశించడానికి	37
▁ఆవిష్కరణలు	37
▁పెంచాలి	37
▁చేసుకుని	37
▁అనుమతించును	37
≥	37
▁చర్చల	37
▁రేట్ల	37
డెడ్	37
▁నిర్వహించాల్సిన	37
కొన్నిసార్లు	37
▁ఉంటార	37
▁తెలియకపోతే	37
గ్రాఫ్	37
▁స్కిన్	37
▁నిలుపుదల	37
▁డిఫెన్స్	37
▁గమ్యం	37
▁స్క్రోల్	37
▁పొందగల	37
కోయాక్సి	37
▁AR	37
▁నగరానికి	37
▁ప్రకటనలు	37
▁ప్యాలెట్	37
▁పరికరాల్లో	37
▁ఉపయోగించకూడదు	37
▁మూడింటి	37
▁మాట్లాడిన	37
ower	37
టో	37
▁జనాదరణ	37
లుగా	37
▁బార్డర్	37
▁ఒకదానిలో	37
▁ట్వంటీ	37
▁నిర్వచించండి	37
▁కొరియర్	37
▁అప	37
▁పొందుతున్నారు	37
▁ఎస్టిమేటర్	37
▁లాగ్స్	37
▁లెక్కించే	37
▁పర్పస్	37
▁ఆనందం	37
▁చేయబడినందున	37
▁చేర	37
▁జెనరేట	37
▁ఎక	37
▁వర్ణపట	37
▁వేరియబిలిటి	37
బ్లా	37
▁మనీలో	37
▁టెండెన్సీ	37
▁రక్తం	37
▁సిపేషన్	37
▁ఐసోపిక్నిక్	37
▁అగ్రెగేట్	37
▁మీజర్మెంట్స్	37
▁యాంటీబాడీస్	37
▁ఇతరత్రా	37
rth	37
▁Ci	37
▁ఎక్స్ఛేంజర్	37
▁du	37
▁శాఖలు	36
▁ఎస్తాబ్లిష్	36
▁నగరాలు	36
టైప్	36
▁ఫొటోగ్రాఫ్	36
▁తెలియకుండానే	36
▁కష్టతరం	36
▁బుల్లెట్	36
▁ఆర్టిస్టిక్	36
▁ప్రభావ	36
▁ఎయిడ్స్	36
▁ముఖం	36
▁ఫారెస్ట్	36
▁హెవీ	36
▁చూసినట్లు	36
▁సమ	36
▁డమ్మీ	36
అడ్మినిస్ట్రేషన్	36
ಗಳ	36
▁బిందువును	36
▁లొకేట	36
▁భావిస్తున్నారు	36
▁శ్రవణ	36
▁ప్రామాణికమైన	36
▁సన్నివేశ	36
▁టెక్నాలజీలు	36
▁ఆర్ఓఎల్ఏపి	36
ಟ್ರಾನ	36
సిటీ	36
▁త్వరిత	36
▁ఏఐ	36
▁జాతులు	36
▁ప్రమోషన్	36
▁ప్రొసీజరల్	36
▁అందించబడతాయి	36
రేజర్	36
▁దాట	36
▁మారాయి	36
▁సృజనాత్మక	36
విస్	36
▁ఫా	36
▁తీసుకున్నాను	36
▁రూపకల్పనలో	36
▁దొంగిలించడం	36
▁థ్రెట్స్	36
▁హెక్సా	36
▁షాప్	36
▁ఆధారపడతాయి	36
▁అందించదు	36
▁ఇల్లు	36
▁అడ్డంకులు	36
▁భేదం	36
▁పోజిషన్	36
సింక్రోనస్	36
▁పరిణామాలు	36
▁చేయాలనుకునే	36
▁క్షణం	36
కీలు	36
▁ప్రారంభిస్తాయి	36
▁గేమ్స్	36
▁ఆశాజనక	36
హైపర్	36
▁విపత్తు	36
▁ధోరణులు	36
▁రేఖల	36
పిఐ	36
▁కాలిక్యులస్	36
▁ల్యాన్	36
▁షెడ్యూలింగ్	36
▁జరుగుతున్నాయి	36
అందుకే	36
▁సందర్భాలను	36
▁క్వీరి	36
▁కొరత	36
▁లేఖ	36
▁విభజించబడును	36
▁సైన్డ్	36
▁సెగ్మెంట్స్	36
▁మెయిలింగ్	36
▁గట్టిగా	36
▁పేపర్లు	36
▁అనుకుందాము	36
▁వేయాలి	36
▁టోపాలాజీ	36
▁చెప్పాలి	36
▁కాప	36
▁గుణకాలు	36
▁ఎమ్ఓఎల్ఏపి	36
▁చేసుకోగలరు	36
▁ఫ్యాక్టరీ	36
▁భద్రపరచడానికి	36
▁ఉపయోగించుకోవడ	36
▁వ్రాయ	36
▁PC	36
▁పరోక్షంగా	36
▁తర్కం	36
▁సారూప్యంగా	36
▁పొందుతాను	36
▁ఆర్గనైజింగ్	36
▁అంగీకరించ	36
▁గణాంకాల	36
▁సరిపోదు	36
కాదు	36
▁ఎంటర్ప్రైజ్	36
▁నిరూపించబడింది	36
▁విశ్వసనీయమైన	36
▁fi	36
▁సమర్పించ	36
▁జవాబుదారీతనం	36
ಇ	36
▁అభివృద్ధిని	36
▁ఎదుర్కొనే	36
▁ప్రెసిషన్	36
▁ఉంచబడును	36
▁వక్రాల	36
▁సిద్ధాంతంలో	36
▁RT	36
▁కాకూడదు	36
▁గెస్	36
లాంటి	36
▁స్కోప్	36
▁డిస్టిబ్యూట	36
▁Sn	36
▁నిర్వచింపబడినది	36
▁మాడ్యులస్	36
లిక్	36
▁నైన్	36
రిన్	36
నం	36
▁data	36
▁దశతో	36
▁అస్థిరత	36
▁ఎంప్టీ	36
వేజ్	36
▁up	36
▁లెక్కిస్తే	36
▁-(	36
▁ci	36
▁ఫాక్టోరియల్	36
▁ఆదాయాలు	36
▁పరిశీలిస్తాం	36
▁రొమ్ము	36
▁స్పెక్యుల	36
▁యూవీ	36
▁న్యూక్లిక్	36
▁ఈక్వేషన్‍ల	36
▁ఎలూట	36
▁ప్రీత్	36
▁ఫిక్సె	36
▁సాధిస్తే	36
▁ప్రతిరోధకాలు	36
▁పెరగదు	36
▁బంతులు	36
▁ఈక్వివలె	36
▁కంజుగేట్	36
▁దిగుబడి	36
▁కమ	36
ర్షి	36
▁దయా	36
PS	35
▁ప్రిపరేషన్	35
▁క్రియేటివిటీ	35
▁మార్చిన	35
ವಿ	35
త్వం	35
▁సమావేశంలో	35
▁ప్రయాణిస్తున్న	35
▁యూని	35
▁వ్రాతపూర్వక	35
ఫస్ట్	35
▁సామర్థ్యాల	35
▁ఏజెంట్స్	35
▁ప్రయత్నించ	35
▁నడుస్తున్న	35
▁రహదారి	35
▁అంతర్జాలం	35
▁ವರ್ಕ್	35
▁ಮು	35
▁సదుపాయ	35
▁ప్రదేశానికి	35
▁ಅನಾಲಿಸಿಸ್	35
▁చేరుకుంటుంది	35
▁నిర్ధారించే	35
▁జరుగుతుందంటే	35
▁ಅಟ್ಯಾಕ್	35
▁ప్రిజర్వ	35
▁vn	35
▁ఉదాహరణతో	35
▁చెయ్యబడును	35
▁వచ్చారు	35
▁దానిలోని	35
▁ఆలస్యం	35
▁క్లంప్	35
▁రిఫ్లెక్ట	35
▁వచన	35
▁వాష్	35
▁ఎంచుకుంటారు	35
▁మొగ్గు	35
▁సరిసంఖ్య	35
▁హెచ్చరిక	35
▁తగ్గించడంలో	35
▁వచ్చింద	35
▁ఎక్సె	35
▁రూపాలను	35
▁ప్రోగ్రెస	35
▁పరిష్కరించాలి	35
▁చేసుకున్నారు	35
▁చేయగలిగే	35
▁ప్రతిచోటా	35
▁డిక్షనరీ	35
▁ప్రోసెస్	35
▁సంపాదించ	35
▁ప్రా	35
ఫేస్	35
▁కీలకమైనది	35
▁అర్థమయ్యే	35
లేకపోతే	35
▁కంప్యూటేషన్	35
▁నారింజ	35
▁మల్టి	35
▁మృదువైన	35
ప్రోగ్రామింగ్	35
▁మొట్టమొదటి	35
మూడవది	35
▁తొలగించిన	35
▁చర్చించబడతాయి	35
▁అధికారికంగా	35
▁అనుభూతిని	35
▁ఇదివరకే	35
▁రైల్వే	35
▁ఎంట్రోపీ	35
▁కాంపోజిట్	35
▁బ్యాలన్స	35
పద్ధతిలో	35
▁అందరిన	35
▁స్వీకరించిన	35
▁జీ	35
▁కేసులో	35
ಗಳು	35
▁ప్రిమిటివ్	35
లీక్	35
▁ప్లోరర్	35
▁ఆక్సిస్	35
▁హా	35
▁చర్చలు	35
▁ప్రత్యక్షంగా	35
▁మాధ్యమాలు	35
ొకరు	35
▁జర్నలిజంలో	35
▁ఇబ్బందుల	35
▁అధికారుల	35
▁చేయవద్దు	35
▁హెడ్డింగ్	35
▁సార్ట్	35
▁కానప్పుడు	35
▁చరింగ్	35
▁వీక్	35
వర్గీకరించబడతాయి	35
▁ఐసోమార్ఫిక్	35
▁జోడించినప్పుడు	35
▁దారితీస్తాయి	35
ైమ్	35
▁మెటాల	35
್ಯ	35
▁పేర్కొనవచ్చు	35
▁రిమైండర్	35
▁కంటింజె	35
▁ఫార్ములాలు	35
▁మాట్లాడుతున్న	35
▁సఫిక్స్	35
▁సాధిస్తాము	35
▁చూపబడినది	35
▁తగ్గించాలి	35
▁సౌకర్యం	35
▁ఉన్నంత	35
▁అక్కడకు	35
▁ప్రవణతల	35
▁టెన్సర్	35
▁గైడె	35
⊆	35
▁ఉదాహరణలతో	35
▁వర్గమూలాన్ని	35
▁చౌకగా	35
▁స్కీమాటిక్	35
▁రిక్వెస్ట్	35
▁అనుకరణ	35
▁థియరీలో	35
నేషన్	35
▁ధర్మాలు	35
▁mi	35
▁క్షేత్ర	35
▁అల్జిబ్ర	35
▁సక్సెస్	35
▁ద్వి	35
▁సేంద్రీయ	35
▁గోళ	35
మాన్	35
▁ఫ్యూజన్	35
▁పరిష్కరించండి	35
▁కౌంటింగ్	35
తొమ్మిది	35
▁అయినపుడు	35
<	35
▁రింగ్స్	35
▁లోనికి	35
▁అగ్రీ	35
▁వాదనల	35
▁ఇండివిడ్యు	35
▁క్రిమి	35
▁క్రిప్టోమ	35
యాన్	35
ih	35
▁రిసెషన్	35
▁మెంబ్రేన్	35
హోమోజీనియస్	35
▁రెస్పాండెంట్	35
▁వర్స్	35
హిస్టోకెమిస్ట్రీ	35
ోజెన	35
▁ప్రతిరోధకం	35
▁డిప్రీషియేషన్	35
▁శకలం	35
▁np	35
▁పూస	35
▁బీడ్	35
▁లైక్లి	35
అయానిక్	35
▁క్వాంటిటి	35
▁అపోప్టోసిస్	35
∑	35
▁యాక్టివిటీస్	35
▁నార్మ్యాలిటీ	35
ేసియన్	35
నంద్	35
▁అధికారాల	34
▁టో	34
▁బలహీనతల	34
SR	34
▁అనుభవాలు	34
▁సేకరించేందుకు	34
▁మాట్లాడుకుందాం	34
▁థామస్	34
▁ధరలను	34
▁డాలర్ల	34
▁వెళ్ళడం	34
▁డివైడ్	34
▁ఆవిష్కరణకు	34
▁మల్టీగ్రాఫ్	34
భ	34
▁పుంజం	34
▁కాన్ఫిడెన్షియాల	34
▁రిటర్న్	34
▁టిటిపి	34
▁ప్రొపగేషన్	34
గ్రాంట	34
▁వ్యతిరేఖం	34
▁ప్రతిబింబించే	34
▁వహిస్తారు	34
▁వైజర్	34
▁పాత్రలు	34
▁Ctrl	34
ುವುದು	34
▁మెషినరీ	34
▁చేయబడని	34
▁తీసుకెళ్ల	34
▁ఆటంకం	34
▁అద్భుతం	34
▁ప్రయాణ	34
ాం	34
▁విలువైనది	34
▁కాకపోయినా	34
▁అనుభూతి	34
▁పిలుస్తాను	34
▁ఆలోచనల	34
▁ట్ర	34
▁బూమ్	34
క్రిప్టెడ్	34
▁వేరియేషన్స్	34
▁టెక్చరింగ్	34
▁ఆంగ్ల	34
▁రంగులతో	34
ందని	34
▁స్థాపించడానికి	34
ప్రాథమికంగా	34
▁అనారోగ్య	34
▁ఇల్	34
▁అన్వేషణ	34
▁భద్ర	34
▁చల్ల	34
▁కోర్సులను	34
డబ్య్లు	34
▁సిరా	34
▁చేసుకో	34
▁చిన్నవిగా	34
▁చేర్చబడ్డాయి	34
▁జెనోమిక్స్	34
▁లాబొరేటరీ	34
▁సర్టిఫికేట్స్	34
▁ఉన్నవారు	34
▁నివేదించ	34
▁మాడ్యూల్లో	34
▁పార్టీల	34
▁ఇనిషియలైజేషన్	34
▁డీకోడ్	34
వరల్డ్	34
▁ఇన్వెస్టిగేటర్	34
▁గురయ్యే	34
▁ధ్రువీకరణ	34
▁పరిధిలోని	34
▁కలెక్ట	34
ుకోవడానికి	34
▁తెలియజేయడానికి	34
▁తీసిన	34
▁నింపడం	34
నింగ్	34
▁కొనసాగింపు	34
▁మూల్యాంకన	34
▁పొందాయి	34
▁కౌస్టిక్స్	34
▁బోర్డు	34
▁టెక్	34
▁పరిష్కరిస్తుంది	34
▁విజ్ఞాన	34
▁ఇచ్చినట్లయితే	34
▁ఆరెంజ్	34
▁ఆమోదయోగ్యం	34
▁వర్తింపజేయ	34
▁విశ్లేషణలు	34
▁అట	34
ఔట్	34
▁నియంత్రించడంలో	34
▁కీల	34
▁ఉపయోగిస్తున్నార	34
▁చేరుకున్నప్పుడు	34
▁సాధించగల	34
▁ఉద్గార	34
▁పునరావృతాల	34
▁హెచ్చుతగ్గుల	34
▁విషయాలన్నీ	34
▁గీయవచ్చు	34
▁భారాన్ని	34
▁అక	34
▁ప్రేరేపించ	34
▁విజయానికి	34
▁న్యూమరిక్	34
▁సమ్మేళనం	34
▁సమరూపత	34
▁కార్టూన్	34
▁గవర్న	34
▁కోణాల	34
▁సిజి	34
▁ఉపయోగించవచ్చో	34
ాలంటే	34
▁పరిశ్రమలు	34
\,....	34
▁రహిత	34
▁విచ్	34
▁వ్రాయబడుతుంది	34
▁చూసుకోవాలి	34
▁విప్లవ	34
▁రికగ్నిషన్	34
దేశాన్ని	34
స్కోపిక్	34
▁మెనులు	34
▁ఉపయోగిస్తాం	34
▁సమలేఖనం	34
బాక్స్	34
▁ఖండన	34
▁అబ్జర్వేషన్	34
▁adj	34
ుతాయి	34
▁తరంగం	34
▁తీగ	34
▁విభిన్నమైనవి	34
▁చర్చించినవి	34
^+	34
వికర్ణ	34
▁పొందబడింది	34
▁ఆల్కహాల్	34
▁అప్రాక్సిమేషన్	34
▁ప్రాఫిట్	34
▁లంప్	34
▁పర్సెంటేజ్	34
▁డిఫరెన్సియేషన్	34
▁ప్లాట్లు	34
▁హిస్టో	34
▁లాటరీ	34
▁క్వాడ్రుపోల్	34
▁నార్తర	34
▁రమణ్	34
hi	34
▁వైట్నీ	34
aij	34
▁పిఎమ్	34
సింగ్యులర్	34
▁బాస్ట్	34
▁కోసెట్స్	34
తుల్యం	34
▁చెల్లింపులు	33
▁వెన్నెముక	33
▁వికేంద్రీకరణ	33
▁రాజ	33
▁పరిస్థితుల్లో	33
▁లినోటైప్	33
▁నవీకరణలు	33
▁RNN	33
▁స్ట్రెయిట్	33
▁స్పేషియల్	33
▁దృశ్యమాన	33
▁కాపీల	33
▁ఆరోగ్యకరమైన	33
▁డిస్నీ	33
▁కరెన్సీల	33
స్కీ	33
▁అనలాగ్	33
▁రిఫైన్	33
▁చేయాలనుకున్న	33
▁కదలికలను	33
▁ఎంపికలో	33
డిమాండ్	33
▁అందించబడే	33
▁భద్రతకు	33
▁షిప్స్	33
▁dou	33
▁సర్వీసుల	33
▁వర్గీకరించబడిన	33
▁పబ్లికేషన్	33
▁యాప్	33
రంగు	33
ಯ	33
▁దోహదపడుతుంది	33
ఎమ్ఓఓసి	33
▁అమలులో	33
▁it	33
▁అనివార్యమైన	33
▁తెలుసుకునే	33
▁నిర్వహించగలదు	33
▁చాలాసార్లు	33
▁టోన	33
సమర్థవంతమైన	33
గ్స్	33
ిస్తాయి	33
ఎంఎస్	33
▁ಡ್ರೈವ್	33
▁సోపానక్రమం	33
▁ఖాతాలు	33
▁అవ్వ	33
▁తెలుసుకున్నారు	33
▁కనెక్షన్స్	33
▁చిరునామాను	33
▁అకడెమిక్	33
▁దృష్టాంత	33
▁చేసినట్లు	33
▁రాత్రి	33
▁లలోకి	33
ర్టికల్	33
▁అవదు	33
▁URL	33
ైట్	33
▁bi	33
▁గుర్తించగలరు	33
▁వినే	33
▁జంతువు	33
▁తొలగించ	33
ితే	33
▁ప్రకారంగా	33
▁మార్చబడింది	33
▁కంజెక్చర్	33
▁ప్రజా	33
▁కానిది	33
▁రూపాల	33
ుతుందని	33
▁మరొకరు	33
▁తీర్పు	33
▁రెప్లికేట్	33
వెట్	33
▁ప్రాంత	33
▁ఎల్ఎమ్ఎస్	33
▁తెరవడానికి	33
▁ఆవిష్కరణల	33
▁పొరకు	33
▁కొనసాగించండి	33
▁ఐటెమ్స్	33
వెల్	33
ಂದು	33
▁చేరుకునే	33
▁చేయబడ	33
▁ఆప్షనల్	33
ఫై	33
▁యాక్	33
కేటాయించబడుతుంది	33
▁ఆధిపత్యం	33
▁సెన్స్	33
▁జెట్	33
▁నిర్మాణాల	33
▁ఉపయోగించబడదు	33
▁వాటా	33
▁పరిశీలించి	33
▁ఉత్తీర్ణ	33
▁కన్ను	33
▁కనిపించని	33
▁ಹ್ಯಾಕರ್	33
▁ర	33
▁కైనా	33
▁గుర్తించిన	33
▁నియంత్రించవచ్చు	33
▁చూడలేరు	33
▁కంప్రెషన్	33
▁జరుగుతుందని	33
▁మోడ్స్	33
సంబంధిత	33
అన్	33
▁ಬಳಕೆದಾರರ	33
చివరి	33
▁పెట్టెలో	33
▁తీసుకురావడం	33
▁ఫ్రారెడ్	33
▁చర్యలో	33
▁ఒపెరాండి	33
▁మొదటిగా	33
▁స్పెక్యులర్	33
చిన్న	33
▁గుండె	33
▁బ్రాంచ	33
▁IPSec	33
▁శోధించ	33
▁చేశారా	33
▁వాస్తవాల	33
▁ప్రవేశించిన	33
▁ఉద్దేశ్య	33
▁సూచించ	33
▁స్థిరత్వ	33
ై	33
▁కనిపిస్తుంద	33
▁ఒక్కొక్కటి	33
▁థీరమ్స్	33
▁సాధించాలి	33
▁నవీకరించబడిన	33
▁యాక్టివేషన్	33
▁నేపథ్యం	33
▁షూట్	33
▁వేయబడింది	33
▁శాచురేటెడ్	33
jth	33
▁గీస్తారు	33
▁డేటాబేస్లో	33
▁So	33
▁క్రాష్	33
▁చేయగలము	33
▁రేఖా	33
▁చేసుకుంటే	33
▁HMAC	33
▁పేర్కొనడానికి	33
▁ఉంచారు	33
▁కళ్ళ	33
▁yj	33
▁స్థాపన	33
▁ఇవ్వబడును	33
▁కంపా	33
▁ఫోన్స్	33
వై	33
▁మంత్రిత్వ	33
▁పరిగణించడం	33
▁చూపినట్లుగా	33
▁అయితేనే	33
▁న్యు	33
\,....\,	33
▁కొరిలేటెడ్	33
బిజినెస్	33
▁అవుతాయని	33
▁పరుస్తుంది	33
▁లెక్చర్లో	33
▁సజల	33
▁DNase	33
▁కాంగ్రుయెంట్	33
▁యిమెంట్	33
చర్చించుకున్నాము	33
▁సైక్లిక	33
▁qPCR	33
▁హైపోథిసిస్	33
▁గణిస్తే	33
▁కోట్లు	33
▁డిఫెక్టివ్	33
▁లీకేజీలు	33
▁కాయిన్స్	33
dv	33
*[	33
bx	33
▁ఇంప్లిసిట్	33
▁ప్రీవాలెన్స్	33
▁మ్యుటేషన్స్	33
▁ఔషధాల	33
ȳ	33
▁స్పేడ్	33
▁ప్రొపెన్సిటీని	33
▁hx	33
▁డివైజర్స్	33
▁ఆరో	32
కాన్ఫిడెన్షియల్	32
▁ఇంటెలెక్	32
▁ఉత్తరాలు	32
▁చెంద	32
▁పంపుతారు	32
▁కోడె	32
▁కొనసాగించడం	32
▁BC	32
▁నివేదించడం	32
▁విధ్వంసం	32
▁ಮಾಹಿತಿಯ	32
ುತ್ತಾರೆ	32
▁కామ్	32
▁CMYK	32
ಣ	32
ವಾಗಿದೆ	32
▁రక్షిస్తుంది	32
▁ಎರಡ	32
▁బదిలి	32
▁క్లుప్త	32
▁పాల్గొనడం	32
▁జట్టు	32
ఐపి	32
▁ఫండ్స్	32
▁టైప్ఫేస్	32
▁బగ్	32
▁XOR	32
లిన్	32
▁ಬ	32
▁క్లాత్	32
▁విశ్వాసాన్ని	32
▁సృష్టించబడతాయి	32
వాటిలో	32
▁కష్టమవుతుంది	32
▁ముద్ర	32
▁ఇష్యూ	32
ంటల్	32
▁వెళ్ళ	32
▁చేయడంతో	32
▁ట్రీమ్	32
▁తెస్తుంది	32
▁ఇనీక్వాలిటీ	32
▁అరుదైన	32
▁బిందువులను	32
▁అర్థమయ్యేలా	32
▁ఇచ్చారు	32
▁ఇరుకైన	32
▁ఎన్క్రిప్ట్	32
▁సమాజం	32
▁విక్రయ	32
▁నిధుల	32
▁ವೆಬ್	32
▁కదలికల	32
▁అంచనాల	32
▁మరే	32
▁కనుగొంటే	32
▁నిర్ధారించుకోవడ	32
▁గ్రీ	32
▁చురుకైన	32
▁యునిక్స్	32
▁మె	32
▁ಲಾ	32
▁చెయ్యడంలో	32
▁ఖరీదైనవి	32
▁వెళ్తారు	32
MIME	32
▁హజార్డ్	32
▁నిష్క్రియాత్మక	32
▁నిర్వచించాలి	32
▁DTP	32
▁వా	32
▁బాధ్యతల	32
▁సైనిక	32
▁ఉపయోగించము	32
▁అగ్ర	32
▁డిస్క్రిటైజేషన్	32
▁పెరిఫెరల్స్	32
ోయింగ్	32
▁పోజ్డ్	32
▁ఇండో	32
▁నోన్	32
▁కార్యాలయాలు	32
సింగ్	32
ುತ್ತದೆ	32
▁రిట్రీవ్	32
▁హాషింగ్	32
ఎఎమ్	32
▁సపోర్టు	32
▁కీగా	32
▁మాస్కింగ్	32
▁సహాయకర	32
▁డోమ	32
▁అతిచిన్న	32
డాన్ని	32
▁spa	32
▁వినోద	32
▁ఫైండ	32
▁ఎమిట్	32
▁ఇల్యుమినేషన్	32
▁సిఎఫ్	32
▁DBA	32
▁అనువాద	32
▁నిర్దేశించిన	32
▁స్పైరల్	32
గి	32
▁య	32
▁దోష	32
పార్టైట్	32
▁అసాధారణం	32
▁ప్రైవేటు	32
▁అసోసియేట	32
▁చర్చించబడిన	32
IT	32
▁పదార్ధం	32
▁ರಿಸ್ಕ್	32
ాష్	32
▁నిరూపించడం	32
▁సంజ్ఞామాన	32
▁చర్చించాను	32
▁కలుస్తాయి	32
▁రేఖాగణిత	32
ీవ్	32
▁AC	32
▁దోహదం	32
▁శతాబ్దంలో	32
▁సమ్మరైజ్	32
▁ప్రతిబింబ	32
▁పొందలేరు	32
గుర్తుచేసుకుందాం	32
్యవహరించేటప్పుడు	32
దైన	32
రం	32
▁కలగ	32
▁చరవాణి	32
▁ఉద్యోగాలు	32
▁ei	32
▁గణాంకాలు	32
బడతారు	32
▁నిరోధకత	32
▁పరిగణించబడును	32
▁అక్షరాలతో	32
▁శాతాన్ని	32
▁అనిశ్చితి	32
▁రుణాత్మక	32
▁సందర్భాల	32
▁ఫంక్షన్లు	32
▁ఇంట్లో	32
▁తీసివేసి	32
▁మందులు	32
▁ఇష్టమైన	32
లాన్	32
▁మెమోరీని	32
▁గుణకాల	32
వివరించగలుగుతారు	32
▁మి	32
ంచుకోవాల్సిన	32
▁సెప్ట్	32
▁వర్త	32
▁జాతి	32
నున్న	32
▁పారా	32
▁ఇన్ఫెక్షన్	32
▁ఆర్బిట్రరి	32
▁యూనిక్	32
▁వార్తలు	32
▁పేజి	32
▁షాక్	32
▁చేయవు	32
స్క్రైబ్	32
▁గమనించడం	32
▁బ్రోమైడ్	32
▁తెలిసినప్పుడు	32
▁పాల్	32
▁ప్రమేయాల	32
▁విస్మరించడం	32
)+(	32
▁ప్రతిక్షేపిస్తా	32
▁పాదరసం	32
▁Ti	32
▁ఫ్లోరోఫోర్	32
▁GC	32
▁Jn	32
ినల్	32
▁రక్తంలో	32
▁పాలీపెప్టైడ్	32
bn	32
▁ఎస్టిమేట్స్	32
▁ట్రిస్	32
కప్పా	32
▁చాంబర్	32
▁బంధించబడిన	32
▁ఎన్యుమరేషన్	32
లేష్	32
▁రీసెట్	31
▁ಡಿ	31
▁ఎదురు	31
▁లభించిన	31
▁Vn	31
▁అభ్యాసకుడి	31
▁నియంత్రిత	31
▁ఎంచుకుంటున్నాను	31
▁కెపాబిలిటీ	31
▁లేనివి	31
▁నెలల	31
▁సంగ్రహించే	31
▁మౌఖిక	31
▁IBM	31
▁అసంపూర్ణ	31
▁సహాయాన్ని	31
బడుతున్న	31
▁ఫ్రమ్	31
▁దిశలలో	31
ಏ	31
▁నేరస్థులను	31
▁వల్నేరబిలిటీస్	31
యం	31
▁రండి	31
నర్	31
▁బైనరి	31
నివ్వండి	31
▁పరీక్షకు	31
▁మాడ్యులర్	31
▁ఆఫీసులో	31
▁ప్యాట్రన్	31
▁ప్లగిన్	31
▁చెట్ల	31
▁స్ప్రే	31
▁పంపిణీని	31
▁పరిశీలించ	31
▁పరికరాలలో	31
▁ప్రోగ్రామర్లు	31
▁నిర్వహిస్తున్న	31
▁ఆర్డరింగ్	31
▁విజిన	31
యూ	31
▁శోధించడానికి	31
ఇక	31
▁కేబుల్స్	31
▁ఆరవది	31
▁ఇనిషియ	31
▁క్లయింట్లు	31
▁చెల్లించాలి	31
▁ప్రయత్నిస్తే	31
▁తరపు	31
▁కంప్యూట	31
▁బ్లాకింగ్	31
▁సమావేశాలు	31
▁బలహీనంగా	31
▁శోధించడం	31
▁విశ్లేషించే	31
▁డ్రాయింగ్స్	31
▁ఉపయోగించబడుతుంద	31
▁పాలెట్	31
▁ఎనలైజర్	31
▁ఫ్లెక్స	31
▁భావిస్తున్నాము	31
▁చెయ్య	31
▁కనుగొనగలరు	31
▁కానట్లయితే	31
▁ಮೂಲ	31
▁నష్ట	31
▁విభాగాలకు	31
▁ట్రెడిషనల్	31
▁డైపర్	31
▁జంతువుల	31
▁ప్లాటర్స్	31
▁RPC	31
▁RSA	31
▁గ్ల	31
లేరియన్	31
▁ఆకర్షణీయమైన	31
▁రెల్	31
▁బర్ట్	31
▁అవలోకనం	31
రేషన్	31
▁కేసులను	31
▁సరిదిద్ద	31
▁ఫిజియో	31
▁చిన్నవి	31
▁అనలిటిక్స్	31
▁మాడ్యూళ్ళ	31
లే	31
▁కుటుంబాల	31
▁ట్వీకింగ్	31
▁వీక్షించడానికి	31
▁నిర్ణయించబడిన	31
▁భావించ	31
▁సాంకేతికతలో	31
▁బాధ్యతను	31
▁అసాధారణమైన	31
▁ఫైళ్ల	31
▁ప్రతిఘటన	31
అధిక	31
={	31
▁చేరుకోవడం	31
▁ముగ్గురు	31
▁ప్రక్రియగా	31
▁దృష్టాంతంలో	31
వన్నీ	31
▁బరువుల	31
CB	31
అండ్	31
క్ట్	31
▁లాగడం	31
▁ప్లేనర్	31
▁స్ట	31
▁వెళ్ళగలను	31
▁దాచ	31
▁నిర్ధారించవచ్చు	31
▁ఇవే	31
▁అనంతమైన	31
▁deg	31
రెస్ట్	31
▁స్టాకింగ్	31
▁కావాలనుకుంటే	31
▁వహించాలి	31
▁గ్రామీణ	31
▁సెన్సింగ్	31
▁తొలగించే	31
▁ఇండస్ట్రియల్	31
స్టిక్	31
▁జైలు	31
▁కార్యక్రమ	31
▁నిమగ్నమై	31
▁రిఫ్లెక్సివ్	31
నోడ్	31
▁అంకగణిత	31
▁గుండ్రని	31
▁కదులుతాయి	31
▁ఇస్	31
▁వేయడంలో	31
▁ఓహ్	31
▁బంగార	31
▁క్రియాశీలత	31
▁మీటర్	31
▁స్ట్రెచ్	31
▁డ్యామేజ్	31
▁వెక్టర్లు	31
▁భాగించబడిన	31
▁జరగ	31
▁ప్రయత్నంలో	31
క్లాస్	31
▁లిఫ్ట్	31
▁వ్రాయబడింది	31
▁ఏజ్	31
▁ప్ల	31
ైజేషన్	31
▁కంజ్యూమ	31
▁కార్డు	31
▁కోరిన	31
▁పబ్లిష్డ్	31
▁చెడ్డ	31
▁పరిచయ	31
కేషన్	31
▁పిఐ	31
▁వలస	31
▁గుణిస్తాము	31
▁ఇవ్వబడ్డ	31
▁సాధ్యపడ	31
▁ద్రావణాల	31
▁పెప్సిన్	31
▁ఎంప్లా	31
▁కొవ్వు	31
▁క్లీవ	31
▁యూకారియోట	31
అక్రైలమైడ్	31
▁వ్యాల్యు	31
▁కేంద్రకం	31
మీడియన్	31
▁రీఏజెంట్స్	31
▁క్వాడ్రటిక్	31
▁బంధన	31
▁హైడ్రాక్సిల	31
డిస్టిబ్యూషన్	31
▁రెసిడ్యూయల్	31
▁కెడి	31
▁ఎలమెంట్	31
▁పాయిజాన్	31
▁సూక్ష్మీకరణ	31
శాంపిల్	31
▁mxn	31
▁రౌట	31
▁na	31
▁ఫాల్లసీ	31
▁Ai	31
▁జీర్ణ	31
▁√-	31
▁ar	31
▁కలయికతో	30
▁ఎంబెడ	30
▁బాధ్యతలు	30
▁దిశల	30
▁తేలికైన	30
▁తొలగించండి	30
▁భద్రపరచ	30
▁దృశ్యాల	30
▁అల్గారిథమ్స్	30
ఉపయోగించబడుతోంది	30
▁సేకరించవచ్చు	30
▁కరెన్సీలను	30
▁తీవ్ర	30
▁గిడ్డంగి	30
▁నాడీ	30
సమస్య	30
▁విన	30
▁నిర్దేశి	30
▁అనుసంధాన	30
▁కాలుష్య	30
▁ಪಾಸ್	30
ವು	30
▁ఆస్తులు	30
▁మాట్లాడుతుంది	30
▁ఇన్సూరెన్స్	30
▁ఆరే	30
▁ఆండ్రాయిడ్	30
ರಾ	30
▁మోడరన్	30
▁సర్వీసులు	30
▁కరెన్సీలు	30
▁ప్లిసిట్	30
▁ఇస్తున్నాను	30
▁ఫేర్మోన్	30
▁విస్తరిస్తుంది	30
▁గేమింగ్	30
▁కంప్యూటరైజ	30
▁వ్యక్తిత్వ	30
▁RFC	30
▁అల్గోరిథంలు	30
▁పాల్పడ	30
▁అరిథ్మెటిక్	30
▁పుల్	30
▁కలపాలి	30
▁గోల్ాల	30
▁డాకుమెంట్స్	30
▁కన్వర్	30
▁జంట	30
ತಿಯ	30
▁టెక్నాలజి	30
▁శ్రేణుల	30
వర్గీకరించబడింది	30
▁వార్	30
▁గమనించ	30
▁మాల్	30
ప్రాసెసర్	30
▁నిర్వాహకుడు	30
▁స్పేసింగ్	30
▁చిహ్న	30
▁సంతృప్తికర	30
ಶ	30
ించిన	30
ಂತಹ	30
దీనితో	30
▁చేశాం	30
లేవు	30
▁తీర్చ	30
సిమ్మెట్రిక్	30
ఐఆర్	30
కాపీరైట్	30
▁నిర్వచన	30
▁గుణించబడిన	30
▁ఘాతాంక	30
▁సంభాషించడానికి	30
▁చేరుకున్నాము	30
▁చక్కటి	30
▁చెల్లించే	30
లెస్	30
టెక్చర్స్	30
▁ఏర్పడడం	30
▁రిలేషన్‍	30
▁నాగ్	30
▁హబ్	30
▁ఎన్క్రిప్టెడ్	30
▁కనిపించ	30
▁అభ్యర్థి	30
▁నివేదించబడిన	30
▁పరిహారం	30
▁కలపడానికి	30
▁వేళ	30
▁అంతర్భాగం	30
▁బస్సు	30
▁గ్రీకు	30
▁బంధించబడి	30
▁సూత్ర	30
▁అంతవరకు	30
బిఆర్	30
▁గుప్తీకరణ	30
▁వంతు	30
ేతర	30
▁డిస్ట్రిబ్యూట్	30
▁చేయబడింద	30
▁పెంచుకోవచ్చు	30
▁విక్రేత	30
మాగ్నెటిక్	30
▁ಅವರ	30
▁చెప్తున్నాను	30
▁రూపంగా	30
▁కాగితాల	30
▁ఎంప్లాయి	30
▁జ్యామితీయ	30
▁నిర్దిష్టమైన	30
▁రిలేషన్షిప్	30
▁రీసోర్స	30
▁నంబర్లు	30
▁స్వీకరించ	30
▁కలవ	30
పో	30
▁టపుల్స్	30
▁డోలనాల	30
▁డ్రమ్	30
▁అనుకుంటాము	30
▁కెమికల్	30
▁రాగి	30
▁ಪ್ರಮ	30
▁సహ	30
▁ఆదేశాల	30
▁ఎన్నో	30
▁నొక్కాలి	30
▁సరైనవి	30
▁కరస్పాండ	30
▁సామర్థ్య	30
▁క్రిప్టోసిస్టమ్	30
▁ఐకాన్	30
▁సంస్థలను	30
▁ఐసోమోర్ఫిజం	30
▁డాలర్లు	30
▁టిఆర్	30
▁ఇతరులను	30
▁గీయండి	30
▁ధూమపాన	30
▁ఊపిరితిత్తుల	30
సెక్యూర్	30
▁క్లైంట్స్	30
ఐఓ	30
▁నిర్మించవచ్చు	30
▁గ్రామాల	30
W	30
ియర్	30
▁వర్గ	30
మోడ్	30
▁చేసుకోగలుగుతారు	30
J	30
బార్	30
మ్స్	30
▁ప్రకాశం	30
▁నిర్వచనంలో	30
▁పంక్తుల	30
▁అమ్మాయిల	30
▁రంధ్రం	30
▁టైర్	30
బెల్	30
▁స్పెక్షన్	30
▁ఫలితాలతో	30
▁చెల్లింపుల	30
▁ఐరిస్	30
▁ప్రచురణలు	30
స్టర్న్	30
▁ఉన్నప్పుడల్లా	30
▁ట్రేసర్	30
▁డిపాజిట్ల	30
Bi	30
fd	30
▁తగ్గడానికి	30
▁ఇంటిగ్రల్స్	30
▁మాక్సామ్	30
▁ఫ్లోరోఫోర్స్	30
▁ఆక్చ్యు	30
▁టోమోగ్రఫీ	30
▁ప్యాన్ష	30
▁మిశ్రమంలో	30
ైజా	30
లెక్కించేటప్పుడు	30
▁ప్రతిరూపణ	30
▁క్షయం	30
▁dNTP	30
▁కండక్షన్	30
▁సమాకలన	30
▁స్కేలు	30
▁చేయబోతోంది	30
ణాలు	30
▁రెసిడ్యూ	30
▁Un	30
▁అరిథ	30
▁కానిచో	30
▁cx	30
▁పాథోజెన	30
▁వేరియన్స	30
▁జాకోబియన్	30
▁త్వచం	30
▁పోస్టీరియర	30
▁కేసెస్	30
▁గఖర్	30
▁పెన్సిలిన్	30
జాయింట్	29
▁చక్ర	29
▁రీకాల	29
▁సహాంతర	29
▁సిగ్నేచర్స్	29
▁తేడాల	29
▁దశలవారీ	29
▁షా	29
▁చేర్చబడింది	29
▁అకడమిక్	29
మేము	29
▁కంప్యుటేషనల్	29
▁ఆర్డినేట్	29
న్నత	29
▁వందలా	29
▁సూచనలతో	29
▁అనుమానాస్పద	29
▁నమ్ముతారు	29
▁మినిమా	29
▁చదవండి	29
▁కలుపుతారు	29
ಾನ	29
▁లెక్కలు	29
▁ప్రొఫెషనల్స్	29
▁ఫోర్డ్	29
▁మించిన	29
▁ప్రబల	29
▁భావించే	29
▁టైపింగ్	29
▁తీసుకోకుండా	29
▁పోర్టబిలిటీ	29
▁ఆఫీస్లు	29
భంగం	29
▁సాంఘిక	29
▁టెక్నాలజీల	29
▁చేరుకుంటారు	29
ಿನ	29
▁vs	29
▁ಹ	29
▁పెడతాము	29
▁ఇండెక్స్డ్	29
▁శీతల	29
▁గంటకు	29
▁డిఫ	29
▁నీ	29
▁ఉంటేనే	29
▁విత	29
▁ప్రదేశాలు	29
▁హెడ్స్	29
▁జర్మన్	29
▁టపుల్	29
▁పాలసీస్	29
▁వాడకంతో	29
▁అధికారులు	29
▁ప్రామాణికత	29
▁ఎలాస్టిక్	29
▁అథెంటిసిటీ	29
▁వేరియంట్	29
▁ఇక్కడే	29
▁సాంప్రదాయకంగా	29
▁తెలుపుతుంది	29
లేదని	29
▁ఫ్రెండ్స్	29
▁నియమ	29
▁బోధించే	29
▁ప్రొడక్టివిటీ	29
▁పరిశీలించవచ్చు	29
▁ఛానెల్స్	29
▁సరదా	29
▁మాతృకగా	29
▁నిండి	29
▁చాలామంది	29
▁నడక	29
▁బేక	29
▁ఎన్కోడర్	29
▁పంచుకోవచ్చు	29
▁కరీ	29
▁గ్రాడియెంట్	29
▁చెక్క	29
▁బిందువులకు	29
▁వ్రాయబడ్డాయి	29
▁లేరు	29
▁అడ్	29
▁చూడడానికి	29
▁అవ్వడం	29
▁ఎటాక్ల	29
▁ఓఎల్	29
▁ఆపరేటర్లు	29
సర్వర్	29
▁సంఘాల	29
కీవర్డ్	29
కనుగొనబోతున్నాను	29
▁పర్చేజ	29
▁ధృవీకరించవచ్చు	29
▁ఆర్మ్	29
▁స్పాట్స్	29
▁రాదు	29
▁ఎన్విరాన్	29
టేన్	29
▁భిన్నమైనది	29
▁చేర్చబడుతుంది	29
▁ఇంటెన్సివ్	29
▁వాహక	29
▁పాలు	29
▁భాగస్వాముల	29
▁పాత్‍	29
▁అన్వేషించ	29
▁మాథెమెటిక	29
▁టోపాలజీ	29
▁పనితీరులో	29
▁తీసుకోబడ్డాయి	29
▁సంభవించవచ్చు	29
▁వాక్యాల	29
వీ	29
▁పన్నెండవ	29
వీటిలో	29
▁మైగ్రేషన్	29
▁ఢిల్లీలో	29
▁ux	29
▁పేర్కొంటారు	29
▁టెక్స్చరింగ్	29
▁డూప్లికేషన్	29
▁పార్టికల్	29
▁మార్చి	29
▁కామర్స్	29
▁నార్త్	29
▁ఔట	29
▁వైఫై	29
▁భావించాము	29
▁రేఖలు	29
భాగాలకు	29
▁మార్చుకోవచ్చు	29
▁మద్దతును	29
▁పిఎన్	29
▁సిఎ	29
▁కస్టమైజ్	29
▁ఎనబుల్	29
▁జెనెటిక్స్	29
▁తలం	29
▁సెమాంటిక్	29
▁</	29
▁తెలియజేయ	29
▁సిమ్మెట్రీ	29
▁మాడిఫికేషన్	29
▁నిశ్శబ్దం	29
▁ఘర్షణ	29
▁స్థాపించబడిన	29
▁మినిమాక్స్	29
▁ఇన్పుట్ల	29
▁సత్యము	29
▁అమౌంట్	29
▁బఫర్స్	29
ుదాం	29
▁గ్లాస్	29
▁అమ్మక	29
▁అందించగల	29
రేటివ్	29
▁పురుషుల	29
▁వాదనలు	29
▁కల్పించ	29
▁యజమానుల	29
▁ఉపయోగించబడ్డాయి	29
▁ప్రోత్సహించడం	29
ైజ్డ్	29
▁పలుచ	29
సిడి	29
▁సైన	29
▁చెల్లించాల్సి	29
ఈక్వేషన్	29
▁ಎವಿಡೆನ್ಸ್	29
▁పొరల	29
▁మీటర్ల	29
▁అత్యవసర	29
▁సందర్శించిన	29
▁జతచేయబడిన	29
▁విభజించబడినది	29
టర్మ్	29
▁చర్చించబడుతుంది	29
మిడి	29
▁కనుక్కోవడం	29
▁జరుగుతున్నది	29
▁మొట్టమొదట	29
▁సంభవించడ	29
▁పరిగణిద్దాం	29
▁బోధిస్తాను	29
ియం	29
▁వేరుచేయడానికి	29
▁జన్యుసంబంధమైన	29
▁వేరియబిలిటీ	29
▁NGS	29
ంకెల్	29
!=	29
▁ఇంటిజర్స్	29
∘	29
+....+	29
▁లాంగిట్యూడ	29
లేషనల్	29
▁ఆల్కలీన	29
▁డైలు	29
▁ట్యాక్సేషన్	29
▁డొమినాంట్	29
▁గివెన్	29
సియన్	29
▁నానోమీటర్ల	29
▁రెసిప్రోకల్	29
▁ఇన్వర్టి	29
fdx	29
▁అబ్సర్వ్	29
▁αβ	29
▁అవయవ	29
ోలార్	29
▁నిర్ణాయకము	29
▁కోడాన్	29
▁ప్రోపోర్షన్స్	29
▁కేటాయించే	28
▁ప్యారిటీ	28
▁పనులకు	28
▁బిల్లు	28
▁జీతాలు	28
▁డైరెక్షనల్	28
▁US	28
▁చేసుకోవాల్సి	28
▁జ్ఞాపకశక్తి	28
▁సాంపుల్	28
▁డెక్	28
▁దశల్లో	28
▁ప్రవేశించే	28
▁స్టూడెంట్స్	28
▁టైల్స్	28
మెయిల్స్	28
▁సామగ్రిని	28
▁హౌస	28
▁కంప్యూటేషన	28
ದ್ದರಿಂದ	28
విద్యా	28
▁స్పర్శ	28
▁ప్రత్యామ్నాయాలు	28
▁పిన్స్	28
▁స్కేల్స్	28
▁టీవీ	28
▁ఎంట్రీలు	28
▁కీఫ్రేమ్	28
▁సమాజ	28
▁చిహ్నం	28
▁టెలి	28
▁కుడికి	28
▁ఎఫిసియె	28
▁టైట్	28
▁పిల్లలకు	28
▁స్ట్రీమింగ్	28
▁ఏమిటనే	28
▁స్క్రిప్టింగ్	28
▁ముక్కల	28
▁గ్రెయిన్	28
్రారంభించుకుందాం	28
▁రిఫర	28
రూపించబోతున్నాము	28
▁AS	28
నుకుందాం	28
▁రిఫ్రెష	28
సిపియు	28
▁వినూత్న	28
▁సమీక్షించ	28
▁AH	28
▁నల్ల	28
▁హైరార్కియల్	28
▁అంద	28
▁రూపొందించాము	28
ఎయిడ	28
▁దృశ్యం	28
▁ఎటిక్య	28
▁అవుత	28
▁ప్రతిరూప	28
▁ಇಂಟರ್	28
▁స్వల్పకాలిక	28
▁సేకరిస్తారు	28
▁కాపాడటానికి	28
▁శతాబ్దం	28
▁ప్రయాణిస్తుంది	28
▁మోనోఅల్ఫాబెటిక్	28
▁రూపాయి	28
▁పదునైన	28
▁ప్రతిబింబం	28
▁సంభవించినప్పుడు	28
▁ప్రిడిక్షన్	28
యో	28
▁చేయబడతాయ	28
రెన్స్	28
▁‍ను	28
▁ತನ	28
FE	28
▁ఐసోలేట్	28
▁అదృశ్యమవుతుంది	28
▁అసమకాలిక	28
సరి	28
▁తగ్గిస్తే	28
▁ఫిల్టరింగ్	28
▁డ్రిల్	28
▁Ct	28
▁కాగలదు	28
మౌంట్	28
▁DDM	28
▁బ్రూక్	28
▁పోల్	28
▁చూస్తాం	28
▁ప్రాధాన్యతలు	28
▁మాట్లాడుకున్నాం	28
▁అనువర్తనాలకు	28
▁ట్రయిల్	28
▁అర్ధవంతమైన	28
∉	28
▁రూపొందిస్తుంది	28
▁చెందాయి	28
▁చలరాశులను	28
▁సంవత్సరాల్లో	28
▁చర్చాంశంలో	28
స్క్రీన్	28
▁తీయడం	28
దారి	28
▁ట్రాన్స్పోర్ట్	28
▁ప్యాట్రన్ల	28
▁చెల్లించడానికి	28
▁ఫెయిల్యూర్	28
▁కళ్ళు	28
▁ఇంజెక్షన్లు	28
బోవడం	28
▁స్కాటరింగ్	28
▁మార్చడంలో	28
▁న్యాయం	28
▁పంక్తులు	28
▁కొనుగోళ్ల	28
▁కాంటూర్	28
▁స్పెషలైజ	28
▁హెటెరోజీన	28
▁తల్లిదండ్రుల	28
ಿಸುವ	28
▁ఆక్యురసి	28
▁పొరలలో	28
ిస్టిక్	28
▁వ్యాఖ్యలు	28
▁లక్ష్యంతో	28
▁మార్చబడిన	28
▁కూడ	28
▁నార్మలైజేషన్	28
▁వాతావరణాల	28
▁గుణక	28
లైట్	28
▁నూ	28
▁స్టాండర్డైజేషన్	28
ేలా	28
▁మార్చగలదు	28
▁స్త్రీ	28
▁కంటైనర్	28
▁డ్యుయల్	28
ift	28
▁ఉదాహరణలలో	28
▁అనుబంధిత	28
▁వర్గీకరించారు	28
ఫరెన్షియల్	28
▁రావాలి	28
▁నిరవధిక	28
▁యుఆర్ఎల్	28
▁పాఠ్య	28
▁మరొకదాని	28
▁రూపాలలో	28
▁తెలిసినది	28
▁క్యా	28
జువు	28
▁కొలమానం	28
▁నిర్వచిస్తాను	28
▁గీస్తాము	28
ుకుంటారు	28
సెంట్రల్	28
▁వెళుతున్నప్పుడు	28
నియంత్రించబడతాయి	28
▁ఫంక్షనాలిటీ	28
▁తగ్గుదలకు	28
▁బిల్లులు	28
▁వ్యక్తిత్వం	28
▁సమం	28
డిసీస్	28
▁భారతదేశ	28
▁డిస్ప్లే	28
an	28
▁క్రమానుగతంగా	28
▁చెందడానికి	28
▁Aij	28
▁పెంచును	28
క్షన్	28
ci	28
▁చెందని	28
▁పాలిమర్	28
▁సంగ్రహ	28
▁మాడ్యూళ్ల	28
బ్స్	28
≅	28
▁ఫార్మాల్డిహైడ్	28
▁ట్యూమ	28
▁కౌంటబుల్	28
▁బంధాలు	28
▁లెక్చర్‍లో	28
▁మెండల్	28
▁డెసైల్స్	28
▁బంధింపబడ	28
▁అనలైజర్	28
▁రెసెసివ్	28
▁వాల్యూల	28
▁స్పెక	28
ులేటివ్	28
▁టిఎల్సి	28
▁ముసలి	28
fx	28
dt	28
dy	28
▁Eij	28
▁కాస్మిడ్	28
ta	28
మిథైల్	28
▁ఆర్బిట్స్	28
ప్రతిక్షేపించాలి	28
▁pI	28
▁నైన్ట	28
▁rC	28
▁ಸಂಸ್ಥೆಯ	27
▁అభ్యాసకుడు	27
▁ఫాం	27
▁ఆట్రిబ్యూట్స్	27
ఫార్మ్	27
▁ఐప్యాడ్	27
▁ప్రవేశపెట్టిన	27
▁ఎలెక్ట్రో	27
▁వెచ్చించ	27
▁మేనేజ	27
▁అత్యు	27
▁ప్రిమిటివ్స్	27
▁ಅಟ್ಯಾಕ್ಸ್	27
▁ప్యారల	27
▁గాయం	27
▁అన్వయించవచ్చు	27
ಬೇಕು	27
▁ವರ್ಡ್	27
▁ట్విట్టర్	27
▁పరిచయాన్ని	27
▁పరిభాష	27
▁వేతన	27
▁ఆలోచించవచ్చు	27
▁తెరవడం	27
హాల్స్	27
ದ್	27
▁ఆకర్షణ	27
▁యూజర్ని	27
▁సరైనదా	27
▁వస్తున్నాయి	27
▁గ్రూపులు	27
▁అయినట్లు	27
▁అల్గారిదమ్	27
సీక్వెన్షియల్	27
▁రూపురేఖలు	27
▁సినిమాలు	27
▁అనుమతించబడ	27
▁పాలి	27
▁సారించడం	27
▁పెల్	27
▁స్టాండ్	27
▁బిల్ట్	27
▁సందర్శించ	27
▁గుర్తించబడ	27
▁భాగమైన	27
▁తెరవ	27
▁వస్తాము	27
▁అభ్యాసాల	27
డెసిమల్	27
▁అనవసరం	27
▁ప్రవేశపెట్టారు	27
▁స్నిగ్ధత	27
▁సారిస్తుంది	27
▁విరుద్ధమైన	27
▁ఫాల్ట్	27
▁తరంగదైర్ఘ్య	27
▁ఉంచబడినది	27
▁థీమ్	27
▁యూట్యూబ్	27
▁చూపించాలి	27
▁కనిపించిన	27
▁భుజం	27
▁ఒక్కొక్క	27
▁ఉన్నాడు	27
తీసుకోబోతున్నాను	27
▁టుపుల్	27
▁ఉపన్యాసాల	27
ನೆಟ್	27
▁చెప్పింది	27
▁వెళ్ళడానికి	27
▁ప్రధానమైన	27
▁అంతకుముందు	27
▁రీసోర్సుల	27
ెషన్	27
▁ಇದನ್ನ	27
▁తపాలా	27
▁కలుస్తామ	27
▁చేసాడు	27
▁చుక్కలు	27
▁ఇంటరప్ట్	27
▁జరుగును	27
▁నేర్పించాము	27
▁యజమానులు	27
▁పెరుగుతున్నాయి	27
▁సమితికి	27
▁dot	27
▁విషయాలతో	27
▁కనుగొనవలసి	27
బ్లాక్	27
▁తలెత్త	27
▁దుర్బలత్వాల	27
▁చిహ్నాలు	27
▁మార్చింది	27
ాల్లో	27
▁ఐసి	27
▁వైఫల్యాల	27
▁క్లాసిఫైయర్	27
ఆధునిక	27
▁దాటి	27
▁పరిశీలిస్తున్నా	27
కె	27
▁పదబంధాలు	27
్యామ్	27
▁సెకన్ల	27
▁లిటరేచర్	27
▁నైబర్స్	27
▁మిల్లీమీటర్	27
▁ప్లానర్	27
రాండమ్	27
▁నియంత్రణల	27
▁వ్యవస్థాపించ	27
▁ట్విస్టెడ్	27
▁రంధ్రాలు	27
▁సాక్షి	27
లభ్యం	27
▁కలర్డ్	27
▁నియమించ	27
▁టిఇ	27
▁ప్యాకేజ్	27
▁ప్రచురించబడిన	27
లోపే	27
పున్యం	27
▁సోకిన	27
ij	27
▁ఉండకపోతే	27
▁యంత్రాంగం	27
▁ఉంటుందనే	27
▁బలహీన	27
▁భాషలలో	27
▁తీసివేయ	27
▁పా	27
▁కీనోట్	27
sh	27
▁ఎంగేజ్	27
▁వర్తిస్తుందని	27
▁వెళ్ళాలి	27
▁విలియ	27
▁హండ్రెడ్	27
▁ఎంచుకో	27
▁ప్రతిపాదించారు	27
నప్పటికీ	27
▁నిశ్చితార్థ	27
మెరుగైన	27
▁తెలుస్తోంది	27
ప్రారంభ	27
హన	27
▁సంతానం	27
▁జతలు	27
▁నెంబరు	27
▁మార్చుదాం	27
▁ప్రదర్శనను	27
▁స్టైల్స్	27
▁రెవెన్యూ	27
▁సర్క్యులేట	27
▁బ్లాంక్	27
▁పిసిఎ	27
▁మిర్రర	27
ఇంటర్	27
▁చేసుకుంటుంది	27
▁పార్టీలు	27
▁నిమగ్నం	27
▁సర్టిఫిక	27
▁అర్ధ	27
▁కిలో	27
▁స్క్రీనింగ్	27
▁కాల్స్	27
▁ON	27
▁తీసుకున్నారు	27
▁అంటా	27
▁ఆర్ధిక	27
▁తొలగించాల్సి	27
▁పార్టిసిపెంట్	27
▁బ్లో	27
▁వేస్తే	27
▁గుర్తించదగిన	27
▁పరిగణించుదాం	27
▁పదిహేన	27
పరిచే	27
▁చేయబడినదా	27
▁పెట్టండి	27
▁డయాగ్న	27
▁ఇమాజినరీ	27
▁తగ్గిస్తాయి	27
ొక	27
▁ఇక్కడికి	27
▁డిస్ట్ర	27
▁చర్చించబోయే	27
▁ఆధారపడింది	27
▁ఉత్తేజిత	27
▁విలువలలో	27
▁EX	27
యువల్	27
▁రిపోజిటరీ	27
▁డిడక్షన్	27
▁లెక్కించబడిన	27
తుంది	27
▁అనంత	27
▁ప్రయ	27
▁ఎంపిరిక	27
వాలి	27
ీకరించవచ్చు	27
▁పార్టీషన్	27
అతను	27
సెక్షన్	27
▁సంతృప్తిపరిస్తే	27
▁సొల్యూట్	27
▁DD	27
▁కేలీ	27
ప్రోక్సిమేషన్	27
▁బైమోడల్	27
▁zx	27
▁మోంట	27
▁బంధించడం	27
▁టిల్డా	27
▁పోలేట	27
▁RNase	27
▁ఎపిసి	27
సెల్యులోజ్	27
▁మీజర్	27
≈	27
▁స్క్వేరింగ్	27
▁శేషం	27
▁ఫార్మేషన్స్	27
▁వేరుచేయబడిన	27
▁కటకం	27
▁పెరాక్సిడేస్	27
▁అగ్రికల్చర	27
▁డిఫరెంషియల్	27
!)	27
▁zai	27
▁PDE	27
▁ఎంజైమ్స్	27
ఎలక్ట్రోఫోరేసిస్	27
కోట్	27
▁ఎలొకేషన్	27
▁అనుమతించడానికి	26
▁పొరుగు	26
▁ఫండమెంటల్స్	26
▁ఉంచుతాయి	26
ಮ್	26
▁అభ్యసనం	26
▁అనుమతుల	26
▁PKI	26
▁సర్టిఫికెట్	26
▁స్ప్లిట్	26
▁ఫోర్జరీ	26
▁పేరా	26
▁యానిమేటర్	26
▁ప్రతినిధి	26
▁వయోజన	26
▁కేటాయిస్తుంది	26
▁ఇంక్రిమెంట	26
▁మంచివి	26
▁సమీకృతం	26
▁వెండర్	26
డ్యూప్లెక్స్	26
ಿದೆ	26
▁జీవితకాలం	26
▁బహుముఖ	26
▁తెలియ	26
▁డేటాబేసెస్	26
ిటీను	26
▁నీతి	26
▁ಕ	26
▁మార్చకుండా	26
▁స్థూలంగా	26
▁చేయుటకు	26
▁బలహీనతలు	26
▁స్వయంప్రతిపత్తి	26
▁మిస్టర్	26
▁పార్ట్స్	26
▁ఐచ్ఛికం	26
▁లాగ	26
▁బాధపడ	26
▁చేరిన	26
▁మూవీ	26
▁కస్టమర్లు	26
▁సమీకరించ	26
ఏదో	26
▁అందించబడింది	26
▁ప్రమాదవశాత్త	26
▁మాక్జిమ	26
▁రైట్స్	26
▁సామగ్రి	26
▁ఇన్ఫరెన్స్	26
▁సోక	26
▁నమ్మదగినది	26
▁ಹೆಸರು	26
ುವ	26
▁హైపోతేసిస్	26
▁సచిన్	26
▁బర్న	26
సరైన	26
▁వైఫల్య	26
▁ಲ	26
▁సంతృప్త	26
▁ప్రయాణించడం	26
▁వీడ్కోలు	26
▁పోస్టర్	26
▁తొలగించాలి	26
▁విమానం	26
▁అక్రమ	26
▁ప్రస్తావించిన	26
హోమ్	26
▁ఉంచుకోవాలి	26
▁డిజైనర్లు	26
▁ఈరోజుల్లో	26
▁మార్చవచ్చ	26
▁మోర్	26
సాంకేతిక	26
▁టాక్	26
▁క్యాలెండర్	26
diam	26
▁నిర్మించాలి	26
ంతవరకు	26
▁క్లస్టర్స్	26
▁అల్గోరిథంల	26
నిచో	26
▁సంగ్రహించిన	26
▁చలనచిత్రం	26
▁వెంబడి	26
▁పరిగణించబడే	26
▁అడగడం	26
▁కాన్ఫరెన్స్	26
యిడ్	26
▁OLAP	26
▁రహస్యంగా	26
▁రోజులలో	26
▁ముద్రణ	26
▁సృష్టించి	26
▁ఆపరేషన్లు	26
▁డెలివరి	26
▁నిర్మిస్తుంది	26
▁చేరుకున్న	26
▁ఏరియాలో	26
▁సద	26
ನೇ	26
▁కన్వల్యూషన	26
▁పర్ఫామెన్స్	26
ఫైన్	26
▁పాన్షన్	26
▁లీడ్	26
▁ಡಾಕ್ಯೂಮೆಂಟ್	26
▁తెలుసుకుంటాము	26
▁SC	26
▁సమూహాలలో	26
▁ప్రేరేపించడం	26
ఎమ్ఎస్	26
▁అవరోధం	26
▁సముపార్జన	26
mi	26
▁సంయుక్త	26
▁తెలియజేయడం	26
▁ముగిసిన	26
▁ఫ్రెండ్లీ	26
▁షేడెడ్	26
▁ఎంచుకుంటుంది	26
▁చేయబోయేది	26
▁మూడో	26
▁అనుసరించవచ్చు	26
▁హీల	26
▁bc	26
▁పట్టికలు	26
▁జంప్	26
▁చూపిస్తాము	26
▁ఎనర్జీ	26
▁అర్థంలో	26
డిస్	26
▁పడే	26
▁తొలగించబడతాయి	26
▁సంస్థాపన	26
▁మానవీయ	26
▁ఎటా	26
▁వైద్యులు	26
▁వాడ	26
▁లెక్క	26
▁సమీకరణాలలో	26
▁ఉద్యోగికి	26
▁కనుగొనబడ	26
▁దక్షిణ	26
▁క్రెడెన్షియల్స్	26
▁పూర్తయినది	26
▁ఎర్ర	26
▁వారీ	26
▁చేతుల్లో	26
▁స్మడ్జ్	26
▁కెమిస్ట్రీ	26
▁శూన్య	26
▁న్యూరాన్ల	26
▁స్కెలెట	26
▁కోరికల	26
కామ్	26
ర్త్	26
▁తీసివేయబడుతుంది	26
▁కోర	26
▁తగినట్లు	26
▁పొందగలిగే	26
ిష్	26
▁జెండర్	26
▁పేర్కొన్నాము	26
▁లవణ	26
▁ఎంక్వైరీ	26
ప్రారంభించబడింది	26
▁ట్రయాంగిల్	26
▁ఎంచుకొని	26
▁నమ్మదగిన	26
▁అసంపూర్ణంగా	26
▁పోర్ట	26
▁స్ట్రెయింట్స్	26
▁వ్యవసాయం	26
▁పర్యవసానాల	26
▁వస	26
▁లేన్	26
కండి	26
పున్యాల	26
▁సెలెక్టివ్	26
▁సందేహం	26
▁ఐడియల్	26
▁ఉత్పత్తిలో	26
▁రిట్రైవల్	26
▁పనిచేస్తుందని	26
▁పదును	26
▁ప్రకాశవంతం	26
డ్యూయల్	26
▁చెస్	26
రియా	26
ద్వారా	26
▁టీచర్	26
▁సిగ్నలింగ్	26
▁తగ్గించి	26
▁బోర్డులు	26
▁చేరే	26
పందొమ్మిది	26
▁అనుకుంటున్నారు	26
టే	26
▁ఫి	26
▁ఇవ్వబడితే	26
క్యాపిటల్	26
ఫీల్డ్	26
▁సూచించబడింది	26
మళ్ళీ	26
టిక్స్	26
హలో	26
ఫ్రీ	26
▁పునరావృతాలు	26
గ్గా	26
▁మాథెమెటికా	26
▁సంఖ్యలలో	26
▁స్టిక్కీ	26
గ్రేడ్	26
▁పంచుకోవాలి	26
▁సమావేశ	26
▁తీసుకో	26
▁భాగించాలి	26
▁పంజాబ్	26
▁జంతు	26
▁OD	26
▁సమ్మరైజేషన్	26
▁వ్యాల్యూను	26
నాల్డ్	26
లింకింగ్	26
▁ఏమనగా	26
▁కన్సర్వే	26
▁Bk	26
▁మోస్తరు	26
▁ద్రావణాన్ని	26
cn	26
▁డీనాచుర	26
▁డీనేచర్	26
▁చెర్రీ	26
▁కీటక	26
▁ఖాస	26
▁లాగరిథం	26
▁ఎఫ్ఐటిసి	26
▁kx	26
అప్ప్రోక్సిమేషన్	26
▁Ak	26
▁పెరిమెంట	26
▁కారకమైన	26
▁Zp	26
▁బ్లాట్స్	26
▁సింగ్యులారిటీ	26
▁రెసిడ్యుయల్	26
▁పరిక్షేపణం	26
▁నిర్ణాయక	26
▁క్షీరదాల	26
▁చికాగో	26
▁మిల్లీమ	26
▁ట్యూబ	26
Cr	26
▁లిటరసీ	25
▁కామెంట్స్	25
మైతే	25
ఇమెయిల్	25
▁యాజమాన్య	25
▁ఆకారంలో	25
▁జన్యుశాస్త్రం	25
మూహ	25
▁గుణాలు	25
▁PEM	25
ాలో	25
▁వేలిముద్ర	25
▁ముక్క	25
▁వ్రాసి	25
▁అతుకు	25
▁కంప్రెస్	25
▁ఇంజినీరింగ్	25
▁విద్యార్థిని	25
▁అధునాతనమైన	25
మి	25
▁విభజించి	25
▁అట్రిబ్యుట్స్	25
▁పొందవచ్చ	25
▁ఉంటాయో	25
▁ప్యాకేజీలు	25
▁డిస్ట్రిబ్యుషన్	25
▁చూడగల	25
ೊಂದಿಗೆ	25
▁సమావేశాల	25
▁పెట్టాలి	25
▁పాఠకులకు	25
▁స్నేహపూర్వక	25
చి	25
▁ఇఫ్	25
▁మధ్యస్థ	25
▁తయారీదారుల	25
▁పెంపొందించడం	25
▁ఉపయోగించలేరు	25
▁మాన్యువల్స్	25
యానిమేషన్	25
▁ఉపరితలాల	25
▁తయారీలో	25
▁వివరాలతో	25
నని	25
▁అందించబడ్డాయి	25
▁బలాలు	25
▁ఇత	25
▁కేసును	25
▁కలరబుల్	25
▁అనుమతులు	25
▁క్యారియర్	25
▁డాక్యుమెంట్ల	25
▁సోకుతుంది	25
▁కాగ్నిటివ	25
▁అవరోహణ	25
▁మెజెంటా	25
ಚ್	25
▁పాస్వర్డ్	25
▁చేసినట్లయితే	25
▁తొలగిస్తాము	25
▁చూపుతున్నది	25
నాలుగు	25
▁పార్టిసిపే	25
▁విభజించబడుతుంది	25
▁పిట్	25
▁ఉచ్చారణ	25
▁రిచ్	25
▁స్టర్	25
▁సహేతుకమైన	25
▁అమ్మకం	25
నాచుర	25
▁ఉత్పన్నమైన	25
▁ప్లానార	25
▁జోడింపు	25
▁అనుకుంటున్నాము	25
▁RGB	25
▁తీసుకోవాల్సి	25
▁అందించారు	25
▁స్ట్రక్చర	25
”	25
▁ఆశించే	25
▁త్రో	25
▁పరిపూర్ణం	25
▁ಕಾನೂನು	25
▁సంపాదించడానికి	25
▁యాహూ	25
▁సాధ్యపడదు	25
అత్యంత	25
హెల్ప్	25
▁కాంట్రాస్ట	25
▁రిసోర్సస్	25
▁కొండ	25
▁చేయరు	25
▁ఎంటిటీస్	25
▁మూలలో	25
▁కథలు	25
▁రోమ్	25
▁ఫైనాన్స	25
▁నేర్చుకోవ	25
▁ముగించడానికి	25
▁పునర్నిర్మాణం	25
▁లాగింగ్	25
▁రచనలు	25
▁చేస్తున్నార	25
ఫిజికల్	25
▁తేలికపాటి	25
లాంగ్	25
▁విక్రోడీకరిణి	25
షియల్	25
▁మార్ఫ	25
▁పేర్కొనాలి	25
▁మెరుగుపరచ	25
▁ఫ్యాషన్	25
▁ಇಲ್ಲಿ	25
▁చేయబడుతోంది	25
ేటరీ	25
▁ప్రతిబింబించ	25
▁తేమ	25
▁వైద్యుడు	25
▁చేర్చాలి	25
▁ప్రీజీ	25
ాలనుకునే	25
▁కొలది	25
▁రెటీనా	25
▁తిప్ప	25
‍ల	25
▁చర్మం	25
▁ఒక్కటే	25
▁నుండ	25
▁ప్రోత్సహించే	25
▁అనువదిస్తుంది	25
▁కంప్యార	25
NG	25
▁నిఘా	25
హెర్ట్జ్	25
▁చీఫ్	25
▁చేస్తున్నాం	25
▁ఆలోచించడం	25
▁వ్రాయగలను	25
▁యూఎస్	25
వాళ్ళు	25
ందువల్ల	25
▁కాంపోజిషన్	25
▁శైలుల	25
▁గుర్తించగలము	25
▁ఆదాయాల	25
▁రిప్లై	25
▁అక్ష	25
▁ప్లేస్మెంట్	25
▁SHA	25
▁వంతెన	25
▁పరిగణిస్తే	25
▁వర్తింపజేయాలి	25
▁హ్యూరిస్టిక్స్	25
▁ఏర్పరచ	25
SSS	25
ందిన	25
▁మారితే	25
హై	25
▁వేతనాల	25
▁పివోపి	25
▁ఉపవిభాగం	25
▁వెయిట్లు	25
▁షీల్డ్	25
▁చదవాలి	25
▁రాసిన	25
▁ప్రాధాన్యతల	25
▁సో	25
▁రక్తపోటు	25
▁పరిశ్రమలలో	25
▁సెంటీమీటర్ల	25
▁రెగ్యులేటరీ	25
▁మార్చును	25
▁సత్వర	25
త్తి	25
▁అంతరాల	25
▁క్వాడ్రంట్	25
▁రాక్	25
)|	25
▁తీర్మాన	25
ూలు	25
▁ఎస్టిమేషన్	25
▁ఊహించండి	25
▁రోజూ	25
▁చేసుకోగల	25
▁ఇచ్చాము	25
▁ఫాంట్స్	25
▁వ్యక్తులలో	25
▁ఉంచినప్పుడు	25
▁గూ	25
టెక్	25
▁కనుగొన్నప్పుడు	25
▁చేసినప్పుడల్లా	25
▁ప్రేరేపిస్తుంది	25
▁ఏర్పరచడం	25
▁జీవితచక్రం	25
▁సాయంతో	25
▁గమ్య	25
▁చూసేది	25
▁ఉత్పన్నమయ్య	25
▁షేడ్స్	25
▁విభిన్నమైనది	25
▁రుణాల	25
▁అనుమతించబడిన	25
▁పరిష్కారంలో	25
▁వెలాసిటి	25
▁గురవుతాయి	25
లియన్స్	25
▁నైట్	25
▁చొరవ	25
▁రచయితలు	25
▁సహాయపడుతుందో	25
▁అలానే	25
▁సంజ్ఞామానం	25
▁పట్టణ	25
▁తీసుకుంటున్న	25
▁రోజులో	25
▁కలిగించదు	25
▁పివట్	25
▁స్వింగ	25
▁CS	25
▁మెడిసిన్	25
▁జతచేయబడుతుంది	25
▁ఫాక్ట్	25
▁ఎనియలింగ్	25
▁మల్టిప్లిసిటీ	25
=[	25
▁లింకేజ్	25
▁సగటులు	25
▁వీక్షించిన	25
▁డిస్పోస	25
▁వైవిధ్యత	25
▁ఓవర	25
▁రెసిడ్యూస్	25
▁MV	25
▁జిల్లా	25
nxn	25
▁కాలుష్యం	25
▁కలుషితం	25
▁పలుచన	25
▁ష	25
▁ద్రావితం	25
▁హైడ్రోఫ	25
▁జాకోబి	25
▁రసాయనాల	25
▁బెస్	25
▁ml	25
▁శకలాల	25
▁ప్రతిరక్షకాలు	25
▁సెక్యూరిటీస్	25
▁కోవలెంట్	25
▁లీకేజెస్	25
▁బంధించడ	25
▁సైక్లోట్రాన్	25
▁ట్రిగోనమెట్రిక్	25
▁పాచికల	25
=∑	25
▁Nh	25
▁పొసిషనల్	25
రియర్	25
▁చేసుకోవాల	25
▁పిఇ	25
▁సమగ్రం	25
▁ఇంక్యుబేషన్	25
▁)^	25
▁బ్లీచింగ్	25
▁కిలోబేస్	25
▁కణంలోని	25
▁ఎంటర్ప్రెన్యూర్	25
▁అబ్సార్బాన్స్	25
▁గుళిక	25
కెంట్	25
▁బ్యాక్టీరియాలో	25
=∫	25
▁అండాశయ	25
▁డెనోమినేటర్	25
▁అన్యాలిసిస్	25
ø	25
▁రెసిడ్యువల్	25
▁పైవోట్	25
▁ట్రైఫాస్ఫేట్	25
▁ఎలిమెంటర	25
▁ప్రోటాన్	25
!+...	25
▁ఫిజిక్స్	25
▁ఫిల్ట్రేషన్	25
▁డిజీస్	25
లెట్	24
యిన	24
▁చేయాల్సినది	24
సమాచార	24
▁ವೇರ್	24
ಿಟ	24
▁తీసుకువెళుతుంది	24
ಘ	24
▁ఎదుర్కో	24
▁ముద్రి	24
▁విస్తారమైన	24
▁మరణ	24
▁క్రియ	24
ప్రెస్	24
▁రాణి	24
▁ప్రవర్తిస్తుంది	24
వీలుకల్పిస్తుంది	24
▁ఏంటంటే	24
▁విమర్శల	24
▁నేర్చుకోవాలి	24
సెకండరీ	24
ತ	24
ఫెయిర్	24
▁ఉపకరణాలు	24
వాడు	24
▁ತಂತ್ರ	24
▁పసుపురంగు	24
▁వేదికను	24
▁అస్పష్టమైన	24
▁ఉండగలదు	24
▁ಮಾಡುವ	24
▁వర్గీకరణలు	24
▁సమకాలీన	24
▁తాకినప్పుడు	24
▁మారిన	24
▁అరేంజ్	24
▁ల్యాంప్	24
విద్యార్థి	24
▁చిరునామాలు	24
▁బీజగణితం	24
▁రెండిటి	24
▁వ్రాస్తే	24
▁ಇನ್	24
▁స్థల	24
ఇందులో	24
▁మోనోలిథిక్	24
▁మైక్రోవేవ్	24
లెల్	24
▁పారామితి	24
ఫ్రాస్ట్	24
▁చూడాల్సి	24
▁ఓఎంఆర్	24
ైండ్	24
జ్డ్	24
▁కలపవచ్చు	24
▁ప్రాథమికాలను	24
▁అవయవాల	24
▁రాజీపడ	24
ద్	24
▁నివారించాలి	24
▁అభ్యాసకులారా	24
▁పారవేయడం	24
▁కొల	24
షిఫ్ట్	24
ాఖలు	24
▁మైక్రోప్రాసెసర్	24
▁కన్విలేషన	24
▁కొల్లాయిడ	24
క్యారెక్టరైజేషన్	24
▁వాల్స్	24
ed	24
▁చెయ్యగలదు	24
▁మ్యాట్	24
▁వర్తింపజే	24
▁విశ్లేషిస్తుంది	24
▁ఏకకాల	24
▁ಮಾಡ	24
▁ఇష్టపడ	24
▁థింగ్స్	24
▁విజన్	24
▁గో	24
గుర్తుంచుకోవలసిన	24
▁పింగ్	24
▁సింప్లిసియల్	24
ಿಸಲು	24
▁బండిల్	24
రూపించబోతున్నాను	24
▁ఐఎస్	24
▁ప్రతిరూపాల	24
డిస్టిబ్యూటెడ	24
▁ఫోటోగ్రాఫ	24
బడుతోంది	24
▁భాషల	24
▁భ	24
▁ఫార్టీ	24
బ్లెండ	24
▁అందించగలదు	24
▁మెసేజింగ్	24
▁చేయబడుతుందో	24
▁వివక్ష	24
▁కూడుకున్న	24
▁తరగతులను	24
▁టైమింగ్	24
వేర్	24
ఇదేవిధంగా	24
▁జెనరేషన్	24
▁ಪ್ರ	24
UV	24
▁మారింద	24
▁డిఎంఎ	24
▁సభ్యుడు	24
నందున	24
▁స్కిల్స్	24
ప్రజలు	24
ళ	24
▁విశ్లేషించాలి	24
▁చుక్క	24
▁చేర్చవచ్చు	24
▁ప్రజంటేషన్	24
▁ద్వ	24
▁ఖాళీలు	24
▁చట్టంలో	24
▁పొందబడిన	24
▁బా	24
▁అందుకు	24
▁ఇరవైలో	24
▁తగ్గిస్తాము	24
ఈమెయిల్	24
▁పంపబడతాయి	24
దానితో	24
▁ఉన్నారో	24
▁పట	24
▁ఎటాక్లు	24
▁చెప్పాము	24
▁టీం	24
▁పూర్	24
▁లాభదాయక	24
▁నిటారు	24
▁అద్భుతమైనది	24
▁విజిబిలిటీ	24
▁ఇంటర్మీడియెట్	24
▁ఎంపికపై	24
▁పదిలో	24
▁పొడి	24
▁అనుకుంటారు	24
▁ಸೈಟ್	24
తక్కువ	24
‍లను	24
▁భార	24
▁అభి	24
▁అయ్యి	24
▁చేయబడుతుందని	24
▁కానందున	24
▁హోల్డింగ్	24
▁పాల్గొన	24
tion	24
▁సర్దుబాట్లు	24
డిఎల్	24
▁జరిగినది	24
▁ఉపయోగించబడిన	24
ఆగ్మెంట	24
▁అల	24
▁నిరోధించే	24
▁సౌత్	24
▁ప్రతిభ	24
▁......	24
▁స్కేప్	24
▁ఆడితే	24
▁సన్నివేశాల	24
▁డూ	24
▁అచ్చు	24
▁రివ్యూ	24
▁సెకను	24
▁నిర్మించబడిన	24
▁అవసరమా	24
▁ప్రారంభమై	24
ంషియల్	24
▁ఇవ్వగలదు	24
▁ఎస్ఎమ్	24
▁నిర్వచించబడతాయి	24
ఉపయోగించబడుతున్న	24
▁చూపదు	24
▁లైబ్రరీలో	24
▁సైఫర్లో	24
సంబంధించినంతవరకు	24
▁పేర్కొనబడిన	24
▁నిర్వచించింది	24
▁పర్చేజ్	24
▁కట్టుబాటు	24
▁మంచిగా	24
▁దోషం	24
▁అందజేస్తుంది	24
▁ఉత్తేజితం	24
▁ప్యాకెట్ల	24
ఓపెన్	24
▁ఖ	24
▁ప్రతిపాదించ	24
▁అధ్వాన	24
కొద్దీ	24
▁తెలుసుకున్నాం	24
▁వస్తున్న	24
ంచ	24
pen	24
▁ఎదురయ్య	24
▁ఎలు	24
▁జోడించే	24
మోడల్	24
▁సవరించబడిన	24
▁చూపబడును	24
▁చేస్తాయో	24
▁హెటరోజీనియస్	24
▁వ్యూను	24
▁కాలిక్యులేటర్స్	24
▁ఆదర్శవంతమైన	24
▁కలిగినది	24
ిగా	24
▁xk	24
▁అలోకేషన్	24
▁వర్ణించ	24
▁క్యాంప	24
▁చివరల	24
▁అవుతుందనే	24
▁చర్చించడానికి	24
▁పోకడల	24
▁తగ్గితే	24
టిని	24
ంతా	24
▁సారించుదాం	24
▁ట్రిక్	24
CFB	24
▁కొలవగల	24
▁పేర్కొన్నట్లుగా	24
▁టాక్సెస్	24
▁సర్వీ	24
సం	24
బై	24
▁అడిగితే	24
▁నిర్దిష్టత	24
▁జాడ	24
▁దిస్	24
▁తగ్గుతున్న	24
డిస్క్రీట్	24
▁సుష్ట	24
▁ఫలితాలలో	24
▁డిస్ట్రిబ్యూ	24
▁అందిస్తాము	24
▁సూచిస్తే	24
▁సంగ్రహించబడిన	24
▁సంఖ్యలతో	24
▁సిద్ధాంత	24
▁అక్షంపై	24
▁ఆలోచిస్తే	24
▁సింథటిక్	24
▁ఉపయోగించేది	24
ఙ	24
▁షూటింగ్	24
▁సవరించబడింది	24
▁ఇంటరాగేట	24
▁శాస్త్రాల	24
▁సైట	24
▁కోరుకుంటుంది	24
గ్రఫీ	24
▁తగ్గడంతో	24
▁టైస్	24
▁వక్రీభవనం	24
ముక	24
▁జనాభాను	24
▁సిలో	24
▁కిలోడాల్టన్	24
▁కైనెటిక్స్	24
▁జీవశాస్త్రవేత్త	24
▁ద్రవీభవన	24
)}	24
▁విల్కాక్సన్	24
▁హిమోగ్లోబిన	24
▁ఫ్రీక్వెన్సీలు	24
▁కాన్స్టెంట్స్	24
▁క్రాంక్	24
▁ఎందుకనగా	24
▁నియర్	24
▁చర్చిస్తాం	24
"(	24
▁న్యూమ	24
నామిక్స్	24
▁క్యాన్సల	24
▁హెర్మిషియన్	24
▁et	24
▁EDTA	24
▁కణజాలాలు	24
▁జీవరసాయన	24
▁లాగరిథమిక	24
▁ప్రిపరే	24
▁ఉదాహారణ	24
▁యాసే	24
▁లైసోజ	24
▁భ్రమణాల	24
▁హంస	24
▁zero	24
▁నత్రజని	24
▁fy	24
▁వ్యాధిగ్రస్తుల	24
▁కోహర్ట్	24
▁సముచితమైన	24
▁ఊహాత్మక	24
▁టైపోగ్రాఫిక్	23
▁ఒకటిల	23
▁ఎన్నిసార్ల	23
ప్రస్తుతం	23
పోనెంట్	23
▁మాంటిస్సా	23
▁బెదిరింపు	23
▁హోదా	23
ఎటిక్య	23
▁చెప్పబడును	23
▁సహకరిస్తుంది	23
▁చేశారని	23
▁దృక్కోణం	23
▁మొట్టమొదటగా	23
▁రాపిడ	23
▁పేర్కొంట	23
▁దొంగిలించడానికి	23
▁యాదృచ్చికం	23
▁సమర్థ	23
▁కొంతకాలం	23
▁జోడిస్తారు	23
▁ఎంటిటీని	23
▁చరిత్రలో	23
▁కోరిక	23
▁ఇంక	23
▁స్ట్రోక్స్	23
స్తోంది	23
▁పట్టే	23
వర్తింపజేస్తుంది	23
వర్డ్	23
▁సహాయపడింది	23
▁నివారిస్తుంది	23
▁వికీ	23
డెన్	23
▁మెటాడేటాను	23
▁స్వాగతిస్తున్నా	23
▁మెరుగుపరిచే	23
▁ಅದರ	23
▁ಸ್ವ	23
st	23
గు	23
▁మెరుగుపరుస్తాయి	23
▁పరిగణిస్తారు	23
▁సాక్ష్యంగా	23
▁సక్రియం	23
▁వాటన్నింటి	23
▁ఖాతాల	23
▁అంశంలో	23
▁ఐటరేషన్	23
▁ఫిల్టర్స్	23
▁ఉపకరణాల	23
రౌండ్	23
తు	23
▁అనుచిత	23
▁ఐపిసి	23
▁హారిజా	23
▁కలిపినప్పుడు	23
▁చెబుతున్నాను	23
వెన్షన్	23
▁బ్యూరో	23
▁కోల్పోయిన	23
▁గ్రూపుల	23
▁భావోద్వేగాల	23
▁అభ్యర్థనల	23
▁విస్తరింపజేస్త	23
▁ప్లేయింగ్	23
▁ఆవిర్భావం	23
▁అవసరమవుతుంది	23
▁సహకరించ	23
▁మార్చబడును	23
▁ఏజెంట్ల	23
ಗಾಗಿ	23
▁మారడానికి	23
▁చదవగలిగే	23
▁వాక్స్	23
▁సమగ్రపరచడం	23
▁సాకెట్	23
▁ధృడమైన	23
▁రక్షించబడుతుంది	23
▁సరిచేయడ	23
▁గోల్ం	23
▁దీర్ఘచతురస్రం	23
▁ఏకాగ్రతను	23
▁సృష్టించబడింది	23
▁ప్రదర్శించవచ్చు	23
▁నివారించ	23
తోపాటు	23
▁యువ	23
▁సేకరించబడిన	23
▁మొ	23
▁అన్వేషించడం	23
▁పొంది	23
▁తేలిక	23
▁ఎథికల్	23
▁చెక్కడం	23
MAC	23
▁పిక్సెల్స్	23
▁పానీయాల	23
▁చెందాల్సి	23
గలగడం	23
▁మాట్లాడతాను	23
▁పేరాగ్రాఫ్	23
▁ఇద్దరూ	23
▁గార్డ్	23
▁ಕುರಿತ	23
▁పురాతన	23
▁సంభాషించ	23
సాస్	23
▁సహనం	23
▁గ్రీటింగ్	23
▁సీలింగ్	23
▁చొప్పున	23
▁రకరకాల	23
▁దుర్బలత్వ	23
డో	23
▁వహిస్తాడు	23
ఫ్రాస్ట్రక్చర్	23
వాల్యూ	23
▁ಅಪ	23
పబ్లిక్	23
అదేవిధంగా	23
▁మెనుల	23
▁ఫ్లోస్	23
పీ	23
▁సెకన్లు	23
▁అభిరుచి	23
▁ఇర్రెగ్యుల	23
▁సేల్	23
ఖచ్చితంగా	23
▁తదనంతరం	23
▁జరగాలి	23
▁గణించిన	23
▁బ్యాంకులో	23
వని	23
▁దా	23
▁అప్లికేషన్ల	23
)≤	23
▁అమర్చ	23
▁ప్యాకెట్లను	23
బోధన	23
కపోయినా	23
▁అభిప్రాయాలు	23
▁మెసేజ్ని	23
▁అతుక్కు	23
IP	23
▁ఎడమవైపున	23
▁చేయబడుతున్నాయి	23
▁అభిప్రాయాలను	23
▁పాయింట	23
▁ఎప్పుడ	23
▁సృష్టికర్త	23
▁పొలి	23
▁విభజించండి	23
▁రోగనిరోధక	23
▁సాహిత్యం	23
▁ప్రొ	23
▁ప్రాతినిధ్యాలు	23
▁ప్రవేశం	23
బడినది	23
▁తెర	23
▁నియ	23
▁వర్గీకరణను	23
▁వీటన్నింటిన	23
▁దేశీయ	23
▁గోల్స్	23
▁ఇంట్రానెట్	23
▁నేర్పించ	23
▁కేబులింగ్	23
▁ఫ్ర	23
▁ಗ	23
లేట్	23
▁సహాయ	23
▁తోక	23
▁డెలిగేషన్	23
మాత్త	23
▁రిఫరెన్సింగ్	23
▁ఫ్రెం	23
▁క్లాసిఫయర్	23
య్	23
▁ప్రత్యేకమైనవి	23
▁తరహా	23
▁స్వాభావిక	23
▁సెక్ట	23
▁కాన్సెప్చువల	23
▁గుర్తించాము	23
▁అంతకు	23
▁వస్తుందని	23
▁వెళతారు	23
▁కుదించబడుతుంది	23
▁తెలియజేయాలి	23
▁ప్రచార	23
▁వెరిఫై	23
▁క్లబ్	23
నిర్ధారించుకోవడం	23
▁సంతృప్తిపరిచ	23
▁గణితాత్మక	23
▁పొందుతున్న	23
ండా	23
▁ఉండాలంటే	23
▁రోగులు	23
▁చెందాలి	23
▁సంరక్షించ	23
▁లేకపోయినా	23
▁చూపాలి	23
▁Mac	23
▁ఫేసింగ్	23
▁వెళతాయి	23
▁RAM	23
▁అనుసరించును	23
▁షె	23
ఏమి	23
▁కేంద్రీకృతం	23
▁కనుగొన్నాడు	23
▁ప్రేరేపిత	23
▁ఒకటితో	23
▁ఎదుర్కొన్న	23
▁అవుతోంది	23
▁భద్రతలో	23
▁లింగం	23
▁ట్రాప్	23
▁వద్దా	23
▁అనడం	23
▁విధానాలలో	23
▁సృష్టిస్తాయి	23
▁ఉద్యమం	23
▁డికంపోజిషన్	23
▁ట్రీను	23
▁పేర్కొనబడ్డాయి	23
▁చిహ్నాల	23
▁చర్చిస్తున్న	23
▁వాషింగ్	23
▁సెలెక్ట్	23
▁స్ట్ర	23
మునుపటి	23
▁ఎడి	23
సిఐఇటి	23
▁ఏర్పడింది	23
ప్రత్యేకించి	23
▁ఫార్మ	23
▁ఊహిస్తే	23
▁డిటి	23
▁ప్రొజెక్టర్	23
డా	23
▁వర్తింపజేయాల్సి	23
▁."	23
▁డిపెండెన్స్	23
▁కూడితే	23
▁ఇంపాక్ట్	23
▁సమానత్వ	23
మె	23
▁చేయగలగాలి	23
ాయిస్	23
▁వేస్తారు	23
▁వైశాల్యం	23
▁ప్రాజెక్టుల	23
▁రాజు	23
▁చొక్కా	23
▁వర్సా	23
▁స్థిరీకరించ	23
▁వెర్టికల్	23
▁న్యాయమూర్తి	23
▁సంగ్రహణ	23
▁మయో	23
▁కడ్డీ	23
▁ద్రవాలు	23
Ei	23
▁ఆబ్జెక్టివ్స్	23
▁త్రికోణ	23
▁అణువులకు	23
▁SRC	23
▁తంతువుల	23
▁డైసల్ఫ	23
▁లీటర్	23
▁గెలవడానికి	23
▁GNP	23
▁గ్రబ్స్	23
▁మాడ్యుల్	23
స్టాటిస్టికల్	23
▁బహుపదుల	23
▁పొనె	23
▁సగటులను	23
▁)(	23
▁∞)\,	23
సిస్ట	23
▁థైరాయిడ	23
°	23
▁ఎర్రర్‍	23
▁క్యాపిల	23
▁Ac	23
▁ఇంక్యుబేట	23
▁ఇమ్మొబిలైజ	23
▁బహుపదులు	23
/|	23
▁ప్రాస్పెక్ట	23
▁Mn	23
▁యప్రోచ్	23
ప్రోటీన్	23
▁హెంక	23
▁హార్ట్	23
▁nh	23
▁జై	23
|=	23
▁∆^	23
▁ఎస్టర్	23
▁మెషర్మెంట్	23
▁మాక్లారిన్	23
▁డిటర్జెంట్	23
▁ప్రవేశించ	23
▁రీమాన్	23
▁ds	23
▁లీహుడ్	23
▁సిగ్నిఫికెన్సు	23
నామినల్	23
మెర్కాప్టోఇథనాల్	23
∅	23
▁ఎంజైమా	23
▁ప్లాంటు	23
▁నెయి	22
▁ఇచ్చాడు	22
న్నాయి	22
▁ఓఆర్	22
▁DAC	22
ప్రస్తుత	22
▁డెవలపర్లు	22
▁ఉత్తమమైనది	22
▁గ్రహించడం	22
▁నిర్వచింపబడిన	22
జ	22
యాలు	22
▁సీక్వెన్సులు	22
▁జెస్	22
▁మాక్	22
▁పూర్ణ	22
▁పూర్ణాంకాల	22
▁స్ట్రింగ్స్	22
▁తీయడానికి	22
▁చెత్త	22
▁గుర్తించబడింది	22
▁నేర్చుకోవడంలో	22
▁వర్తించ	22
▁వార్తాపత్రిక	22
▁ముద్రించ	22
▁వెతుకుతున్న	22
▁ಪ್ರತಿ	22
▁నిలుపుకోవడం	22
▁నియామకం	22
పా	22
▁పిడిఎఫ్	22
▁ఆవశ్యక	22
▁ఆథర్	22
ప్రపంచంలో	22
▁పక్షం	22
▁స్టేషన్స్	22
▁పర్యవేక్షించడం	22
అట్రిబ్యూట్	22
పున్య	22
▁ఫైళ్ళు	22
▁డిక్	22
▁అనుసంధానించడం	22
▁ఫిర్యాదుల	22
▁థ్రెడ్	22
▁అలాంటిదే	22
▁ప్రివెన్షన్	22
▁ప్రదర్శనలు	22
చు	22
▁మారిపోయింది	22
▁ఆమోదించబడిన	22
▁వాటాదారుల	22
▁వెర్న	22
▁ప్రయోజనానికి	22
▁బ్లాబ్	22
రెండర్	22
▁ముందస్తుగా	22
▁పాత్రలను	22
▁వెతక	22
▁పదివేల	22
▁చేరుకోవచ్చు	22
▁గురవుతారు	22
▁త్రిభుజం	22
▁సెరీఫ్	22
▁వార్తల	22
▁అభ్యర్థిస్తుంది	22
▁చేయాలనుకున్నా	22
▁బృంద	22
▁అవసరమైనది	22
▁సహాయకారి	22
▁ఆప్టిక్	22
పాఠకుడు	22
▁హార్మోనీ	22
▁సంక్లిష్టతను	22
గానే	22
ಿಸಿದ	22
▁ఉద్భవించిన	22
▁విచిత్ర	22
▁కొనుగోళ్లు	22
▁కనిపెట్ట	22
▁తయారీదారులు	22
▁మార్క	22
▁ఆర్థికవేత్తలు	22
▁విఫలమైన	22
▁ನಿ	22
▁తరలించ	22
▁మూలల	22
▁వెళుతోంది	22
▁వార్తా	22
▁అనేవారు	22
▁బిడ్డ	22
▁మాట్లాడుదాం	22
▁టిఎమ్	22
▁పంక్తిలో	22
నటువంటి	22
మంతా	22
▁రిప్రజెంట్	22
మేషన్	22
▁అలవాట్లు	22
్య	22
▁పంపబడిన	22
▁హారం	22
▁చేసినప్పటికీ	22
▁శాస్త్రవేత్తల	22
ిని	22
ಕ್ಕೆ	22
▁వాగ్దాన	22
▁వస్తారు	22
▁కాగితాలు	22
▁పుస్తకాలలో	22
మైక్రోసాఫ్ట్	22
▁భావాలను	22
▁స్కానర్స్	22
▁సూత్రీకరణ	22
▁పైభాగంలో	22
▁హెచ్చుతగ్గులు	22
హార్డ్	22
▁సక్రమ	22
▁కన్ఫిగరేషన్	22
▁వేరుచేయు	22
▁స్పెషలిస్ట్	22
▁ధరకు	22
▁బయటపడ	22
TM	22
సమకాలిక	22
▁టాన్	22
▁సహకారంతో	22
▁గట్టి	22
▁డెసిమల్	22
▁మ్యూచువల్	22
▁క్లూజన్	22
▁అథెంటిక్	22
▁అంగీకరిస్తుంది	22
▁ఉల్లంఘించ	22
▁బోర్డుల	22
▁కంపెనీలకు	22
▁అర్ధవంతం	22
▁సెన్సస్	22
కూ	22
▁సంగీత	22
▁దొంగిలించబడిన	22
▁సం	22
▁చెల్లించడం	22
▁ప్రదర్శించబడ	22
మాక్స్	22
భావాన్ని	22
▁ఐబిఎమ్	22
▁ఫ్రీహ్యాండ్	22
▁కిలోమీటర్లు	22
▁కాండ	22
▁ప్రయత్నిస్తాను	22
▁పాల్గొనడ	22
▁సాంద్రతతో	22
▁వచనం	22
ముఖం	22
సంభాషణ	22
▁కారణాలను	22
నుకోవడం	22
▁apply	22
▁ఒకచోట	22
▁ఉల్లంఘనలు	22
▁ఆఫీసర్	22
▁దేనికి	22
▁మూలంగా	22
▁అమర్చవచ్చు	22
▁స్పేస	22
▁తుఫాను	22
▁రివిజన్	22
ించడం	22
▁పొరపై	22
▁తెలుసుకోవాల్సి	22
▁పరిపూర్ణ	22
▁పాఠశాలలో	22
▁ఉంచినట్లయితే	22
▁డిఫ్యూజ్	22
▁రైడ్	22
▁కంట్రోలర్స్	22
▁ఏర్పాట్లు	22
▁ట్రీలో	22
▁మదింపు	22
▁అనువైనవి	22
▁కాలవ్యవధి	22
డ్యూస్డ్	22
▁సింక్రనైజ	22
▁ఫ్లోరింగ్	22
▁సమతుల్య	22
▁శాశ్వతమైన	22
▁మైక్రోఫిల్మ్	22
▁తెరిచిన	22
ామో	22
▁అభ్యర్థించవచ్చు	22
▁సంవత్సర	22
▁మార్కింగ్	22
▁లింకుల	22
▁అందించింది	22
▁పద్దతుల	22
▁చేయగలగడం	22
▁నిరోధించవచ్చు	22
▁kn	22
▁అర్ధమే	22
▁ప్రాజెక్టు	22
▁స్టాండ	22
▁గుర్తిస్తారు	22
▁లాటి	22
▁పరిశీలిస్తుంది	22
▁ప్రారంభించ	22
▁యూనిఫాం	22
▁కావాలని	22
▁మాడ్యూళ్ళలో	22
▁దావా	22
▁హైరార్కీస్	22
▁కంటేనర్	22
▁కోల్పోకుండా	22
ాలనుకుంటున్నారా	22
ತ್ತಮ	22
▁కలుగుతుంది	22
▁దిశల్లో	22
▁చదవవచ్చు	22
బ్రాడ్	22
▁నిర్ణయిస్తాము	22
▁అనుసరించండి	22
్లోకి	22
▁ఎడమకు	22
▁ಸಾಕ್ಷ್ಯದ	22
▁లోహాల	22
▁ఆర్బిటర	22
▁జియో	22
▁మ్యాథమెటిక్స్	22
▁స్టా	22
▁అనుకున్న	22
▁అవరోధాల	22
చేస్తున్నట్లయితే	22
▁వదిలివేయ	22
ట్యూన్	22
▁చూడాలనుకుంటే	22
▁అనుకూలీకరించ	22
అనే	22
▁తాక	22
▁pt	22
▁చూపుతోంది	22
▁ఎండు	22
నేజ్	22
▁విడదీయ	22
సిబుల్	22
▁నిర్ధారించగలము	22
▁కేటాయించవచ్చు	22
▁ಬಹಳ	22
▁శ్రేయస్సు	22
▁డైల	22
▁zn	22
వరకూ	22
▁కండరాల	22
జె	22
▁బ్యానర్	22
▁ఫోటోలు	22
విద్య	22
▁OJ	22
▁ವ	22
▁as	22
▁ಬಗ್	22
వంటి	22
▁ప్రారంభించాయి	22
▁న్యూఢిల్లీ	22
▁మినహాయింపులు	22
▁డయాగ్రాఫ్	22
▁IPR	22
▁క్రిస్టల్	22
▁మెరుగుపరచవచ్చు	22
టెర్మినేషన్	22
▁గ్రాఫ	22
▁వాక్యంలో	22
▁విధిగా	22
▁భీమా	22
▁తీయవచ్చు	22
వె	22
▁స్థిరాంకాల	22
▁పర్సన్	22
▁యాంటి	22
▁ఐపీ	22
▁శాత	22
▁చలించే	22
▁క్షేత్రంలో	22
▁పె	22
▁వేస్తాము	22
▁బర్త్	22
▁పరావర్తనం	22
▁కేటాయించాలి	22
▁మంచిద	22
▁కనుగొందాం	22
ుల్	22
▁మూమెంట్స్	22
▁LC	22
కాలమ్	22
ba	22
▁జీవసంబంధమైన	22
▁మిల్లీ	22
▁భాగించండి	22
▁Ei	22
లూషన్	22
పటి	22
▁GFP	22
▁సొలిట	22
▁రెప్రెసెంట్	22
▁different	22
ial	22
▁జిఎఫ్	22
▁థింకింగ్	22
▁అల్ప	22
▁హిస్టిడిన్	22
▁పాల్లాసీ	22
▁ప్రోటియోమిక్	22
ర్యాంక్	22
▁డెరివేషన్	22
▁ట్రాజెక్టరీల	22
▁శోధకాలు	22
▁నికల్	22
▁స్థిరాంక	22
▁వివో	22
యాగనల్	22
▁డిటెర్మినెంట్	22
▁పర్సంటైల్స్	22
▁)...	22
▁మౌల్టన్	22
సమీకరణం	22
▁విశిష్టత	22
▁వ్రాయబడినవి	22
▁లినియర్	22
▁=[	22
▁ఇల్యూమినా	22
▁డిప్రెస్	22
+∆	22
▁ఎస్ఆర్‍యెస్	22
▁సమానమైనప్పుడు	22
▁IgG	22
▁తలతన్యత	22
లిసిస్	22
▁గౌస	22
▁]=	22
గ్లోబిన్	22
▁క్రోమటోగ్రామ్	22
▁ఆర్బిట	22
▁హాన్సర్	22
ajj	22
▁క్వర్టైల్	22
▁గణించుదాం	22
▁శోధకాన్ని	22
▁మిథైల్	22
▁అమ్మోనియం	22
▁రైబోజోమ్	22
న్యూక్లియ	22
▁Sk	22
▁సంయోగం	22
)/√	22
▁ck	22
▁శక్తుల	22
del	22
▁కుములేటివ్	22
▁ey	22
▁సక్సెస	22
▁ఎరర్	22
▁గ్వానైన్	22
▁ఫల్లాసీ	22
▁pr	22
Xi	22
▁రాండమైజ్	22
▁వాలి	22
▁SDS	22
▁రాయ	21
▁వ్యవసాయ	21
▁విశ్వసించ	21
▁పేర్కొనండి	21
పరిష్కరించబడినది	21
▁సౌకర్యాన్ని	21
▁విభజనలు	21
▁ఉత్సుకత	21
▁కేసులలో	21
▁లింగ	21
▁వైపుల	21
▁బిల్లింగ్	21
▁మారుస్తాము	21
▁CDW	21
▁చూపబడ	21
▁చవకైన	21
▁తీర్చడం	21
▁అక్కడే	21
▁డెకరేషన్	21
యూజ్	21
▁ఎఫీషియన్సీ	21
ಲ	21
▁నవీకరించ	21
▁పురోగతితో	21
▁ಪ್ರವೇಶ	21
▁స్నేహితులు	21
▁మాసివ్	21
▁వీలుగా	21
▁సిఐఎ	21
▁ఉద్యోగాల	21
▁డాక్యుమెంట్లు	21
▁అడుగుల	21
▁పారాడిజం	21
▁థిన్	21
▁హోటల్	21
▁కేంద్రాల	21
▁ఉన్నాం	21
▁నిర్వహించండి	21
▁పరిష్కరిస్తాము	21
▁బోధించడం	21
▁భవనంలో	21
▁ఉదయ	21
▁టర్బులెన్స్	21
▁గణించబడుతుంది	21
▁ఉపసమితులు	21
▁ప్లాగియారిజమ్	21
▁అనువర్తనాలతో	21
▁స్ట్రెస్	21
▁చేరుకుంది	21
▁శుభ్రమైన	21
▁కొనసాగడ	21
▁సంప్రదాయికంగా	21
▁హెలిక	21
▁వేక్టర్ల	21
▁మారవు	21
▁క్రాస్ఓవర్	21
▁కంపొజిషన్	21
▁డ్రైవ	21
▁రోడ్	21
▁చెయ్యడ	21
▁సందర్శకులు	21
▁దేనిపై	21
▁సియాన్	21
▁కొల్లాయిడర్	21
▁లొకేటర్	21
▁పాటల	21
▁ప్రకాశ	21
▁కన	21
▁ప్రెసిడెంట్	21
ವಾದ	21
▁తెచ్చ	21
▁ఎగుమతి	21
▁చేయుట	21
బడుతుందో	21
▁జంతువులు	21
▁నాటి	21
▁స్ధితి	21
▁ప్రస్తుతానికి	21
▁oj	21
▁దీర్ఘచతురస్ర	21
▁ఓబ్జెక్ట్స్	21
▁నె	21
▁అనా	21
▁గణించండి	21
▁నవీకరించడం	21
▁విసువల్	21
▁పార్టికల్స్	21
▁మెనూలు	21
▁వాడే	21
ుకుందాం	21
కిరణం	21
▁దీర్ఘవృత్తాకార	21
▁ఒఎస్	21
▁యూనిట్లలో	21
▁ప్రొప్రైటర	21
▁కౌన్సిల్	21
▁ఒపెరాండ్	21
▁విస్తరించబడిన	21
▁ವಲ್ನರಬಿಲಿಟಿ	21
▁అవసరాలతో	21
▁పేరెంటింగ్	21
▁అసంతృప్తి	21
▁brush	21
‍తో	21
▁కన్సోల్	21
ింప	21
▁నమ్ముతున్నాను	21
▁ఫైలు	21
రాదు	21
ంచడం	21
▁పేర్కొంటుంది	21
▁సమర్థించ	21
▁బల్క	21
కర్	21
▁వీక్షకుల	21
▁సీల్	21
▁అనుకూలమైనవి	21
▁బోనస్	21
▁ముద్రించిన	21
▁చూపుతుంద	21
▁శస్త్రచికిత్స	21
ఇలా	21
▁రిసెప్షన	21
▁ఆప్	21
▁డిస్క్రీషనరీ	21
▁ప్రాథమికమైనది	21
▁వహించండి	21
▁అంగీకరించే	21
▁ఎలీసా	21
ಗಿದೆ	21
▁చేస్తున్నారో	21
▁అసమర్థత	21
▁కనుక్కోవాలి	21
▁టె	21
▁నిర్ణయిస్తాయి	21
▁విమాన	21
▁వ్యక్తపరచ	21
▁సంతకాలు	21
▁ఉల్లంఘించిన	21
పోతాయి	21
ఫోర్డ్	21
▁బిహేవియర	21
▁చట్టాన్ని	21
▁గీయడానికి	21
▁చూసుకోవడానికి	21
▁ఉహ	21
బడ్డ	21
బో	21
▁రైతు	21
▁సెట్‍	21
▁ఫేడ	21
▁ప్రాంతాల్లో	21
▁విప్లవాత్మకం	21
▁ఇవాల్యూయేషన్	21
▁సైఫర్స్	21
▁వెయిట్ల	21
▁పిలుస్తా	21
▁నేరస్థలం	21
▁మాట్లాడటానికి	21
▁మేకర్	21
▁తీసుకోలేదు	21
▁పరీక్షించవచ్చు	21
▁ఉంచుతున్నాను	21
▁మార్గదర్శకాల	21
▁మాక్సిమం	21
▁చొరబాటు	21
▁కంపొనెంట్	21
దంతా	21
▁ఉపయోగించలేము	21
యాక్సి	21
▁ప్రామాణికతను	21
▁నమూనాగా	21
▁అబ్బాయిల	21
▁క్రమబద్ధం	21
▁ప్రణాళికాబద్ధ	21
▁శాఖను	21
▁కొలతలలో	21
▁ప్రివెంట	21
▁సదిశరాశి	21
▁ప్రోగ్రామర్స్	21
▁వివరణలో	21
▁ఫ్రాడ్	21
▁సెవెంటీ	21
యాంకర్	21
▁డ్రాపింగ్	21
▁చేరుకుంటాము	21
ఎస్ఎమ్	21
▁సృజనాత్మకత	21
▁ఆశక్తికరమైన	21
స్టెల్	21
▁సాధ్యమేనా	21
▁విస్ఫోటనం	21
▁లెడ్జర్	21
▁పెట్టడానికి	21
▁తీసుకుంటుంద	21
▁can	21
▁ట్రేసబుల్	21
▁సంతకాల	21
▁ఉంచును	21
▁థింగ్	21
ప్రాసెసింగ్	21
▁ఉపయోగించబడ	21
▁కరంట్	21
▁చేయగలమ	21
▁క్షార	21
▁విధానంగా	21
▁కిలోమీటర్ల	21
▁వర్డ్స్	21
▁చూడాల	21
▁మెయింటెనెన్స్	21
▁ఇంట	21
▁అడాప్ట	21
▁నేర్చుకోండి	21
▁సమితుల	21
▁చెబుతాము	21
▁ఇంట్రా	21
▁ట్రిగ్గర్	21
▁కోల్పోతుంది	21
▁కాలేజ	21
▁మైస్	21
ಾಗಿದೆ	21
గురించి	21
▁బేయెస్	21
ఉపయోగించుకుంటారు	21
▁సాధ్యమైతే	21
గలరా	21
▁బేసిక్స్	21
▁చొప్పించ	21
బాధితుడు	21
▁కాండిడేట్	21
▁ఉపగ్రహ	21
▁ఫ్లాప్	21
▁విఫలమవుతుంది	21
▁ఈవ్	21
ఆల్ఫా	21
▁యోగ్యతలు	21
లెవెల్	21
▁హెటెరోజెనిటీ	21
▁టెంప	21
▁చూపించాను	21
▁అనుమతించబడతాయి	21
▁గేట్స్	21
▁మోటార్	21
▁వర్ణిస్తుంది	21
▁ఐడెంటిఫైయ	21
▁స్త్రీలు	21
అయినప్పటికీ	21
మదర్	21
▁కొలవ	21
▁బేసిస్	21
▁దూరాలు	21
ಮ್ಮ	21
▁కలిగించడం	21
▁జనరలైజ్	21
హ్యూమన్	21
▁అప్పుడే	21
▁హెచ్ఆర్	21
▁నిల్వలు	21
▁విల్	21
▁స్వాధీనం	21
▁పాటించాలి	21
▁సమీపంలోని	21
▁ఒకరిక	21
▁సెప్షన్	21
▁Dn	21
▁పాఠకుడి	21
▁బీ	21
▁బ్లూటూత్	21
▁ఎలక్ట్రోడ్	21
▁భావించి	21
స్టర్	21
▁నేర్చుకున్నాం	21
▁హోమో	21
కై	21
టాప్	21
▁థర్మల్	21
▁రూపొంది	21
▁కొలవాలి	21
▁కేంద్రంగా	21
▁జన్యుపరంగా	21
▁మార్బుల్	21
▁తీసుకురా	21
▁పదకొండవ	21
▁ఇచ్చింది	21
▁డాలర్	21
▁నడిపించడం	21
మీన్స్	21
వహించడానికి	21
▁ఇష్టపడరు	21
ఓవర్	21
▁మరియ	21
▁కుటుంబంలో	21
▁కన్సిస్టెన్సీ	21
▁పూసలు	21
▁ద్రవాల	21
▁పెరగ	21
▁సత్యం	21
▁పెంపు	21
▁తగ్గిపోతుంది	21
▁ధనవంతులు	21
▁మార్కర్స్	21
నస్	21
▁తీర్మానించ	21
▁వర్తింపజేద్దాం	21
▁మోన	21
▁ఇంటర్వల్	21
▁రిప్లికేషన్	21
ాంట్	21
▁ప్రతిక్షేపించిన	21
సిమ్మెట్రికల్	21
▁కమ్స్	21
▁రాస్	21
▁ప్రొటీన్ల	21
▁<?></?>	21
▁బయాసెస్	21
▁డయాగనల్	21
▁tM	21
▁పడిపోయినప్పుడు	21
ెక్ట్రోఫోటోమీటర్	21
▁మూలబిందువు	21
▁హార్మోన్	21
▁క్షారాలు	21
ఫ్రీక్వెన్సీ	21
▁అవక్షేపం	21
▁MPS	21
▁నల్లిటీ	21
▁మిథనాల్	21
▁ప్రథాన	21
▁సబ్సిడీస్	21
▁Phi	21
▁కరెక్టెడ్	21
▁ఏకవచనం	21
▁ఫినోటైప్	21
▁సొలిటన్	21
▁మ్యాచ్డ్	21
▁బయోమార్కర్లు	21
మనీ	21
▁మోనోక్లోనల్	21
▁వ్యాల్యూల	21
మర్స్	21
▁ay	21
▁)!	21
▁ప్రతిరోధకాన్ని	21
▁ప్లోరేట	21
▁మెథడ్‍	21
▁కోన్	21
▁bxi	21
▁అడ్జెస్ట	21
▁కాంటిజె	21
||	21
▁Br	21
bk	21
▁పైవోట	21
ఈక్వల్	21
▁కమోడిట	21
▁చేయగలిగిన	20
▁విస్మరించండి	20
▁వ్యాన్	20
సైడ్	20
▁అన్వేషించవచ్చు	20
గమం	20
▁దీనర్థం	20
▁ఒరిజిన	20
▁ఖర	20
ంబియెంట్	20
▁సింథసిస్	20
▁పూరించ	20
లిచిన	20
▁పోల్చాము	20
▁శుభ్రం	20
▁చేశాన	20
▁కార్నర్	20
పరి	20
▁వేరొకరి	20
▁ప్రమాదకరమైనది	20
న్నాయని	20
▁ప్రయత్నిస్తాయి	20
▁పంచుకుంటాయి	20
▁ఉత్సాహ	20
▁విజిట	20
▁నిర్ధారించడంలో	20
▁ప్రాధాన్యమిస్తా	20
▁డేవి	20
▁టెర్మినల్స్	20
▁గమనించినట్లుగా	20
▁పంపినప్పుడు	20
▁సెలక్ట	20
▁వ్యాపారాల	20
▁కాంపొనెంట్స్	20
▁చెందించ	20
ಾರ	20
▁నమ్మ	20
▁టర్మినల్	20
▁సరసమైన	20
▁యూనివర్శిటీ	20
▁అనోమలీ	20
▁సారిస్తాము	20
▁ఎదుర్కోవటానికి	20
▁ప్యారా	20
దనం	20
▁అడిగే	20
▁మందిలో	20
▁ఇవ్వబోతున్నాను	20
▁పాస్కల్	20
▁ఎప్పటిలాగే	20
▁నవల	20
▁నివారించండి	20
▁కలిస	20
▁విప్లవాత్మక	20
▁ఫెడర	20
▁కేటాయించబడిన	20
▁బోట్	20
▁సైట్ల	20
స్పేస్	20
ేటింగ్	20
▁ప్రయాణం	20
ಲೆಗಳ	20
▁గ్రహించ	20
▁మార్గదర్శక	20
▁కోసమే	20
▁తెల్లని	20
▁దాగి	20
▁దిశలు	20
▁ముఖ్యమో	20
▁అనుసరించడానికి	20
▁బ్యూటీ	20
▁ప్రవహించే	20
ೋ	20
▁సృష్టించండి	20
▁ఎవల్యూషన	20
▁OR	20
పర్పస్	20
▁ఎక్స్ఓఆర్	20
▁ఉద్యోగాలను	20
▁ఫ్రాగ్మెంట్	20
▁ఖ్యాతి	20
▁నిరూపిద్దా	20
▁ఉల్లంఘనల	20
▁ప్రొవైడర్స్	20
▁సర్క్యులేషన్	20
▁గోల్ాలు	20
▁అంగీకరించిన	20
▁ఉపయోగించుకోవడం	20
▁ఉండవ	20
నిర్మాణాత్మక	20
▁సూచించారు	20
▁ransomware	20
▁డొమైన్స్	20
▁మందపాటి	20
▁సంకలన	20
▁విలోమానుపాతం	20
▁తెలుసుకోవాల్సిన	20
మీద	20
▁భద్రపరచాలి	20
▁GUI	20
▁ಸಾಮಾನ್ಯವಾಗಿ	20
▁ఇన్షియేట	20
▁అధీనంలో	20
ఉపయోగించబడుతుందో	20
▁అందుకోవడం	20
▁తలుపులు	20
ిటి	20
మైంది	20
▁రిగ్	20
▁వేలి	20
▁బ్యాలెన్సింగ్	20
▁విస్తరించే	20
▁ఆశించారు	20
▁టేక్	20
▁అటామిక్	20
▁మెంట్లో	20
రిక్	20
▁దోహదపడే	20
▁చిత్రానికి	20
▁రిక్వైర్మెంట్	20
▁ఇరువైపుల	20
క్లౌడ్	20
▁అడ్డుకుంటుంది	20
▁గ్రేడే	20
▁నిబద్ధత	20
▁షిఫ్టింగ్	20
▁వెళ్తోంద	20
▁వ్యాయామం	20
▁అనుకూలీకరించిన	20
డే	20
▁ప్రయాణించిన	20
▁సంతక	20
▁జోడించబడ్డాయి	20
యాక్టివ్	20
ివృద్ధి	20
సైజ్	20
▁కానప్పటికీ	20
పాత్	20
▁బోధించ	20
ీకరించబడింది	20
▁ఐఐటి	20
▁రెమ్	20
▁మలుపు	20
▁సంక్షేమ	20
▁కోల	20
▁తయారుచేసే	20
▁మార్చుత	20
▁IK	20
▁అనియత	20
▁పరిజ్ఞానాల	20
▁సాదా	20
▁మాండ్వాల్	20
▁ప్రెటర్	20
▁నష్టానికి	20
అటువంటి	20
▁జనరలైజ	20
▁వీరు	20
▁టిఎమ్ఎల్	20
▁పాఠాల	20
▁ప్రాబబిలిటీస్	20
▁డిఎఫ్	20
▁తరువాతిది	20
▁చేయగలర	20
స్టిట్యూట్	20
▁ఇద్దరి	20
▁ఉత్తమం	20
▁కొరోలరీ	20
▁సింగ	20
▁దానిక	20
బోతున్నట్లయితే	20
▁మళ్లించ	20
▁ఇష్టపడే	20
ప్రదర్శించబడతాయి	20
▁సులువుగా	20
▁ఎదుగుదల	20
▁నిబంధనలతో	20
▁సూచిస్తాను	20
పోస్ట్	20
▁నిర్ధారించాలి	20
▁డిరైవ్డ్	20
▁ఆలోచించే	20
ుతున్న	20
▁కష్టమైనది	20
నియల్	20
▁SE	20
▁కష్టపడ	20
▁టూర్	20
▁వ్యూయర్	20
▁పారస్పరిక	20
▁టెక్స్టు	20
▁స్ట్రిప్స్	20
▁ఫ్లెక్సిబిలిటీ	20
ుకోవచ్చు	20
▁నిర్ణయించ	20
▁వ్యాపించ	20
▁అవేర్	20
▁తగ్గించబడిన	20
▁మహిళల	20
▁ఫిసికల్	20
▁సమానమైనది	20
in	20
పార్టిషన్	20
▁బ్ర	20
▁చేయునది	20
జెన్	20
▁మరోవిధంగా	20
▁స్టి	20
నెల్	20
▁వస్తున్నాను	20
▁కలయికలను	20
▁పునరుద్ధరించడ	20
▁నేల	20
▁అధ్యాపకుల	20
▁క్వాన్టిట	20
ెన్షియల్	20
▁ఆమోదయోగ్యమైనది	20
▁సహోద్యోగుల	20
▁బిసి	20
▁పదజాలం	20
▁తొలగించబోతున్నా	20
ంచి	20
▁మాత్రికలను	20
▁తీసివేయవచ్చు	20
ీకరించడానికి	20
▁చెందుతోంది	20
▁బలాల	20
▁పోర్	20
▁ఇటాలియన్	20
▁ఫర్మ్	20
▁పెరి	20
......	20
▁జూన	20
దానికీ	20
▁లెక్కించడంలో	20
▁నీలిరంగు	20
లేషన్	20
▁sh	20
▁డయాగ్నోస్టిక్	20
▁దృష్టాంతాల	20
▁సమీక్షించడం	20
ప్రైమరీ	20
ములు	20
▁కన్వెన్షన	20
టా	20
▁ఇష్ట	20
▁తరలించడానికి	20
సర్వీస్	20
▁పథక	20
▁స్టీల్	20
▁గమనించి	20
▁ఎంచుకుందాం	20
▁తగ్గించుదాం	20
▁కొన	20
▁డిస్క్రిప్షన్	20
▁మ్యాట	20
▁అనుసరిస్తుంద	20
▁ఉపయోగిస్తాడు	20
▁ఇన్ఫో	20
న్నింటి	20
▁స్థితుల	20
▁అంతేకాక	20
▁రేఖలో	20
▁కూర్చ	20
▁ప్రొఫైల్స్	20
▁కాలి	20
▁కోల్పోవచ్చు	20
▁కమిషన్	20
▁మేజర్	20
▁అవ్వాలి	20
▁పారదర్శక	20
▁భాగ	20
▁క్యూబ్స్	20
లెక్కించినప్పుడు	20
▁రింకిల్	20
▁తర	20
కప్లింగ్	20
▁ఇలస్ట్రేటర్	20
▁ఇన్పుట్లు	20
▁ఉపయోగించింది	20
▁దుష్ప్రవర్తన	20
▁లేఖలు	20
▁ఉపయోగించవచ్చని	20
▁చేసుకొని	20
హైబ్రిడ్	20
▁కారణమైన	20
▁పాటర్న్స్	20
▁చేయము	20
▁పరిగణించాల్సి	20
▁ఎంతవరకు	20
▁సిఫర్	20
▁హైట్	20
▁బ్రెడ్త్	20
▁గుర్తించారు	20
▁రూపొందించండి	20
కార్డును	20
రిస్టిక్	20
▁లైబ్రరీస్	20
▁దేశాల్లో	20
▁ముగించవచ్చు	20
▁తల్లి	20
▁సంతృప్తిపరచడ	20
ల్లంగి	20
▁వెళ్లిన	20
▁అసమతుల్యత	20
▁జెనెటిక్	20
రని	20
▁పట్టీ	20
▁ఊదా	20
▁పోటీదారుల	20
▁సెక్షన్స్	20
▁భర్త	20
▁చేయాలంటే	20
▁వెచ్చ	20
▁గజిబిజి	20
▁దుర్వినియోగ	20
▁CC	20
జీ	20
అప్లికేషన్	20
▁బాంబు	20
వది	20
ంగీకరిస్తున్నారు	20
▁ఉత్పన్నాలు	20
లెన్స్	20
▁బోధించడ	20
▁అనువర్తించడం	20
▁కాంపొనెంట్	20
ట్రాన్	20
▁ఏర్పడ	20
ప్లేన్	20
▁సమాధానమివ్వడ	20
▁వెళుతున్న	20
▁ఉపకరణం	20
▁ఇన్ఫెక్ట్	20
▁ప్రతిచర్యలు	20
▁ఈక్వి	20
▁సమ్మేళన	20
▁వెన్	20
ీకరిద్దాం	20
▁నిర్ణయించబడును	20
▁డిని	20
గాన్	20
▁cij	20
▁నిర్దోషి	20
ఎకనామిక్	20
▁స్టాండర్	20
▁PT	20
▁ప్రతిక్షేపణ	20
▁పెరిగి	20
▁ఇంటిగ్రెబిలిటీ	20
▁మొబిలిటీ	20
▁డాటాని	20
ణం	20
ెర్చర్	20
φ	20
▁ఎలకేషన్	20
▁సుమన్	20
▁రెంట్	20
▁హిస్టోగ్రామ్స్	20
▁బ్యాక్టీరియ	20
▁సెంటీ	20
▁ఇమ్యూన	20
▁రెసిస్టె	20
▁కావ	20
▁భిన్నమైనవి	20
▁అవిచ్ఛిన్నం	20
▁వేరియేబిలిటీ	20
హోమోసెడాస్టిసిటీ	20
▁ఫ్లోరోక్రోమ్	20
▁తెలియనివాటి	20
▁గ్లైసిన్	20
▁మాలిక్యూల్	20
▁కన్ఫర్మేషన్	20
▁గ్లైకోసైలేషన్	20
▁Cr	20
)].	20
▁ఫార్ములాగా	20
▁ద్రాక్షల	20
▁పట్టీలు	20
ఎల్యూషన్	20
▁kd	20
▁లెవె	20
▁డిఫరెన్	20
▁ప్రశ్నలో	20
చేసుకోబోతున్నాము	20
▁సంవత్సరాలకు	20
▁కనుగొనాలనే	20
ck	20
pi	20
▁సెలెక్షన్	20
▁గూడ్	20
▁gNg	20
▁కణజాలంలో	20
ᐩ	20
▁ఈక్వలెన్స్	20
▁రెడ్యూసెబుల్	20
▁)}	20
▁పాపర్	20
▁లెక్టిన్	20
స్పెర్మ్	20
▁యూరియా	20
▁Zn	20
▁ఒటిపి	19
▁ఓల్డ్	19
▁పదమూడవ	19
▁పౌరుల	19
పరిగణించినప్పుడు	19
▁ASCII	19
▁చూస్తున్నాను	19
▁పర్యటన	19
▁ఏరియాలను	19
▁నిర్వాహకుల	19
ేటర్	19
▁ప్రివ్యూ	19
▁పాన్	19
▁సరఫరాదారు	19
▁మారుమూల	19
▁కేటాయించ	19
▁పరిపూర్ణత	19
▁క్రాఫ్ట్	19
▁ఇవాల్యుయేషన్	19
▁ఉపాయాల	19
ాలజీ	19
ప్రాంప్ట్	19
▁వల్నరబిలిటీలు	19
▁కన్సార్టియం	19
▁అసైన్మెంట్స్	19
▁ನಿಂದ	19
ಕೆಂದರೆ	19
▁కష్టతరమైన	19
▁అప్పుడప్పుడు	19
▁పోర్టల్	19
▁ఆకర్షించడానికి	19
▁అప్డేట్	19
▁పివోట్	19
▁జరిగాయి	19
ಂಡ್	19
▁ಬ್ರ	19
▁ఉపయోగించాను	19
▁అందుకునే	19
ion	19
▁పిలవ	19
▁వారందరికీ	19
▁పరిభాషలో	19
మైనా	19
▁PV	19
▁ఆర్థోనార్మల్	19
▁కొని	19
▁జర్క	19
ిస్తున్నాము	19
▁ಮಾಡುವುದು	19
ಸ	19
ಕ್	19
▁తడి	19
▁కడగడం	19
▁ఎంచుకున్నాను	19
▁మానిటరింగ్	19
▁గుర్తించింది	19
▁గిగా	19
▁మానవుడు	19
▁అవాంఛనీయ	19
▁డిప్లాయ్	19
▁రిఫ్లెక్టివ్	19
వసించే	19
▁నిర్గమాంశ	19
అడ్రసింగ్	19
ప్పటికి	19
▁ఊహిస్తుంది	19
▁ఫండ్	19
▁కంపైల్	19
థ	19
▁సబ్స్టిట్యూషన్	19
▁ముడిసరుకు	19
▁లాంగ్వేజీల	19
▁మెషీన్స్	19
▁రోడ్డు	19
▁బొమ్మలు	19
▁అటాచ్మెంట్	19
LU	19
▁సిలికాన్	19
▁గ్రహిస్తుంది	19
▁డేటాబేస్ను	19
మిగతా	19
▁సముచితంగా	19
▁ఇన్ఫెక్ట	19
సైకిల్	19
▁పెంచాలనుకుంటే	19
▁ఇన్నోవేషన్	19
▁ఊహించుకోండి	19
▁పాల్గొనేవారు	19
వుడ్	19
▁పడిపోవడం	19
▁పట్ట	19
▁నచ్చిన	19
ించబడ్డాయి	19
▁ధోరణులను	19
ఓన్లీ	19
▁వరుసలలో	19
సెషన్	19
▁ఇన్హెరిటెన్స్	19
▁ప్రభుత్వాల	19
▁దోషి	19
▁ఇనిషియలైజ్	19
▁GA	19
▁సమర్థమైన	19
▁చెక్స్	19
▁వ్రాస్తారు	19
▁సరె	19
▁మాన	19
▁ISO	19
▁చెప్పలేదు	19
మూక్	19
▁ఇన్వాయిస్	19
▁యాక్సెసింగ్	19
▁ఆడటం	19
▁సేకరణకు	19
▁కాలు	19
▁బాక్	19
▁దట్టమైన	19
▁తీసుకుంటాడు	19
▁లినో	19
ల్ఫాబెటిక్	19
▁పౌర	19
ದ್ದೇಶ	19
▁టీచ	19
వలే	19
ప్రోగ్రామ్డ్	19
▁పాట	19
▁సొసైటీ	19
▁మూవింగ్	19
▁ప్రక్రియలలో	19
▁ఉంచబడే	19
▁ప్రాథమికమైన	19
▁పొందినట్లయితే	19
▁అంతులేని	19
▁వార్తలను	19
▁వార్ష	19
▁మ్యాగజైన్స్	19
▁దేశవ్యాప్తంగా	19
▁సరిపోలిక	19
▁ఎదుర్కొంటారు	19
▁క్యామ్	19
▁యుద్ధం	19
ంద్వ	19
ౌ	19
▁ఖాతాలో	19
▁కాలాల	19
▁న్యాయవాదుల	19
▁విమర్శనాత్మక	19
▁పోలికల	19
▁రాస్టెరైజ్	19
▁బ్రోచర్	19
▁ర్యాపి	19
▁భంగిమ	19
▁ప్రిపేర	19
▁నాణేల	19
▁టెన్త్	19
▁అడిసన్	19
▁ఇండస్ట్రీలో	19
▁ಮೊದಲ	19
▁సూచించాల	19
▁కీర్తి	19
▁వెరిఫికేషన్	19
▁శ్రీ	19
▁అలవాట్ల	19
▁సంతృప్తత	19
▁పరికరంగా	19
▁పనిచేస్తాయ	19
▁డిడిఎల్	19
▁ఉపయోగించేవి	19
▁లబ్ద	19
▁XP	19
▁యంత్రాంగాలు	19
▁క్రీడలు	19
▁చిన్నదైన	19
▁డిప్రిసియేషన్	19
▁వర్గాలలో	19
▁నిర్ణయాత్మక	19
▁బెల్మాన్	19
్యు	19
రేటెడ్	19
▁ದ	19
▁ట్రైలర్	19
▁కన్సల్టెంట్	19
▁పర్యవేక్షిస్త	19
▁ఏజెన్సీల	19
విద్యలో	19
▁ఎక్జిక్యూటబుల్	19
▁డీసెంట్	19
▁అందుకుంటుంది	19
▁ఆర్క్స్	19
▁మార్చగలను	19
▁చట్టబద్ధంగా	19
▁టెక్నాలజీస్	19
▁సెక్యూరిటీల	19
ుకోబోతున్నాము	19
▁సందేశంలో	19
▁పెంచుతారు	19
▁కప్పి	19
▁సూచిస్తున్న	19
▁పట్టించుకో	19
▁తెలియజేయవచ్చు	19
▁రుచి	19
▁తీయ	19
ఆల్టర్నేట	19
▁అల్గారిథమ్‍	19
▁అనుమతించదు	19
▁మమ్మ	19
▁వెళ్లాల	19
▁తప్పిపోయిన	19
▁స్థాపించ	19
▁గ్రహించే	19
▁పరమైన	19
▁కోల్పోతారు	19
er	19
▁పోల్చాలి	19
▁సిక్స్టీ	19
▁తెరవండి	19
▁ఇంటెగ్రేషన్	19
▁అభ్యర్థనలు	19
▁అవసరమవుతాయి	19
▁గాయాల	19
▁అడ్మిషన్	19
▁జనవరి	19
▁ఫోల్డ్	19
▁సమగ్రమైన	19
▁అసంబద్ధ	19
▁టోకెన్లు	19
▁రాప్	19
▁పునర్నిర్మాణ	19
▁వర్తించబడతాయి	19
▁కొనసాగుతూ	19
▁నిశిత	19
▁రూపొందించబడతాయి	19
లేయర్	19
▁వికీపీడియా	19
▁ఆమోదించ	19
▁విసిరినప్పుడు	19
▁పూర్తవుతుంది	19
▁అమ్మకాలను	19
▁టిప్	19
▁వెళ్ళండి	19
▁నిలబడ	19
▁భూ	19
▁జపనీస్	19
▁స్క్రైబర్	19
▁సహచరులు	19
సంస్థ	19
▁దురదృష్టవశాత్తూ	19
▁పీడన	19
ave	19
▁నియంత్రించబడ	19
▁గురవుతుంది	19
▁కర్వేచర్	19
▁వసతి	19
పాటు	19
▁పెట్టుబడులు	19
▁విభాగము	19
▁చాల	19
▁ఆశించ	19
డిస్క్	19
స్టిక్స్	19
▁ಎಂಬುದ	19
▁ఉద్దేశ్యాలు	19
▁ట్రే	19
స్కేల్	19
గ్రూప్	19
▁డయామీటర్	19
▁పడి	19
▁నిర్మిత	19
▁వ్యక్తీకరణలు	19
▁వివరించును	19
▁హైవే	19
▁అయ్యేది	19
పరిష్కరించబడతాయి	19
▁లేనప్పటికీ	19
▁ఇంటెన్సిటీ	19
ుటకు	19
▁లైన్ల	19
ೋರೆನ್ಸಿಕ್	19
▁యంత్రాంగాల	19
▁జతచేయబడతాయి	19
▁అమినో	19
▁లీడింగ్	19
సృష్టించేటప్పుడు	19
రేట్	19
▁విధించ	19
▁ఐసోలేటె	19
హామిల్ట	19
▁వ్యాఖ్యాన	19
ರಿ	19
▁si	19
▁కన్న	19
▁క్యాచ్	19
▁చర్చించినట్లు	19
▁వ్రాయాలి	19
గార్బేజ్	19
▁కార్లు	19
పాటి	19
▁శుభాకాంక్షలు	19
▁ఫర్స్ట్	19
▁సెక్	19
▁చెయ్యబడినవి	19
▁ఎలిప్టిక్	19
▁చెయ్యును	19
▁విరామాలు	19
▁చేస్తున్నందున	19
▁రెక్టాంగిల్	19
▁వ్యాస	19
▁పనిచేస్తుంటే	19
▁రిక్రూట్	19
▁సాగ	19
▁క్రాక్	19
▁దేనిన	19
▁ఇరు	19
▁రెసిడెంట్	19
▁పెంచుదాం	19
.......	19
▁కనుగొంటాను	19
▁చేయదగిన	19
▁యాక్సస్	19
▁ಮಾಡಬೇಕು	19
షిప్	19
▁అనేదానిని	19
▁వేస్తున్నారు	19
▁సెంటీమీటర్	19
▁మార్చుతుంది	19
ూజ్	19
▁ప్రకాశవంత	19
▁కదిలించ	19
ఇటువంటి	19
▁దిశకు	19
▁ఐసోమార్ఫిజం	19
▁దృక్కోణంలో	19
▁కొనసాగించవచ్చు	19
▁అమర్చాలి	19
మైన్	19
▁సహాయపడవచ్చు	19
▁మధ్యవర్తిత్వం	19
▁ప్రచురిస్తుంది	19
▁పెంచినప్పుడు	19
▁చెంది	19
▁ఊహించే	19
▁శతాబ్ద	19
▁చెందుతుంద	19
▁ఆకృతుల	19
▁చదివే	19
▁పీస్	19
et	19
▁ఉండగల	19
▁లెంత్	19
*-	19
▁విక్రేతల	19
▁నాణేలు	19
స్టాంట్	19
▁మోనోక్రోమ	19
▁రూపొంద	19
ిస్తాము	19
nary	19
▁రియాలిటీ	19
▁వృత్తంలో	19
▁నమూనాలలో	19
▁ఆనందిస్తార	19
▁తీసివేయబడతాయి	19
యన్	19
ందో	19
▁పెరిగాయి	19
▁క్రిప్టేజ్	19
▁equa	19
▁Ix	19
కార్డియ	19
▁సిఎల్	19
మ్యాట్రిక్స్	19
▁seq	19
▁ట్రాన్సెండెంటల్	19
▁Ps	19
▁డీనాటరేషన్	19
▁రెట్రోస్పెక్ట	19
▁అబ్సోర్బేన్స్	19
▁లిగేస్	19
▁బ్యాలెన్స	19
▁స్మోకర్	19
▁లెక్కించాల్సిన	19
▁పతనం	19
▁AAT	19
▁అణుభార	19
▁ప్లైర్	19
▁పతనానికి	19
▁ఆశించవచ్చు	19
▁కొలుస్తున్నారు	19
▁రుణావేశం	19
nth	19
▁స్టడి	19
▁ఎండ్స్	19
Dn	19
▁ఉష్ణోగ్రతలు	19
వర్జెన్స్	19
పెన్సిటీ	19
న్యుమరేటర్	19
▁బంధించబడుతుంది	19
్రాప్	19
▁కార్టీసియన్	19
▁మైక్రోస్కోపిక్	19
▁త్వచ	19
▁థైమిన్	19
▁ddr	19
▁సీరం	19
▁ష్లిట్జ్	19
▁CRISP	19
▁కంపార	19
▁మోనోటోనిక్	19
▁దిగుబడిని	19
▁Qt	19
▁పరిమాణీకరణ	19
▁స్పెక్ట్రా	19
▁ప్యాకింగ్	19
▁స్వచ్ఛతను	19
▁చూపించాం	19
కణ	19
▁ఎలెక్ట్రోఫోరేట	19
▁కాటయాన	19
▁దత్తాంశ	19
▁టైరోసిన్	19
*=	19
ఆక్సిస్	19
▁పెల్లెట్	19
▁తీరు	18
▁సృష్టించాలి	18
▁విద్యార్ధులారా	18
▁చీమల	18
▁గ్రహణశక్తి	18
▁-∞	18
▁అనువర్తనంలో	18
▁చేశామ	18
▁సెన్సార్స్	18
విశ్వవిద్యాలయంలో	18
▁ప్రతిదానికి	18
ఆర్డినేట్	18
▁టెర్రరిజం	18
▁PDF	18
కన్నా	18
ೆಕ್ಷನ್	18
▁వస్తాయ	18
▁హాన్స్	18
▁ಮುಂದೆ	18
ಾನಗಳ	18
▁రాయండి	18
▁స్పెసిఫై	18
▁గుణకార	18
▁స్టాన్	18
▁మరీ	18
▁from	18
▁this	18
▁ఆర్ఐఎ	18
▁పెన్షన్	18
డెంట్	18
▁కలిగించకుండా	18
▁రాయడానికి	18
▁OL	18
▁సాంకేతికతకు	18
▁చూశారా	18
▁అంతిమంగా	18
▁ఐడియాస్	18
ంటాయి	18
▁ఎక్స్పోర్ట్	18
▁నిర్వాహకుడి	18
Wl	18
▁గీసాను	18
▁అవరోధాలు	18
▁వ్యవహరిస్తున్న	18
▁కప్లింగ్	18
▁వారసత్వం	18
▁అభిప్రాయ	18
▁ఆథెంటికేటర్	18
▁వేగవంతమైనది	18
▁వేక్టర్స్	18
డిజైన్	18
▁వోల్	18
▁ఆర్కిటెక్ట్	18
▁ప్రయత్న	18
▁క్లిష్టమైనవి	18
▁ఖరీదైనవిగా	18
▁అప్పు	18
▁చూడలేదు	18
▁లాస్సో	18
▁చేరడానికి	18
▁చూసాం	18
▁రాస్టర	18
▁ఇమేజరీ	18
ఇంటిగ్రేషన్	18
▁సమితిలో	18
ఇంతకుముందు	18
▁దృఢమైన	18
▁సేకరించ	18
▁తీసుకోగల	18
▁ట్రాన్స్ఫార్మ్	18
▁క్యాప్సులేట	18
▁మ్యాక్స్	18
క్లస్టర్	18
▁వెళ్తున్నాయి	18
▁హిందూ	18
బ్యాంకింగ్	18
▁సమకాలీకరించ	18
▁గ్రావిటీ	18
క్రి	18
పగేషన్	18
▁DBSCAN	18
“	18
▁సాధనాలతో	18
▁సంభావిత	18
▁ప్యాకేజింగ్	18
▁టాస్కింగ్	18
▁బ్రెడ్	18
▁స్థిరపడిన	18
▁వచ్చినప్పుడల్లా	18
▁ప్రెట్ట	18
▁గ్రిప్	18
చింగ్	18
▁పొందినప్పుడు	18
▁దొంగిలించ	18
▁వ్యవస్థతో	18
▁మేనేజీరియ	18
▁నిశ్శబ్ద	18
▁దూరదర్శని	18
ಐ	18
సర్	18
▁వికర్ణం	18
▁అందించబడును	18
▁చెయ్యు	18
▁పాతది	18
ఉ	18
▁పరీక్షలలో	18
▁గ్లాసీ	18
▁స్పామింగ్	18
▁చూపించబడ్డాయి	18
▁HI	18
▁భద్రపరిచే	18
VD	18
▁క్షణంలో	18
▁క్యాం	18
▁పోలీసు	18
▁ఎలెమెంట్	18
▁ఒమేగా	18
▁అడిగారు	18
▁ఉండని	18
మరొక	18
▁ధృవీకరించబడిన	18
▁MOOC	18
▁సంక్రమణ	18
▁control	18
▁పీపుల్	18
▁ధృవీకరించాలి	18
▁ఆపడానికి	18
▁ಸಮಯ	18
ಟಿಂಗ್	18
డింగ్	18
▁టెక్ట్స్	18
▁అడగడానికి	18
▁టై	18
▁పాత్‍ను	18
▁ఫ్లాస్	18
▁వాణిజ్యం	18
▁తీసివేయడానికి	18
▁అభ్యర్థిస్తున్న	18
▁వాహకం	18
▁చెయ్యబడి	18
▁వస్తుంద	18
▁తీసుకుంటున్నారు	18
▁వ్యాసార్థ	18
▁రివై	18
▁బైజెక్షన్	18
▁నిర్మించడంలో	18
▁సమయానుకూల	18
▁సినారియోలో	18
కపుల్డ్	18
▁రోల్స్	18
▁షియర్	18
▁రాష్ట్రాల	18
▁మార్చాము	18
▁పరిష్కరించబడిన	18
▁రిడెండెన్సీ	18
రప్ట్	18
▁ఆదేశం	18
▁కెల్విన్	18
▁జపాన్	18
▁ఫిబ్రవరి	18
ಮೆಂಟ್	18
మెషిన్	18
▁ఇనా	18
▁సారించే	18
▁ఎదుర్కొంటుంది	18
▁అసోసియేట్	18
▁table	18
▁ఆక్టివేషన్	18
▁ವಿಷಯಗಳ	18
నేట్	18
పద	18
▁చూస్తుంటే	18
▁చేయగలరా	18
వద్ద	18
బడలేదు	18
▁విత్తనాల	18
▁గమనించవలసిన	18
▁కాక	18
▁ఎంతగా	18
▁కొనసాగ	18
▁ఒకప్పుడు	18
స్తే	18
▁అభ్యర్థులు	18
▁నోడ్లు	18
▁kr	18
▁పొడిగించ	18
▁ఎగ్జా	18
▁SaaS	18
సరేనా	18
▁జ్యామెట్రీ	18
▁అబ్బాయిలు	18
లేకపోవచ్చు	18
▁ప్రాతినిధ్యాల	18
క్లిక్	18
▁ఇఎన్	18
ుతోంది	18
▁కాలిఫోర్నియా	18
టినీ	18
▁కాపిటల్	18
▁అందించాయి	18
రాజ్	18
▁కొనసాగించాలి	18
సోర్సెస్	18
▁జోడింపుల	18
▁నిష్పత్తుల	18
▁అయినప్పటికి	18
▁అక్షాన్ని	18
▁దూరవాణి	18
▁ట్రాన్సిషన్	18
▁బ్యాగ్	18
▁సంచిత	18
DF	18
క్యూఎల్	18
▁నెరవేర్చ	18
▁సిఫార	18
కూడా	18
▁నిర్ణయించుకున్న	18
▁ఇమెయిల్స్	18
రెంట్	18
▁ఫాస్ట్	18
▁లోహం	18
▁నడుపుతున్న	18
▁బ్రౌన్	18
▁భాగహారం	18
▁గీయ	18
▁ఎడ్రస్	18
▁నాజిల్	18
▁దృక్పథాన్ని	18
▁ఎదుర్కోవడానికి	18
పెంపొందించడానికి	18
▁మంద	18
▁జీతాల	18
▁Var	18
▁మార్చదు	18
▁బ్యాక	18
▁ఎమర్జెన్సీ	18
▁ఏడవది	18
మెమోరీ	18
▁విక్రయించే	18
▁కుక్క	18
▁సమర్థవంతమైనది	18
ుతున్నాయో	18
▁సహచరుల	18
▁న్యూమెరికల్	18
▁కుర్చీ	18
▁రక్షించాలి	18
▁ఫీజు	18
▁క్యూబ	18
▁నేర్ప	18
▁ఏమై	18
▁హ్యాట్	18
▁రేటింగ్	18
▁స్లైడర్	18
▁వీక్షించవచ్చు	18
▁తీ	18
సీడింగ్	18
ోగ్రామ్	18
▁శుభ్రపరచడం	18
▁లెక్కించి	18
విజువల్	18
▁మార్గదర్శకత్వం	18
ిస్తున్నప్పుడు	18
▁చేసేవాడు	18
▁కదల్చండి	18
▁టోపోలాజి	18
▁ఆంగ్లంలో	18
▁బిలియన్ల	18
▁మాట్లాడితే	18
▁రంగాల్లో	18
▁డిఎన్ఎస్	18
▁కూల్	18
స్టోర్	18
▁రిలేషన్ని	18
▁మెనూలో	18
▁నిబంధనలలో	18
▁సంబంధంలో	18
▁సమయాలు	18
▁సమిష్టిగా	18
సున్నా	18
హోస్ట్	18
▁అంతరాళంలో	18
▁అసెంబ్లర్	18
▁రోజున	18
▁ప్రచురించడం	18
▁చుట్టుముట్ట	18
▁ఘాతాంకాల	18
▁రాబడిని	18
ఫిష్	18
▁సమైక్యత	18
కొ	18
▁కలిగించడానికి	18
▁లీడర్	18
▁చూస్తున్నాం	18
▁చదివి	18
▁బ్రెయిడ్	18
▁క్షీణిస్తుంది	18
▁తిరస్కరించబడ	18
▁ప్లేలు	18
▁సంగ్రహించి	18
చర్	18
▁హించిన	18
▁మధ్యస్థం	18
▁నగరంలో	18
▁తగ్గించాము	18
▁రిప్రెసెంట	18
▁డిటెక్టివ్	18
టోనియన్	18
▁మార్గదర్శ	18
తర్వాతి	18
▁MIME	18
▁అడుగుతారు	18
నట్లు	18
▁క్లాంప	18
▁అల్	18
▁ప్రదర్శిస్తాయి	18
ఫెక్ట్	18
ాలనుకోవచ్చు	18
▁ట్యూ	18
▁ప్రతిపాదనలు	18
ప్రాజెక్ట్	18
▁ఉద్దేశ్యాల	18
మీర్	18
▁మార్పులేని	18
▁లెక్కల	18
▁బ్రిటి	18
▁ఎండో	18
▁లిప్యంతరీకరణ	18
▁యంగ్	18
▁పెడతారు	18
▁నేర్చుకుంటున్న	18
▁ఐతే	18
కెల్	18
▁నిల్వగా	18
▁ఫెచ్	18
▁పేరులో	18
▁కొలవబడిన	18
స్టాటిక్	18
▁ప్రయోగశాలలో	18
గత	18
▁చేయగలది	18
▁భావనాత్మక	18
▁సంయోగ	18
▁డామినెంట్	18
▁మాథెమాటిక	18
నిర్మాణాత్మకవాదం	18
▁దారితీస్తుంద	18
Cn	18
▁కంటిన్యూయస్	18
▁ర్యాంప	18
▁అవాయిడ్	18
▁పదమూడులో	18
▁బంధించ	18
▁ప్లాట్స్	18
▁సంతృప్తిపరచ	18
▁III	18
▁ఆక్టేట్	18
▁బావి	18
▁రాబడి	18
▁సప్లైలో	18
▁మైక్రోలీటర్	18
డన్	18
▁అయానిక	18
▁వేరియంట్స్	18
▁నిజమైతే	18
▁సంవృ	18
*∆	18
▁చూపాను	18
▁కణాల్లో	18
▁సీవి	18
▁అగరో	18
తేడా	18
▁ఇన్ఫైనైట్	18
+...+	18
ప్రాబబిలిటీ	18
ర్సెన్టైల్	18
〗	18
▁సాంఖ్యక	18
▁ట్రిక్కీ	18
▁బంతుల	18
▁ఆర్బీఐ	18
∛	18
▁క్షారం	18
aii	18
▁భాష్ప	18
▁సాధించుదాం	18
▁రాబట్టాము	18
▁dn	18
▁వ్రాయబడును	18
▁కీనేషియ	18
▁^-	18
tX	18
▁ప్రత్యేకం	18
Rk	18
▁ఎండెడ్	18
▁ఓవెన్	18
▁సమ్మరైజ	18
!*	18
!(	18
▁పాలసీలో	18
▁స్టేయిన	18
▁కుళ్ళిపోయ	18
▁స్టెర్	18
▁కణితుల	18
▁డియు	18
▁ఆవేశపూరిత	18
▁పాల్గొనండి	18
▁ఫ్యాక్టరైజేషన్	18
An	18
cf	18
▁వేరియేట్	18
▁పెండీచర్	18
▁జినోమ	18
ఫోటోమల్టిప్లైయర్	18
▁సమరైజేషన్	18
▁కాంగ్రుయెన్స	18
ఇన్ఫీరియారిటీ	18
ఆలెంబర్ట్స్	18
yj	18
▁పీడనాన్ని	18
▁సాధిస్తాను	18
లమైడ్	18
▁||	18
▁ఎగ్సాస్టివ్	18
▁ఈక్వేషన్లను	18
▁బియ	18
▁ఫెనోమెనా	18
▁సెంట్రిఫ్యూజ	18
యవ	18
▁వల్లీస్	18
▁మెగ్నీషియం	18
▁మూత	18
▁ఇమ్యూనిటీ	18
▁క్యూబికల్	17
▁అధికారాలు	17
అనుసంధానిస్తుంది	17
▁శోధనను	17
▁ఎయిడ్	17
▁స్పేసెస్	17
▁వదిలిపెట్ట	17
▁ಸಂದರ್	17
▁సరిదిద్దడం	17
▁థియరిస్ట్	17
▁కాంక	17
▁స్కేల	17
▁పెర్ఫార్మ	17
రుస	17
▁CGI	17
▁దేశానికి	17
▁రూపొందించి	17
▁దృశ్యమానత	17
▁సూచించబడ్డాయి	17
▁జరిగిందంటే	17
▁వెల్దాము	17
▁ఆటలు	17
▁ఇమెయిళ్ళు	17
▁చట్టవిరుద్ధం	17
▁అస్థిరమైనది	17
▁సంక్షిప్తీకరించ	17
▁ಅವಶ್ಯಕತೆಗಳು	17
▁బాగుందా	17
పుడియేషన్	17
▁ప్రారంభించబడిన	17
▁బయేషియ	17
వర్క్	17
▁చేయగలడు	17
▁తొలగించబడును	17
▁శబ్ధం	17
▁గాలిలో	17
▁కార్యకలాపం	17
▁క్లియరెన్స్	17
▁అభ్యాసంలో	17
ఫే	17
▁వర్ణన	17
▁గురికా	17
▁సెస్	17
▁ఇటాలిక్	17
ಭೌ	17
ತಿಕ	17
▁మార్చగల	17
▁వర్తించండి	17
▁గుర్తించగల	17
▁ఫౌంట	17
▁మొదలు	17
కాపీ	17
ున్నాను	17
▁సృష్టించగలదు	17
▁పోలికలు	17
▁రిఫ్రాక్	17
▁చూస	17
▁స్వీకరించబడిన	17
▁సిస్టమ్ల	17
▁ఇవ్వాల	17
విశ్వవిద్యాలయాలు	17
▁అప్పీల్	17
▁రెయి	17
ట్టర్	17
▁గుర్తుకు	17
▁అందులోని	17
▁టెక్నాలజీలను	17
▁చేయను	17
▁అప్పగించిన	17
▁చుట్టుముట్టబడి	17
▁చేయకుండానే	17
▁కమిట్	17
▁లక్షణానికి	17
▁అతడ	17
▁ఆశ	17
▁పొందుతుంటే	17
▁నిరోధిస్తాయి	17
▁పంచుకో	17
ಕ್ಷ	17
▁ప్రిటేషన్	17
▁ట్వీక్	17
▁సెక్యూరిటీతో	17
ఇప్పటికే	17
▁ಹೆಚ್ಚಿನ	17
▁ఆబ్స్ట్రాక్ట్	17
▁ఎన్కోడ్	17
▁ఫౌండేషన్	17
▁డిజిటలైజ్	17
▁పెంచుత	17
▁సూచికలు	17
▁లయ	17
▁దాచడం	17
▁విభేదాలు	17
▁విశ్లేషించడంలో	17
▁శూన్యం	17
▁నాయిసీ	17
▁అన్నింటికి	17
▁శీర్షికలు	17
▁శోధించవచ్చు	17
▁వందలకు	17
▁పరిష్కారంగా	17
▁చర్చించినప్పుడు	17
▁యాక్సెస	17
▁భావం	17
▁ed	17
▁పజిల్	17
▁పేర్కొన్నాను	17
▁ఇంటిగ్రిటి	17
▁ఫ్రాగ్మెంటేషన్	17
▁చేయబడతారు	17
▁పలుకుతున్నాను	17
▁బైక్	17
▁భాషలను	17
▁జీవితకాల	17
▁అనుకరించే	17
▁బెవెల్	17
▁అర్థమైందా	17
▁అకాడమీ	17
▁పోజ	17
మెడికల్	17
▁పాల్పడిన	17
▁ఆలోచనతో	17
▁జరుగుతుందనే	17
▁అవైలబిలిటీ	17
▁డిజాస్టర్	17
▁చేసుకుంటాయి	17
▁ఉపయోగించినట్లు	17
▁అభ్యర్థుల	17
TP	17
▁చోట్ల	17
▁విసుగు	17
▁మ్యాక్	17
▁సంరక్షించడం	17
హెటెరోజీన	17
▁అలసట	17
▁నిండిన	17
▁ఫ్లాయిడ్	17
▁కనిపించవు	17
▁కమిటీ	17
▁సరిపోని	17
▁అభివృద్ధితో	17
▁పోయింది	17
రికార్డ్	17
▁ವಿಶ್ಲೇಷಿಸುವುದು	17
ಪರೇ	17
▁ఫ్రెండ్లీగా	17
▁తరాల	17
▁ఆండ్	17
▁రైలు	17
▁ప్రైవసీను	17
నుంచి	17
▁విన్న	17
▁http	17
▁నడపడానికి	17
▁కంపెనీలలో	17
▁స్టే	17
▁చూశాను	17
▁కలుపుతాము	17
▁ఉపరితలాలు	17
▁చెప్పబడిన	17
▁అగ్రిమెంట్	17
బిల్	17
▁బోధకుల	17
▁యాక్యురసీ	17
▁వివరించబడతాయి	17
▁రిప్రజెంటే	17
ಿರುವ	17
▁ಅವು	17
▁ಸಂಸ್ಥೆ	17
▁ఫోకస	17
▁సూచనతో	17
▁ఇవ్వగల	17
▁సిములేట	17
దానిపై	17
▁vl	17
▁నర	17
▁ఏకరూపత	17
▁సంగ్రహం	17
▁రేఖాచిత్రాలు	17
▁లాంచ	17
ಕ್ಕ	17
▁ಸಹ	17
▁పాల్గొనవచ్చు	17
▁సహాయపడుతుంద	17
▁ఓరియంటేషన్	17
▁సంస్థలచే	17
▁విశ్లేషకుడ	17
▁కార్యక్రమంలో	17
▁గౌరవం	17
▁యంత్రాంగ	17
ున్నాయి	17
▁కీస్ట్రోక్	17
▁దుమ్ము	17
▁రద్దీ	17
▁విరామాల	17
▁క్యారక్ట	17
బడడం	17
లోన్	17
▁ఆక్టివిటీస్	17
పారలల్	17
అదనంగా	17
▁ఎలుకలు	17
▁లాకింగ్	17
▁పంపించ	17
▁సాధనాల్లో	17
▁సందేహాస్పద	17
▁సెంట్రాయిడ్	17
జికల్	17
▁బాణాలు	17
ఉపాధ్యాయులు	17
కోర్సు	17
▁అర్థాల	17
▁చర్యలలో	17
▁స్థాపించడం	17
▁సెట్టింగుల	17
▁చూపించడం	17
్వినియోగం	17
▁అనేదానిపై	17
▁వంతెనల	17
▁నీలి	17
▁ఎగ్జామినర్	17
▁స్లైడింగ్	17
▁మార్చబడ	17
వర్చువల్	17
▁*(	17
▁పత్రంలో	17
▁సాఫ్ట్వేర్	17
▁ఏటవాలుగా	17
▁సేకరిస్తుంది	17
▁కొలుస్తాము	17
▁సరళరేఖ	17
▁చూపబడతాయి	17
స్పోక	17
▁ఆప్షనులు	17
▁వదులు	17
▁చేసుకోగలవు	17
▁విజ్ఞప్తి	17
▁విముక్తి	17
▁that	17
▁వర్షన్	17
ప్రయత్నం	17
▁ఇష్టం	17
▁తెరిచినప్పుడు	17
▁తొలగించబడింది	17
ನಲ್	17
▁విజయాల	17
▁కేటాయించబడతాయి	17
▁నియమించడం	17
▁బృందాలు	17
టిల్	17
▁ఇని	17
సై	17
▁ఒకటవది	17
టైట్రేషన్	17
▁చూసేందు	17
▁ఉండరు	17
▁అటెండ	17
▁చూసుకోవడం	17
▁సిని	17
▁ఉంచుకుని	17
▁ఉద్దేశ్యపూర్వక	17
పరిమాణ	17
▁సేకరించాలి	17
▁ext	17
▁ప్రణాళికలో	17
▁ఆసుపత్రి	17
▁సూచించేది	17
▁ప్రవహించ	17
▁రెండింటితో	17
▁మెరుగుదలలు	17
▁ప్రేషకుడు	17
▁ఎత్తులో	17
▁నిర్వర్తించ	17
▁ఇంట్రూజన్	17
▁మూసి	17
▁తోడ్పడ	17
▁నొక్కిచెప్ప	17
▁ట్రైస్	17
▁పలు	17
▁వాల్ట్	17
▁వచ్చినట్లు	17
▁కుదించ	17
</	17
▁సైటేషన్స్	17
స్తారు	17
▁మించినది	17
▁ఏర్పడదు	17
పూరిత	17
▁పోల్చండి	17
▁‍లో	17
▁ఫోన్లు	17
▁ఉండట	17
▁చేస్తున్నాయ	17
▁పార్	17
▁ప్లాటర్	17
▁మార్చారు	17
▁అమర్చండి	17
▁కార్యాలయాల	17
డైనమిక్స్	17
మెష్	17
▁చేరుకో	17
▁చేయగానే	17
▁సాధారణీకరించ	17
▁పొరలను	17
▁DVD	17
▁ప్రమాదకరం	17
▁రాష్ట్రాలు	17
▁శాతంలో	17
▁నాలుగో	17
▁ఉంచబడ	17
ించబోతున్నాము	17
డయల్	17
▁తెలుసుకో	17
▁బాగుంద	17
▁విభజించిన	17
▁పద్దెనిమిద	17
▁టెక్నాలజీతో	17
▁సౌందర్య	17
▁ప్రసంగ	17
బడే	17
▁రిటన్	17
వాన్	17
ించబడిన	17
▁పాలియా	17
▁జరపండి	17
▁వాహనం	17
▁క్షీణించ	17
చేయవచ్చు	17
▁పరిహార	17
▁జియుఐ	17
▁ఎన్నుకునే	17
▁స్టీ	17
ిస్తే	17
▁ఫ్లాపీ	17
ంతో	17
▁విలోమంగా	17
▁నిర్ధారించండి	17
▁మైల్	17
▁అనువర్తనాల్లో	17
▁డ్యామ్	17
ష్యూ	17
▁డిష్	17
▁వ్యర్థాల	17
▁తెలుసుకోగలరు	17
డ్డీ	17
క్లీ	17
▁ఐదుగురు	17
పం	17
ఎక్కువ	17
▁మార్చినట్లయితే	17
▁లాగుతుంది	17
▁ముగిస్తాము	17
▁చేస్తున్నట్లు	17
▁ఉపయోగించవద్దు	17
▁చూపిస్తాను	17
OM	17
బడతాయో	17
▁న్యాయమూర్తుల	17
▁లివర్	17
▁నియంత్రిస్తాయి	17
▁నిజమే	17
ైండింగ్	17
▁ప్రమేయాలను	17
▁కారణమవుతాయి	17
యూజర్స్	17
▁ఫైబ్ర	17
▁ఉపయోగించబడినది	17
▁ఒప్పించే	17
▁నగర	17
▁విధుల్లో	17
▁తెలుసుకోవాలనుకు	17
▁కొలాప్స	17
▁చేసుకోగలిగే	17
▁సముదాయం	17
▁జన్యువులో	17
నుఫ్యాక్చరింగ్	17
▁తరాలు	17
▁వాయిదా	17
▁భావించారు	17
▁చర్చించుకున్న	17
▁మూ	17
▁dk	17
▁మడత	17
నిర్వహణ	17
▁ఎడ్వ	17
▁లెజెండ్	17
▁తెలియనప్పుడు	17
▁బౌండరీలో	17
▁హార్	17
ord	17
▁AP	17
▁wn	17
▁ధృవ	17
▁ఆక్సిజన్	17
▁రిసిప్ట్స్	17
▁పదిహేనులో	17
▁రిమార్క్	17
▁నైన్టీ	17
▁dE	17
▁టాక్సే	17
▁బదిలీలు	17
▁బౌండరీపై	17
▁సాంపిలింగ్	17
▁పాజిటివ్స్	17
▁లోనవుతుంది	17
▁చంద్ర	17
▁పాథాలజిస్ట్	17
▁పివిడిఎఫ్	17
▁సొల్యూషన్లో	17
▁ఈక్వెషన్స్	17
▁కేంద్రక	17
▁ద్రవంలో	17
∆^	17
▁ఫాస్ఫాటిడ	17
▁yz	17
▁ఇక్వుల్	17
▁మేకర్స్	17
▁Runge	17
tta	17
▁పరిష్కరిస్తే	17
▁ఎర	17
▁స్థిరీకరించబడి	17
▁లీనియరైజ్	17
▁అవక్షేపించ	17
యూరె	17
▁పర్మ్యుటేషన్స్	17
▁yx	17
▁పనిలక్షణము	17
▁నానో	17
▁fn	17
▁జీర్ణక్రియ	17
▁కడగాలి	17
▁వేరియెబిలిటీ	17
▁HM	17
▁వ్రాయబడినట్లు	17
▁భిన్నాల	17
▁ఎసిటోనైట్రైల్	17
▁అయోడైడ్	17
▁స్లోపింగ్	17
▁టర్న	17
▁పెడితే	17
▁సెక్టార్‍	17
▁టాక్సేషన్	17
▁ATP	17
▁కరిగి	17
cx	17
▁bij	17
▁equal	17
▁విటమిన్	17
▁సమతౌల్య	17
▁జెనోమిక్	17
▁ఐడెం	17
▁గుర్రపు	17
▁పైరోఫాస్ఫేట్	17
డెల్	17
నాళిక	17
మాసీ	17
'''	17
〖	17
▁క్రామెర్	17
క్యూట్	17
Φ	17
▁పొట	17
షియం	17
▁సర్జన్	17
ురెట్	17
▁అబ్జర్వేషన్స్	17
ిన్యూక్లియోటైడ్	17
▁alpha	17
▁br	17
▁ఉండరాదు	17
సెసివ్	17
▁ఎక్స్పెరిమెంట	17
▁tX	17
*+	17
మెన్	16
▁సెన్సార్లు	16
▁విశ్వసనీయంగా	16
▁ఫలితంతో	16
▁ಬಳಸಿಕೊಂಡು	16
ుకుంటాము	16
▁క్లాసు	16
▁సెక్యురిటి	16
▁వికేంద్రీకృత	16
▁తులనాత్మక	16
▁ఇండెంట	16
▁ప్రభావితమైన	16
▁సరఫరాదారులు	16
రిలేషన్	16
▁చెల్లించిన	16
▁అడ్వర్టైజింగ్	16
▁నేపథ్యంలో	16
ఫార్మ్స్	16
▁ప్రతిస్పందించే	16
▁అందిస్తోంది	16
▁చూపు	16
వ్యక్తిగత	16
▁లెక్చర్స్	16
▁కూర్చుని	16
▁ಮುಂದಿನದು	16
▁తీసుకుందాము	16
▁ಲಾಕ್	16
▁గమనించడానికి	16
▁మారుస్తాయి	16
ಿಕೆ	16
రేడియో	16
నార్మల్	16
▁విని	16
ఉపయోగించుకుంటాయి	16
▁ఆర్కిటెక్చర్స్	16
▁సేకరించబడుతుంది	16
▁కమాన్డ్	16
▁**	16
▁చెప్పాడు	16
▁ట్రోజన్లు	16
▁అయినవి	16
▁దీన్న	16
▁కప్పబడి	16
విద్యార్థుల	16
స్తాయి	16
▁ప్రయత్నిస్తుంటే	16
▁IS	16
▁వెళుతుంద	16
అల్ఫాబెటిక్	16
▁ಸಂಪೂರ್ಣ	16
▁ಮಾಲ	16
ಾರ್ಡ್	16
▁ఉదా	16
▁మిలియ	16
▁వినడం	16
▁th	16
▁డెలివర	16
▁ఉపయోగించుట	16
▁ప్రారంభమైన	16
▁అనుసరించిన	16
▁బోధించబడుతుంది	16
వ్య	16
▁అడుగ	16
▁ఉత్తరాల	16
సిఎల్	16
▁మెక్సికన్	16
▁సాగే	16
▁గమనం	16
▁కోపం	16
బడవచ్చు	16
▁డీసెంట్రలైజ్	16
▁టెల్లర్	16
▁ఓవల్	16
▁లోప	16
▁అకౌంటబిలిటీ	16
▁పథకాలు	16
▁హేతుబద్ధత	16
వ్యూ	16
▁డిపెండెన్సీ	16
▁కనుగొనబడతాయి	16
▁డిజి	16
▁సింగిల్టన్	16
▁సైట్లలో	16
▁వశ్యత	16
▁సాధించారు	16
▁చలనచిత్రాలు	16
ద్దాము	16
▁కోటింగ్	16
▁ప్రాబ్లం	16
▁సమస్యతో	16
▁చేకూరుస్తుంది	16
▁ఫైనెట్	16
▁ఇంజనీర్లు	16
▁పరధ్యానం	16
▁అవలంబించ	16
▁ప్రయోజనాలతో	16
▁పర	16
▁శోధించే	16
▁సాక్ష్యాలు	16
▁వీ	16
▁ఇంటర్నెట్‍	16
▁నిందితుడి	16
▁ఎంబెడ్డింగ్	16
▁కొలాయిడ	16
▁ప్రయోజనాలలో	16
▁అనిపించవచ్చు	16
▁కదులుత	16
▁సిద్ధాంతాలను	16
▁చిహ్నాలను	16
డూప్లికేట్	16
ನೆ	16
బుక్	16
▁స్వీకరిస్తుంది	16
నాల్గవది	16
▁చేయబడట	16
▁సవాళ్ళ	16
▁సముచిత	16
▁పెంచాము	16
▁హౌజ	16
▁ఉన్నాయనుకుందాం	16
▁ఓపెనింగ్	16
▁నిర్వచించాల్సి	16
▁yt	16
▁బ్రిటీష	16
ఇంకా	16
▁ట్యాప్	16
▁స్టాండర్డైజ	16
▁సర్ఫరాజ్	16
▁చెకర్	16
▁అనేకం	16
మానవ	16
ారో	16
▁సురక్షితమైనది	16
▁ఉన్నప్పటికి	16
▁వర్ణించవచ్చు	16
▁ఉపయోగిస్తోంది	16
▁గోడలు	16
▁గదులను	16
▁ఐకాన్స్	16
▁జిబి	16
▁వేసి	16
స్పీడ్	16
▁చివర్లో	16
▁పనిచేయాలి	16
▁తలెత్తుతాయి	16
ಓ	16
್ಯೂ	16
▁అమరికను	16
▁సహాయంగా	16
ಕರಣ	16
▁అనాలోచిత	16
▁అధ్యాపకులు	16
జెక్ట్స్	16
▁డిస్టెన్సెస్	16
▁మారుతున్నాయి	16
▁వెళదాం	16
▁సూచిస్తూ	16
ెఫ్ట్	16
▁ఎరే	16
దర్శన్	16
▁ఇవ్వగలను	16
మోడెమ్	16
ండే	16
▁తీసుకుంటాం	16
▁మోడిఫికేషన్	16
ెస్టర్	16
▁వ్యతిరేకం	16
▁చేసుకున్నాం	16
▁మార్గదర్శకం	16
▁కన్వెన్షన్	16
▁కలవాల	16
చేతి	16
నేడు	16
▁మాట	16
▁ఫీల్	16
▁నిర్వాహకులందరి	16
ర్గానిక్	16
▁జాబితాలు	16
▁చేరి	16
▁రచయితల	16
▁ಪುರಾವೆ	16
ಷ್ಟ	16
▁నియంత్రిస్తారు	16
ఉపయోగించేటప్పుడు	16
▁పుష్కల	16
డెక్స్	16
నాడు	16
ఉపయోగిస్తున్నాయి	16
▁నిర్వహించి	16
▁ni	16
▁మోనోప్రింట్	16
▁ఆలోచించి	16
ఫిట్	16
▁గదులు	16
▁చట్టబద్ధత	16
▁చేరుకోవాలి	16
▁పరీక్షిస్తుంది	16
▁ఒప్పంద	16
ట్లైతే	16
▁ఆక్రమించిన	16
▁సాధ్యమైంది	16
లీనియారిటీ	16
▁ఆక్సిడెంట్	16
▁నాటకీయ	16
▁బల్బుల	16
చ్చ	16
ెర్	16
▁స్పీకర్	16
ాకార	16
మోన్	16
▁పరిజ్ఞానంలో	16
▁డక్	16
కలిగి	16
▁ఆకాంక్షల	16
▁యానిమేట	16
▁ఉండకుండా	16
▁ప్రతిష్ట	16
▁రాయ్	16
▁రిప్రెసెంటేషన్	16
▁అర్ధమేనా	16
▁ఉత్తరం	16
▁ఉపయోగించుదాం	16
▁చేయబడుతున్నది	16
▁బోల్ట్	16
▁ఆలోచనా	16
▁స్క్వ	16
▁చేయగలుగుతారు	16
▁ఉన్నందువల్ల	16
▁విశ్వవిద్యాలయ	16
టెన్సివ్	16
▁అతికించ	16
▁సత్య	16
▁స్క్రిప్షన్	16
▁హాజరైన	16
▁గమనికలు	16
కట్	16
▁బ్రేకింగ్	16
దేశాలు	16
▁నిరాకరించ	16
▁మారుదాం	16
▁జెడ్	16
కండక్టర్	16
▁ప్లేయర్స్	16
▁USB	16
▁బ్రీచ్	16
నిర్దిష్ట	16
ేజెస్	16
ఎల్ఎస్	16
ఐటిఎస్	16
▁దర్శకత్వం	16
▁ముగిద్దాము	16
▁పత్రికలు	16
▁ఆల్ఫాబెటికల్	16
▁వెలుపలికి	16
సింపుల్	16
▁అందుకోవడానికి	16
▁ఛార్జీలు	16
▁CMAC	16
▁పూరించండి	16
▁జస్ట్	16
▁కాష్	16
▁రాకెట్	16
▁క్రిమినల్స్	16
▁వరం	16
▁క్షుణ్	16
▁అర్కైవ్	16
▁కోల్పోయే	16
▁మినిమైజ్	16
▁హడూప్	16
▁రేండం	16
రెగ్యులర్	16
వెర్టెక్స్	16
▁పక్షపాత	16
▁సందేహాల	16
▁ప్రవేశపెట్టబడిన	16
▁ప్రతిస్పందనగా	16
▁వహించడం	16
▁బృందంలో	16
▁లాగండి	16
▁గ్రేడింగ్	16
▁వహిస్తున్న	16
▁ఫెయిల్	16
▁ರಚನೆಯ	16
▁ఉపాధ్యాయుడి	16
▁వ్యాకరణ	16
నియన్	16
▁గీసే	16
▁పత్రికల	16
▁బాబ	16
▁కళాత్మక	16
ei	16
ుందని	16
▁పూర్తయినప్పుడు	16
▁నిర్ణయించబడ	16
మురు	16
▁కేంద్రీకరించడం	16
▁కుదించబడిన	16
▁ఆప్స్	16
▁దెబ్బతీసే	16
▁పట్టికల	16
▁అడగాలి	16
▁ఎంట్రీల	16
▁పిలవవచ్చు	16
▁నిర్మించే	16
▁ఎలో	16
▁విరుద్ధ	16
▁సరిపోల్చండి	16
▁ఎనెబుల	16
▁పొందుతాడు	16
▁అక్షాల	16
▁సబ్‍	16
▁సెలవులు	16
▁దశాబ్దాలుగా	16
ఆక్సైడ్	16
▁చర్చి	16
▁చివర్ల	16
▁ಹೇಗೆ	16
▁ఇమ్య	16
▁కేటగిరీల	16
▁ఆవిధంగా	16
▁విక్రయించవచ్చు	16
▁ఇవ్వబడిందని	16
▁నవీకరించడానికి	16
▁చెప్తుంది	16
▁నేర్చుకుంటుంది	16
▁పాల్గొంటాయి	16
▁దృక్కోణాల	16
▁బయోఇన్ఫర్మేటిక్	16
▁వదిలివేస్తుంది	16
▁బిజీ	16
గతంలో	16
▁నాయకత్వం	16
▁నిష్క్రమణ	16
▁గుర్తుంచుకుంటే	16
▁ప్రాబ్లమ్స్	16
▁రవి	16
▁సిములేషన్	16
▁బాడి	16
ించడానికి	16
▁లిపి	16
రూట్	16
▁పరిశోధించడానికి	16
▁అనుమానిత	16
▁ప్లా	16
▁ఇంటెగ్రిటీ	16
▁ప్రయాణిస్తాయి	16
CS	16
ఫంక్షన్	16
▁వాహన	16
▁విచ్ఛిన్న	16
▁ఘనీభవించ	16
▁చేస్తామంటే	16
▁అనుమతించండి	16
▁మచ్చలు	16
▁ప్రశ్నించడానికి	16
▁ಸ್ಪ	16
▁ఏకాభిప్రాయ	16
▁బఫరింగ్	16
▁రేడియల్	16
▁శక్తివంతమైనది	16
ఫోర్స్	16
▁స్పష్టమవుత	16
కింగ్	16
▁అక్షంలో	16
▁మాత్రికకు	16
▁సెక్షన	16
▁క్ల	16
▁పదుల	16
విభాగం	16
▁ఆబ్సెంట్	16
▁లభించింది	16
ఇడి	16
}.	16
థా	16
ఐమ్యాప్	16
▁సెలక్టివ	16
▁మార్టి	16
స్టెన్స్	16
▁నివారించే	16
▁ఆశ్చర్యం	16
▁సముచితం	16
▁పోటీదారు	16
▁నైరూప్య	16
▁అడుగున	16
▁ప్రతిస్పందిస్త	16
▁ఈథర్నెట్	16
▁కదులుతున్న	16
▁పాఠంలో	16
నుకోండి	16
ప్రూనింగ్	16
పీర్	16
లైజేషన్	16
▁నమూనాలతో	16
▁వాక్యాలను	16
ఫుల్	16
IA	16
టైజేషన్	16
▁వివరించేటప్పుడు	16
▁number	16
▁రుణావేశ	16
▁మరణాల	16
కరమైన	16
ూల్స్	16
▁ఇటి	16
vi	16
▁కనుక్కో	16
▁వేసింది	16
▁తెస్తాయి	16
▁శ్రేణులు	16
వేరియబుల్	16
▁నిష్పాక్షిక	16
▁రికవర	16
▁ట్రిమ్	16
▁వేస్తాయి	16
▁Sh	16
▁నిరూపిస్తుంద	16
▁హట్	16
▁పరారుణ	16
▁అర్	16
▁నిర్ధారణలో	16
▁చివరన	16
▁నిర్ణయించగలదు	16
▁fr	16
▁ನಿರ್	16
▁బులెటిన్	16
▁గమనించే	16
▁ఫ్యాన్లు	16
▁కోరుకోవడం	16
▁ద్యాన్	16
▁శిఖరాల	16
▁ಅವುಗಳ	16
▁శాస్త్రీయంగా	16
▁ఫాక్టర్స్	16
▁థియో	16
సైల్	16
▁బేస	16
▁నిర్ణయించును	16
▁ఫార్	16
▁క్రైటేరియా	16
▁లిప్యంతరీకరించ	16
▁బంధిస్తాయి	16
▁తగ్గదు	16
నుకుంటే	16
రోవ్	16
▁దెబ్బతిన్న	16
▁జరిపి	16
▁ఉపయోగకరమైనది	16
▁ఆధారపడదు	16
▁అతినీలలోహిత	16
లందరి	16
▁స్వాగతించ	16
▁ప్లైన్	16
▁సౌష్టవం	16
▁రంధ్ర	16
▁తగ్గుతూ	16
▁మీటరింగ్	16
▁కర్మాగారంలో	16
▁వేరుచేయడ	16
▁పెక్టేషన్స్	16
▁బంధాల	16
▁వృద్ధాప్య	16
చిపోవడం	16
▁నమ్మండి	16
▁పెట్రోల	16
▁ah	16
▁అవక్షేపించబడ	16
పోవడానికి	16
▁విసిరే	16
▁సంతానోత్పత్తి	16
▁వేరుచేయబడ	16
▁Ku	16
▁క్యాపిట	16
ప్రాబబిలిటి	16
)&	16
▁మిశ్రమాల	16
▁ఆల్క	16
▁అబ్సోర్ప్షాన్	16
▁ఉద్గారం	16
▁పికో	16
▁పరిగణిస్తాం	16
▁తగ్గుతుందని	16
▁OH	16
▁ప్రొకార్యోట	16
▁పికింగ్	16
▁కొలతగా	16
కార్టీజియన్	16
▁ప్లాటికుర్టిక్	16
PCR	16
ోటాక్సిక్	16
▁వివరిస్తాం	16
▁అయనీకరణ	16
▁లడ్డూ	16
▁అబ్సార్ప్షాన్	16
▁స్టోక్స్	16
▁dR	16
▁పద్ధతులన్నీ	16
▁సిగ్నిఫై	16
▁Ax	16
లిగేషన్	16
వైట్నీ	16
▁దశలోని	16
▁ఫెరోనీ	16
▁అట్కిన్	16
▁లవణం	16
క్యులర్	16
▁కాంట్రాక్ష	16
▁పొందును	16
బ్‍	16
సొల్యూట్	16
▁ప్రోటీమిక్స్	16
▁పివట	16
▁ba	16
▁అవశేషం	16
▁విట్రోలో	16
▁ఎలిసా	16
పోట	16
▁xiyi	16
▁Di	16
▁kp	16
▁విట్రో	16
▁సెట్లు	16
̽	16
▁ఎంచుకోవాల్సి	16
⊄	16
▁కేశ	16
▁PI	16
▁కన్వర్జెంట్	16
▁రైబోసోమ	16
▁ఫ్రాగ్	16
▁ఎన్జైమ్	16
▁కరిగించ	16
డాక్స్	16
▁ట్రయాంగుల	16
▁ఎగ్జాస్ట	16
మైనస్	16
▁గ్రబ్	16
▁యాంటీబాడీలు	16
<=	16
▁ఫాల్సిఫియ	16
ɵ	16
▁అనెక్	16
▁∑(	16
▁కాంప్లిమెంటర	16
▁రిసల్ట్	16
▁స్పృశించ	16
▁టిఎటి	16
▁det	16
▁భారాల	16
▁Ar	16
▁xr	16
▁తెలుసుకోవలసిన	15
▁తెరుస్తుంది	15
▁అనుసరించాల్సి	15
▁ఎంటిటిల	15
▁లాభ	15
▁చారిత్రాత్మకంగా	15
▁గణనలో	15
▁విశ్వవ్యాప్తం	15
▁స్వ	15
▁ఇమెయిళ్ళను	15
▁అర	15
▁వడపోత	15
▁Google	15
▁ఖచ్చితమైనవి	15
▁సైకాలజీ	15
▁అనైతిక	15
▁ఎన్నుకోవడం	15
▁సర్టిఫికెట్లు	15
▁కాన్ఫెరెన్సింగ్	15
▁వ్యా	15
ిస్తారు	15
▁విక్రయించడం	15
బడిందని	15
▁ఎంచుకున్నప్పుడు	15
▁నామమాత్ర	15
▁కోలుకోవడ	15
జు	15
ప్రాథమిక	15
▁ಮಾಡಿ	15
ಸ್ಟ್	15
▁at	15
ep	15
▁కథనాలు	15
▁లైనింగ్	15
▁భద్రపరచబడుతుంది	15
fe	15
▁కండిషన	15
▁అంగుళాలు	15
▁రేఖాచిత్రాల	15
▁హక్కుదారు	15
▁డిజిట్	15
రుకు	15
▁ఇష్యూల	15
▁ఉన్నచోట	15
▁కిటికీలు	15
▁పథకాల	15
ರು	15
ಅನ್ನು	15
▁తెలియజేసే	15
▁వేటాడ	15
▁యజమానికి	15
ొచ్చు	15
▁LAN	15
ామియా	15
▁ఇస్లామియా	15
▁ఫే	15
పేర్	15
▁భవనాలు	15
ఐసి	15
▁మాట్లాడాను	15
ంటరీ	15
▁దూకుడు	15
▁స్పందించ	15
▁on	15
▁గుణించినప్పుడు	15
▁కలపండి	15
▁పేల	15
అసలు	15
▁కాలానుగుణ	15
▁శత్రువు	15
▁స్ట్రక్షన్స్	15
▁సాన్స్	15
ంద	15
▁మెమోరిలో	15
▁చెయ్యగలవు	15
▁ఆక్టివిటి	15
▁ఉల్లంఘనకు	15
▁స్థలాల	15
▁కనిపిస్తే	15
▁అనధికారికంగా	15
▁ఘాత	15
▁నింప	15
▁నాలుగుగా	15
▁సవరించబడుతుంది	15
▁సూక్ష్మమైన	15
▁స్థితిస్థాపకత	15
▁చేసినవి	15
▁బొటనవేలు	15
షేరింగ్	15
▁లేటర్	15
▁స్లైడ్స్	15
▁జర్నలిస్ట్	15
మిగతావన్నీ	15
▁మారుతున్నందున	15
▁ప్రదర్శించబడిన	15
▁రీచ్	15
▁ఆకారపు	15
▁పేటెంట్ల	15
▁నిరంతరాయ	15
▁చేసేందుకు	15
▁స్టాండర్డైజ్	15
▁వేయబడతాయి	15
▁కాంటౌర్	15
▁అధ్యాయ	15
▁లక్ష్యాలలో	15
▁వీలైతే	15
▁వీరిలో	15
▁కదిలించాలి	15
▁షూ	15
▁Km	15
▁రివార్డ్	15
▁మూలాధారాల	15
▁అప్రమత్తం	15
▁పరంపర	15
▁ಪತ್ತೆ	15
▁జీవితచక్ర	15
మింగ్	15
టన్	15
ుకునే	15
లాగ	15
▁ఫాస్ఫర	15
▁కాథోడ	15
ుడు	15
▁ఆలోచించగలర	15
ంట్లో	15
▁నవీకరించబడింది	15
▁హార్డ్వేర్	15
▁సూచించబడుతాయి	15
▁ట్రెండ్స్	15
▁డిస్కౌంట్	15
▁చూపించింది	15
▁ఆశ్చర్యపోవచ్చు	15
▁ರಿಪೋರ್ಟ	15
▁కలిపిన	15
▁వెళ్ళిన	15
▁తప్పిదం	15
▁పానోప్లీ	15
▁బ్యాట్	15
▁నియమంలో	15
▁గడియారం	15
▁గుర్తుందా	15
▁విషయంతో	15
▁వస్తాను	15
▁అల్గోరిథమ్	15
▁OFB	15
▁అధికారి	15
లేనిచో	15
▁జరుగుతోందని	15
▁చెప్పి	15
పోవడం	15
▁స్టోర్స్	15
ట్టు	15
ఎడ్జెస్	15
▁నిర్వచించును	15
▁సివిల్	15
▁er	15
▁∞.	15
డాట్	15
▁సామాన్యుల	15
▁ఉద్భవించాయి	15
▁నిష్క్రమించ	15
▁హ్యాంగ్	15
▁పోలసీ	15
ప్రైవేట్	15
శిష్	15
▁వీక్షణలో	15
Ω	15
▁సిస్టమ్లు	15
▁ఆటగాళ్ల	15
▁కేటగిరీ	15
▁తగ్గింది	15
ಪ	15
▁సంతృప్తిని	15
▁ఆసక్తుల	15
▁సెమాఫోర్	15
▁సారిస్తాను	15
▁హెర్	15
▁కార్మిక	15
▁సహసంబంధ	15
కస్టమర్	15
▁సర్కిల్స్	15
ದರೆ	15
VAC	15
▁చేయాలా	15
▁క్రాల	15
▁పరిమితిలో	15
▁కేటాయించబడ	15
నెగటివ్	15
▁IJ	15
▁ఉపయోగించాం	15
▁హార్డ	15
బడుతున్నవి	15
▁ఔచిత్యం	15
▁ఏర్పరచదు	15
బా	15
▁ಮೆಂಟ್	15
▁ವರ್ಗ	15
▁రీరైట	15
▁చిట్కా	15
▁సోపానక్రమ	15
▁కలిసిపోతుంది	15
▁యాక్సెసిబిలిటీ	15
▁వర్గీకరించబడును	15
టీన్	15
ఆరు	15
▁అనుకున్నాను	15
▁vt	15
ఒ	15
▁సారించాల్సి	15
▁వాటాదారులు	15
▁గమ్యస్థానానికి	15
▁చనిపోయిన	15
వ్యాపారంలో	15
▁త్రూ	15
▁సేఫ్	15
యంగా	15
▁పాఠశాలల్లో	15
ri	15
▁క్యాస్ట	15
▁కార్యనిర్వాహక	15
▁Fx	15
▁ఓసీఆర్	15
ರುವ	15
▁సాధించవచ్చ	15
గలుగుతాము	15
స్కోర్	15
▁మాండెటరీ	15
▁టర్నోవర్	15
▁నెరవేర	15
మైనదిగా	15
దశ	15
ామి	15
▁పురోగతులు	15
▁నియంత్రించగల	15
ఆల్ఫాబెటిక	15
▁సేవలలో	15
స్టిల్	15
లీగల్	15
▁చేయలేవు	15
అలా	15
▁మనస్సు	15
▁అసమర్థ	15
▁ఉదహరించ	15
▁అధిగమించ	15
▁ఉపశమనం	15
▁షైనీనెస్	15
▁వెళ్లును	15
▁వెళ్తున్న	15
▁అభిజ్ఞా	15
▁చేస్తున్నా	15
▁సమీకృత	15
▁డబ్	15
▁ఎక్	15
▁క్రోమ్	15
▁ಇಂ	15
▁మారి	15
▁ఉంచుదాము	15
▁ವಲ್ನರಬಿಲಿಟಿಯ	15
త్రీ	15
▁పడిన	15
▁మెరుపు	15
▁ವೈಯಕ್ತಿಕ	15
▁కార్య	15
▁చేస్తాయ	15
▁ఫ్రాన్స	15
▁కింగ్	15
▁తొలగిస్తాను	15
సాంకేతికత	15
▁మినట్	15
▁అంశ	15
▁సాధ్యపడును	15
▁పంపండి	15
▁ఆడి	15
▁అనుకరించ	15
నొ	15
▁హింస	15
▁వేరియ	15
▁ప్రకటించ	15
▁జీవితాల	15
▁ಅಸೆಸ್	15
▁ఏర్పడవచ్చు	15
▁పుష్	15
▁పరిశీలించే	15
▁ఆలోచించాల్సి	15
▁అనుసరిస్తాము	15
▁స్థాయిలకు	15
▁సున్నితమైనది	15
▁ఆందోళనలు	15
▁వైల్	15
ుకోవటానికి	15
▁ప్రచారాల	15
▁ఎర్గోనామిక్స్	15
▁వరద	15
▁ఫ్రాన్సిస్	15
▁తలంలో	15
▁బట్టలు	15
▁క్లాజ్	15
▁రోజర్	15
▁సమితులు	15
▁హీల్	15
▁సపోర్టింగ్	15
▁ಕಾರಣ	15
▁జా	15
▁హ్యాపీ	15
▁సింప్ల	15
▁ఈవిధంగా	15
▁రష్యన్	15
▁ప్రధానమైనది	15
▁పరీక్షించే	15
▁నిరూపిత	15
▁భవనాల	15
▁కాదో	15
▁సందేహాలు	15
▁పూర్ణాంక	15
▁ఉంద	15
▁స్థిరమైనది	15
▁ఎంపికతో	15
దయచేసి	15
▁file	15
▁నిర్వచిస్తాయి	15
▁డోప్	15
▁ఎటాక్స్	15
▁ప్రిప్రాసెసింగ్	15
ಬ್	15
▁తరలించబడుతుంది	15
▁సూత్రాలపై	15
ఇండిపెండెంట్	15
▁బ్లూప్రింట్	15
▁గీస్తుంది	15
▁శాఖలో	15
య్యర్	15
▁టూరిజం	15
▁నిర్దేశించడం	15
▁స్క	15
▁నొక్కవచ్చు	15
▁uz	15
టటువంటి	15
▁ఫార్ములేట్	15
▁స్టోరు	15
▁కనుగొనబడ్డాయి	15
▁వెతకడం	15
▁ప్రోగ్రాం	15
ುಲ	15
▁టెన్షన్స్	15
ించినప్పుడు	15
▁మొదలైనవిగా	15
▁హైపోథె	15
▁రెండ	15
▁పదకోశం	15
▁ప్రదర్శనల	15
▁పరిశోధకుడి	15
UR	15
స్పందించడానికి	15
▁ఎటాక్లను	15
▁చిత్రంతో	15
▁హోల్డర్స్	15
ాలనుకుంటారు	15
వడానికి	15
▁విభజించాలి	15
▁వెళ్తుంద	15
▁ಗಳಲ್ಲಿ	15
▁ఏరో	15
ప్రయోజనాలు	15
▁చర్యం	15
▁అమెండ్మెంట్	15
పోయే	15
▁IaaS	15
▁ఉండగా	15
▁రిలేటెడ్	15
▁కనిష్టీకరించడం	15
▁పరిగణిస్తుంది	15
▁పొందగలరు	15
▁రోలో	15
▁ROM	15
▁నష్టపోవడ	15
▁తెలిసినట్లయితే	15
▁పూరకం	15
జింగ్	15
▁తదుపరిసారి	15
▁హద్దు	15
▁నమోద	15
▁ఆక్విజిషన్	15
▁భాగమ	15
▁సారుప్యత	15
▁రీవ్యూ	15
▁డిసిప్లేన్	15
▁మెటిరియల్	15
జియో	15
ొని	15
ప్రెటేషన్	15
▁డెస్టి	15
▁సహజమైనది	15
హెడ్	15
▁కమీషన్	15
▁సంతోషకరమైన	15
▁హరి	15
▁సమర్పించడం	15
వైరస్	15
▁అమ్మడ	15
▁ప్రభుత్వాలు	15
▁పాత్రల	15
▁పిలవడ	15
▁పెట్టుబడుల	15
▁ఫాక్స్	15
▁PCA	15
▁ఉంచబడుతాయి	15
▁ప్రాజెక్ట్స్	15
▁ET	15
▁చెల్లింపులను	15
▁వృ	15
▁పనిచేయవచ్చు	15
uv	15
▁పరిష్కరించాల్సి	15
అడ్వేర్టైజ్మెంట్	15
▁వంపు	15
▁పొందగలుగుతారు	15
▁సరిహద్దులో	15
డెత్	15
▁అనుభావిక	15
▁ప్రాణాంతక	15
▁కౌ	15
▁నెట్వర్క్	15
అందరికీ	15
▁అవినీతి	15
▁ఇవ్వాల్సి	15
▁సాచురేటర్	15
▁vw	15
స్తుంటే	15
▁సోపాన	15
▁సే	15
▁పక్కనే	15
▁రిపిటీ	15
క్యాష్	15
▁అబ్స	15
▁క్రే	15
▁ఫార్మేట్	15
▁నేరస్థుడు	15
▁ఎగ్జిక్యూట	15
▁కానుంది	15
▁మెంట	15
▁స్లాట్	15
▁మెధడ్	15
ఇం	15
▁డివిడి	15
▁ప్రయత్నించాము	15
▁రక్షిత	15
▁రాష్ట్రాల్లో	15
▁వ్యక్తీకరించే	15
▁ఆధారపడ	15
▁కేటాయించడానికి	15
▁కంటిన్యుట	15
▁హిందీ	15
ంటారు	15
▁స్కీమాస్	15
▁ఆపరేషన్ల	15
ఎనిమిది	15
▁నిలబడి	15
▁మూలాధారాలు	15
▁చందాదారుల	15
▁క్లౌడ్స్	15
రేస్	15
అనుసంధానించవచ్చు	15
▁పేర్కొనబడ	15
▁తీసుకోవాల	15
▁మెడ	15
చ్చే	15
▁విస్తృతమైనది	15
▁దురదృష్టవశాత్తు	15
లాపింగ్	15
▁తండ్రి	15
▁తీర్మానించవచ్చు	15
ళు	15
ట్రీ	15
నిస్సందేహంగా	15
▁బోర్డుపై	15
ఫర్	15
▁నిర్ణయించవచ్చ	15
▁డిపాజిట్లు	15
▁దీర్ఘకాలంలో	15
▁స్టోరేజి	15
▁వృద్ధికి	15
▁చెల్లుతుంది	15
▁సంభవించడం	15
▁యంత్రంలో	15
▁కనుగొన్నది	15
▁కం	15
▁విస్మరించవచ్చు	15
▁వైరుధ్యం	15
నైన్	15
▁బొమ్మల	15
▁థా	15
▁నిర్వచించబడినది	15
▁విభిన్నం	15
▁ఆర్గ్యుమెంట్స్	15
▁వైకల్య	15
▁ఎంచుకోవాలో	15
▁ఉందనుకుంటే	15
▁సవరించబడ్డాయి	15
log	15
▁ప్రయోగశాల	15
▁కలుషిత	15
▁ఆవిష్కరించారు	15
))/	15
▁ఎసిట	15
▁పిబిఎం	15
▁బాక్టీరియోఫేజ్	15
▁ద్రావణుల	15
ఆర్డినర	15
Γ	15
▁మైక్రోఆర	15
▁ట్రిప్టోఫ	15
▁PQ	15
▁ఐసోప్రొప	15
▁ప్రషన్	15
▁డిపాజిట్లలో	15
▁కావల	15
▁ఎసిటేట్	15
టోనిక్	15
▁IV	15
సిడ్స్	15
▁పాథో	15
▁బహుపదాల	15
▁హిస్	15
ఫిస్కల్	15
fn	15
▁ప్రస్తావించాను	15
▁aii	15
jk	15
)=-	15
▁gcd	15
▁ca	15
▁కలరిమెట్రి	15
▁సెఫ	15
▁స్ట్రక్చ	15
▁ఎలక్ట్రోలైట్	15
▁అణుభారాల	15
▁సెంట్రీఫ్యూ	15
▁విచ్ఛి	15
▁ప్రపోషన్	15
▁పదహారులో	15
▁గమనించాం	15
▁గమనించగలరు	15
▁లింఫోసైట్స్	15
ీర్	15
చాప్టర్	15
▁సమతాస్థితి	15
▁బయా	15
▁pUC	15
▁వివోలో	15
▁సరళీకరణపై	15
▁రీకాంబినేషన్	15
▁Qn	15
Bc	15
ిగేట్	15
▁డివైజర్	15
▁కణంపై	15
▁Dk	15
▁రూంజ్	15
సాధించబోతున్నాము	15
▁యన్	15
▁గమనించారు	15
సిటేట్	15
▁ఇంతవరకూ	15
షనరీ	15
▁స్పెక్ట్రోఫోటోమ	15
▁మార్చబడినప్పుడు	15
వేరియేషన్	15
▁ఫ్లూయిడిక్స్	15
▁ఎర్రర్‍లు	15
▁)×	15
▁నానోడ్రాప్	15
▁ఫ్రైడ్మాన్	15
ానిని	15
▁SYBR	15
▁రిలయబిలిటి	15
▁ఎలక్ట్రోఫోరెట	15
▁ప్రోటోనే	15
▁En	15
▁షాక్స్	15
DB	15
▁tr	15
▁ట్యూబుల	15
▁ఫెనోటైప్స్	15
)*[	15
▁డీనాచుర్	15
ఇథైల్	15
▁ఆర్గానెల్	15
క్రమాలను	15
▁లుమినోల్	15
]=	15
▁)/√	15
▁know	15
స్టేజ్	15
▁అడెనిన్	15
▁డియోక్సి	15
▁రెసిడెంట్స్	15
కాన్ఫిడెన్స్	15
▁క్వాటర్నరీ	15
ిక్స్	15
▁జీవులు	15
∫	15
ెటరీ	15
▁పొందాలనుకుంటే	15
▁సమూహాలతో	15
▁మచ్చల	15
▁కార్లో	15
▁IQR	15
న్యుమరిక	15
▁షూటర్	15
▁మృతి	15
''(	15
▁వైద్యుని	15
▁గడిపిన	15
▁డియోక్సీ	15
పర్స్	15
▁రసాయనం	15
▁సుపీరియారిటీ	15
▁వ్యక్తీకరించడం	15
▁పరిబస్	15
▁బౌలీ	15
▁పరివేష్టిత	14
హామిల్టోనియన్	14
್ಟ್	14
▁వివరించబడును	14
▁మెటీరియలైజ	14
ఛానెల్	14
▁ఛాలెంజ్	14
▁అదృశ్య	14
▁చర్చించారు	14
▁సహకారానికి	14
▁కనుగొంటాయ	14
▁విస్మరించబడిన	14
▁నంబరింగ్	14
▁ఒప్పందాలు	14
న్సర్	14
▁IETF	14
▁ప్రతిపాది	14
▁అట్రిబ్యుట్	14
▁ఇల్యూషన్	14
▁నేర్చుకోవడ	14
▁చుట్టుకొలత	14
▁తగ్గట్టు	14
▁టేబుల్నేమ్	14
▁నేర్పుతాము	14
ాన	14
▁గీస్తున్నాను	14
▁ప్రతిపుష్టి	14
▁ఆడుతున్న	14
▁విభజించాము	14
అభ్యాసకులు	14
▁పోల్స్	14
▁స్వీకరించవచ్చు	14
▁ఇన్షియలైజేషన్	14
▁ಪ್ಯಾ	14
ವ್ಸ್	14
▁ಡ್ರಾಪಿಂಗ್	14
▁ఆదర్శవంతంగా	14
▁సిద్ధాంతాల	14
▁అసిస్టె	14
ೈಗ	14
್ರೇಷನ್	14
ీకరిస్తుంది	14
ಿಕವಾಗಿ	14
ಪ್	14
▁ಮೂರ	14
▁నిర్వాహక	14
ಯಿಂದ	14
▁శాటిలైట్స్	14
▁నైరుతి	14
▁త్య	14
▁ఫామిలీస్	14
▁గుప్తీకరించిన	14
▁ఆర్గనైజషన	14
▁పెంచుతుంద	14
▁విశ్లేషకుల	14
▁కాల్క్	14
▁ఆల్టర్	14
▁ట్రాన్స్లేషన్	14
ಕರ	14
▁క్రాసింగ్	14
▁నాటకీయంగా	14
▁నడిపించే	14
▁అందుకో	14
▁చేయగలిగేది	14
▁ఉంచుతున్నాము	14
▁అకొమొడేషన్	14
▁ఎవిడె	14
▁ప్రామాణీకరించడం	14
▁రూపొందించబడినది	14
లిట్	14
▁సరిపోల	14
▁మేట్రిక్స్	14
▁నొక్కినప్పుడు	14
డబుల్	14
▁కస్టమైజేషన్	14
▁పునశ్చరణ	14
▁అనువదించడం	14
ించే	14
▁ప్రభావాల	14
▁త్వరణం	14
▁భద్రపరుస్తుంది	14
▁సాధ్యమవుతుంద	14
▁చెందినప్పుడు	14
▁కీలలో	14
▁సరిదిద్దబడి	14
▁సాగుతుంది	14
ధర	14
డోస్	14
▁బాట్	14
▁DDoS	14
▁అంతరాయాల	14
▁ప్యాకేజీని	14
▁సెంటి	14
▁బేయే	14
పరిశోధన	14
▁ఢీ	14
▁పోస్టేజ	14
▁వెలుతురు	14
▁ప్యాడ	14
▁కార్యాలయాల్లో	14
▁అత్యవసరం	14
▁రీసైజ	14
వర్తింపజేయబడతాయి	14
▁యుగాల	14
▁ట్రా	14
ఫెన్	14
▁ఫ్యాన్	14
▁నిర్మిస్తున్న	14
▁చెక్కుల	14
హాష్	14
న్నమాట	14
▁బ్రేక	14
▁టూర్స్	14
▁రసీదు	14
▁Corel	14
▁అసంబద్ధం	14
▁జెపిజి	14
ಂಕ್	14
▁ಡ	14
▁చూడకుండా	14
▁ఇంక్రిమెంట్	14
▁TLS	14
▁ప్రారంభిద్దాము	14
ప్రతిబింబిస్తాయి	14
ఒకసారి	14
▁చొప్పించడం	14
తన	14
▁మెరుగు	14
▁చూస్తూ	14
▁నిపుణులకు	14
▁వర్తింపజేసే	14
▁DI	14
▁చేసుకోవట	14
▁ಕೋಡ	14
▁చేయబడుతున్నవి	14
బిలిటి	14
▁ఊహాజనిత	14
▁అంతరిక్ష	14
▁న్యాయ	14
ార్డ్	14
▁అవ్వదు	14
▁ఎయిట్	14
▁రిలీ	14
▁స్కీమ్స్	14
థరైజ్	14
▁ఉపయోగిస్తున్నాం	14
▁ముందుభాగం	14
▁చదువుతారు	14
▁ఏవో	14
▁ಡೊಮ	14
▁సిసి	14
▁గ్రూపులో	14
▁ఆసక్తులు	14
▁లభించదు	14
▁ఎవరిక	14
▁వంటిదే	14
▁మానేజ్మెంట్	14
▁పదంలో	14
తాము	14
▁సంభవం	14
దుల్	14
ದಾಹರಣೆ	14
▁స్కామ్	14
▁తొలి	14
▁ఆలోచిస్తూ	14
▁ద్రవ్యోల్బణ	14
▁ఫిగర్స్	14
▁Sensitivity	14
▁అంగుళ	14
▁నగరాలను	14
▁వరస	14
▁తీర	14
▁గ్యాలరీ	14
▁ర్యామ్	14
▁డిస్క్రిమినేషన్	14
▁సిడిలో	14
నేటి	14
▁పాసింగ్	14
▁ఓపిక	14
▁నెమ్మదైన	14
▁ಸರ್ವ	14
▁రచనల	14
▁అమెరికా	14
▁మరల్చ	14
▁పాల్గొనేవారి	14
▁అంతర్దృష్టుల	14
ation	14
▁ಮಾಡಬಹುದು	14
ಲ್ಯ	14
▁డ్రై	14
▁కోల్పోవడానికి	14
వివరణాత్మక	14
▁టెర్రీ	14
▁కలయికల	14
▁వర్ణించబడింది	14
▁లేఖల	14
▁సృష్టించాము	14
▁చేద్దామంటే	14
▁వ్రాస్తాను	14
▁గుప్తీకరించ	14
▁నేర్చుకున్నట్లు	14
▁ఆమోదించడ	14
▁లాయల్టీ	14
▁ఎకో	14
▁మాండ	14
▁పూరించవచ్చు	14
▁ప్రశ్నించడం	14
▁ప్రత్యామ్నాయాల	14
▁బ్యా	14
ಕ್ಸೆಸ್	14
▁బెజి	14
▁మిలిటరీ	14
▁ప్యారిటి	14
అవసరమైన	14
▁రిపీటర్	14
▁నిరోధించడంలో	14
ಟ	14
▁ఇవ్వకపోతే	14
▁టీటిపి	14
▁మాగ్జిమైజ	14
▁ఎపోక్	14
▁అవశేష	14
▁తౌజండ్	14
▁చూసారు	14
ంప్లిఫికేషన్	14
▁చేరుకున్నాను	14
▁సహాయపడటం	14
ప్పటి	14
▁తీసే	14
▁అలంకార	14
▁మోంటే	14
▁బరువులో	14
పరిష్కరించబడింది	14
▁దీర్ఘకాల	14
▁ఎక్స్ఎమ్ఎల్	14
▁ఫార్మాట్స్	14
▁అడ్వేర్టైజింగ్	14
▁మోనోటైప	14
▁క్యారెక్టరైజ	14
గం	14
▁ఉద్భవించ	14
▁‍కి	14
▁ఐఎఫ్	14
▁వచ్చాను	14
నది	14
▁చేపట్ట	14
క్రమబద్ధీకరించడం	14
తలు	14
ీకరించబడిన	14
▁విద్యావేత్తలు	14
▁ఒకరిన	14
వచ్చని	14
▁జవాబుదారీ	14
▁వదిలి	14
▁తత్వశాస్త్రం	14
ಡೇಟಾದ	14
▁నెయిబర్	14
▁అనుకుంటాను	14
▁ఫు	14
▁పితామహు	14
ఆపరేటివ్	14
▁బైబిలోగ్రఫ	14
కోబోతున్నాం	14
▁పరిశుభ్రత	14
▁తెఫ్ట్	14
▁భయం	14
▁సమాధానంగా	14
▁సార	14
▁తీసివేసిన	14
ప్రధానంగా	14
▁వ్రాయగలరు	14
ఫైనాన్స	14
▁లెక్కించగల	14
▁సహేతుకం	14
ct	14
▁ఉంచబడింద	14
సిఏఐ	14
ఓఇఆర్	14
▁వాడవచ్చు	14
స్థ	14
▁సాధ్యాసాధ్యాల	14
▁నిరూపించాం	14
▁ప్రపంచవ్యాప్త	14
▁బహిర్గతమవుతుంది	14
▁ఆశక్తి	14
▁నిలుపుకోవ	14
▁ఎంచుకున్నారు	14
తర్వాత	14
▁తొలగిస్తాయి	14
▁మోడళ్ల	14
▁వక్రీకృత	14
▁నెట్వర్కింగ్	14
▁మెరిసే	14
▁ఫోల్డ	14
▁షీట్లు	14
▁గ్రె	14
▁థియేట	14
▁పరిశ్రమల	14
▁చేయాలనుకుంటారు	14
▁టైప్ఫేస్ల	14
లన్నింటికీ	14
▁ఇంతటితో	14
▁వైద్యుల	14
▁సంప్రదించ	14
▁ఆకారాలు	14
▁రకంలో	14
▁చంప	14
సబ్	14
▁మీడియంలో	14
▁నిర్ధారించుకోవ	14
▁ఉండడానికి	14
▁పద్దతిలో	14
▁వదిలివేస్తారు	14
▁ఇండిసీస్	14
▁చెప్పలేము	14
▁శాస్త్రవేత్తలకు	14
▁ఇంజనీర్స్	14
▁తీసుకుంది	14
కర	14
▁జోక్య	14
▁లీకేజ్	14
▁ధ్వనించే	14
▁pk	14
▁ఫోర	14
▁ఆటగాడు	14
▁ప్రారంభించాడు	14
రేంజ్	14
ill	14
ಆಫ	14
▁చేస్తున్నాన	14
ోబె	14
▁ఇటిఏ	14
ఉదాహరణకి	14
▁వెళ్లేటప్పుడు	14
▁మూడింట	14
టె	14
▁దూరవిద్య	14
వ్యవస్థలు	14
▁పెరిగినది	14
▁ట్రిప్లెట్	14
▁సెషన్లో	14
ికీ	14
ష్ట	14
▁ఓబ్	14
▁స్పెసిఫికేషన్స్	14
▁అలారం	14
పడుతుంది	14
▁షేక	14
▁స్థాపించబడింది	14
రియన్	14
▁మాటలు	14
ప్షన్	14
▁క్రీ	14
▁రెక్టాంగిల్స్	14
ac	14
▁శతాబ్ధం	14
▁రిమూవల్	14
▁ఐబిఎం	14
▁view	14
▁ఇంధన	14
▁ప్రేరేపించే	14
▁సిస్టంకు	14
అప్పటి	14
▁నై	14
▁భారతీయుల	14
నిర్దేశ	14
▁డిబి	14
రొ	14
▁పరిగణ	14
▁తెరవవచ్చు	14
య్యే	14
▁భద్రపరచబడి	14
▁పెన్సిల్స్	14
▁ఉత్పన్నాల	14
')	14
▁ఇంటెలెక్టు	14
▁అనుమతించబడతారు	14
ಯೋ	14
▁ವ್ಯವಸ್ಥೆಯ	14
▁పొందికైన	14
▁థ్రెట్లు	14
ಬೇಕಾದ	14
ప్రింటర్	14
▁యాజమాన్యంలోని	14
▁పాల్గొంటుంది	14
▁మొహమ	14
శాంప్లింగ్	14
ఆడియో	14
▁మో	14
▁PDM	14
▁ఎక్సట్రాక్షన్	14
▁వహించ	14
▁గెలుచుకున్న	14
▁చేయబడిందా	14
▁లావాదేవీలకు	14
▁గ్రహించబడుతుంది	14
▁స్టాంపుల	14
▁ప్రాధాన్యం	14
నిర్ధిష్ట	14
ల్స	14
▁చేరినప్పుడు	14
▁చదివేటప్పుడు	14
▁తీసుకురావాలి	14
▁వేక్టర్లు	14
▁iv	14
▁మెట్రో	14
▁భోజన	14
▁చేరడం	14
▁సహాయపడుతాయి	14
▁స్వంతం	14
▁నిరూపించబడినది	14
▁గుర్తించడ	14
డిపి	14
దగినది	14
▁రోజురోజుక	14
▁నిర్ణయాధికార	14
▁ఇవ్వకుండా	14
▁అవిచ్ఛిన్న	14
▁సంప్రదించవచ్చు	14
▁ఏకాభిప్రాయం	14
▁వివరించాలి	14
మోనిక్	14
▁చేయకపోవచ్చు	14
▁మాటలలో	14
▁స్మ	14
▁శోషించ	14
▁కొనసాగించే	14
▁వెళ్తున్నారు	14
ೇಸ್	14
▁టేబుల్లో	14
▁కాలమ్లు	14
▁సాంప్రదాయక	14
▁అన్వయించడం	14
▁ఆయిల్	14
▁బిహేవియర్	14
▁డ్రాగ	14
రియం	14
▁ప్రాసిక్యూటర్	14
▁ఉపయోగిస్తూ	14
▁తిప్పడం	14
గ్ల	14
▁తప్పుల	14
▁భావోద్వేగాలు	14
▁పిగ్మెంట్	14
▁ఉపసమితుల	14
▁ప్రసరించ	14
▁ప్రసారంలో	14
దారులు	14
▁నిరుపయోగ	14
▁సందర్శించే	14
మ్మత్తు	14
▁మ్యాక్సిమల్	14
▁ఖాన్	14
▁శోధిస్తుంది	14
▁సంబంధించినంత	14
▁అనిపిస్తే	14
▁వ్రాస్తున్నాము	14
ఎస్ఐ	14
▁అడిషన	14
▁Cf	14
▁లక్షలు	14
▁ఎమి	14
సంతృప్తిపరచాల్సి	14
▁ఫ్లైట్	14
కాలం	14
▁ఐమ్యాప్	14
▁ప్రమాదకరమైన	14
▁చేయనిచో	14
▁ఎన్నుకోవాలి	14
▁ನೋಡ	14
ేషనల్	14
పంతొమ్మిది	14
▁లోతును	14
▁సుసంపన్న	14
▁తగ్గి	14
▁అనుభవించే	14
▁నివేదికలో	14
▁కీలకమైనవి	14
▁రుగ్మత	14
▁తొలగించినప్పుడు	14
న్నది	14
▁మారుస్తారు	14
▁అభిరుచులు	14
నరీ	14
▁ఫ్రెడ	14
▁మాక్సిమమ్	14
కింద	14
▁వార్డ్	14
వ్యక్తపరుస్తుంది	14
▁పరిమాణాల్లో	14
▁విశ్వసిస్తున్న	14
▁ಬಳಕೆಯ	14
▁రిచర్	14
▁సిల్వ	14
ిందని	14
▁ಹಾನಿ	14
▁యుఐ	14
▁పొందగలదు	14
▁రొ	14
ేంద్రీకరిస్తుంది	14
పార	14
▁అన్వయించ	14
▁బిల్లుల	14
▁సమతలం	14
▁అర్థము	14
▁క్లర్క	14
▁గణించబడిన	14
▁వస్తు	14
▁సమిష్టి	14
▁టీవి	14
▁జోడించాము	14
▁తగ్గించాల్సి	14
▁మెనులో	14
▁క్లుప్తమైన	14
▁కదలడం	14
▁ఫ్రిజ్	14
▁aa	14
▁చెందకపోతే	14
▁విశ్లేషించగల	14
▁పొందా	14
▁విలీన	14
▁సాధనాలకు	14
▁గృహాల	14
▁అవయవాలు	14
యబుల్	14
ine	14
▁లోనూ	14
▁థీసిస్	14
▁విలువలుగా	14
▁టెరాబైట్	14
యుచికాగొ	14
లిస్టిక్	14
▁నిత్యజీవిత	14
క్రూడ్	14
▁తెలుసుకుంటాం	14
▁గణితశాస్త్రం	14
ఎడమ	14
▁ట్వల్	14
▁అనుమతించబడును	14
▁ట్రాన్	14
▁నిలిచి	14
లోనూ	14
▁ప్రస్తావించబడిన	14
▁పెరుగుతున్నందున	14
▁పనులలో	14
▁స్పెస	14
\,.....	14
▁వృత్తిపర	14
▁అవుతాయా	14
▁మరెక్కడ	14
▁వెళ్ళవలసి	14
▁విండ్	14
▁వ్యక్తీకరించబడు	14
▁గీతల	14
▁టీకాలు	14
▁తత్వవేత్త	14
ణంగా	14
▁ఫిన	14
▁సంబంధమైన	14
▁వెస్ట్	14
▁తెలియనిది	14
▁థర్మోస్	14
▁డిసి	14
▁సమానత్వం	14
▁నిచ్చెన	14
▁నిష్పత్తులు	14
▁చేర్చుతాము	14
▁కాస్ట్స్	14
▁చక్రాల	14
▁స్టన్	14
▁వ్యవస్థాపక	14
▁తెలిపే	14
ోగుల్	14
▁మైక్రాన్	14
▁నెంబర్ల	14
▁లుకేమియా	14
ప్రతిక్షేపించాము	14
▁తెలియవు	14
▁అనుకుంటున్నాం	14
▁మ్యాథమ	14
▁నిన్	14
దోవ	14
▁కలరిమెట్రిక	14
▁నూనె	14
▁గౌస్	14
▁డిప్రీసియేషన్	14
▁నిర్వచించాం	14
▁భాగిస్తాము	14
▁మైటోకాండ్రియా	14
▁byx	14
▁సిమ్మెట్రి	14
▁దీప్	14
యిడ	14
▁రిఫ్రిజిరేటర్	14
ప్రపోర్షనల్	14
▁ఎర్రర్‍ల	14
▁అయోడిన్	14
▁ద్రావిత	14
▁తెలియనివి	14
▁పరిక్షేపణ	14
ట్రోపిక్	14
మాట్లాడుకున్నాము	14
adj	14
▁ఎరువుల	14
▁పనిచేయు	14
▁రాబట్టడం	14
▁లవం	14
▁రసాయనాలు	14
▁విస్తరణలో	14
▁మార్పుకీ	14
▁pet	14
▁పైరో	14
▁చెలేట	14
▁ఆవరించబడి	14
▁కన్ఫమే	14
▁జడ	14
▁ఎలిమెంట్లు	14
▁కొనసాగుతుంద	14
హార్మోనిక్	14
▁వ్యాధిగ్రస్తులు	14
పరిగణిస్తున్నాము	14
▁కడిగి	14
▁sy	14
ప్రెసిపిటేట్	14
▁Fp	14
▁Fq	14
▁జిసి	14
▁ఫార్మాకో	14
▁అట్రిబ్యూ	14
▁అల్యూమినియం	14
▁క్షీరదాలు	14
▁ఎగ్జిస్టెన్స్	14
▁గ్రాము	14
▁dT	14
▁సెంట్రిఫ్యూగ	14
▁రిజాల్వ	14
▁మలినాల	14
▁∫(	14
▁sn	14
▁ఇంట్రి	14
న్సిక్	14
▁క్రిప్టోమిక్స్	14
▁ఘటనలు	14
▁డిఫ్లేటర్	14
▁ఇంటర్సెక్ట	14
▁నిర్ణయాధికారి	14
▁లెప్టోకుర్టిక్	14
▁ఎండోన్యూక్లియస	14
విలోమ	14
ప్రోక్షిమేట్	14
▁రెటిక్యులోసైట్	14
▁ic	14
▁మృత	14
▁శోధక	14
▁ఫ్లేషన	14
▁చేయగా	14
▁...\,	14
▁గెయిన్స్	14
▁ఈక్వేషన్ల	14
▁మైక్రోఅరేలు	14
▁గ్వానిడియం	14
▁నిరోధం	14
▁PB	14
▁ప్రోగ్రెషన్	14
▁బయోటైనిలేటెడ్	14
▁ఈక్విలిబ్రియం	14
ాటిక్	14
▁ధ్రువీకరించ	14
▁ముఖ్యమైనదా	14
పార్షియల్	14
▁be	14
▁టాబ్యుల	14
η	14
▁ఫ్లోరోస్	14
కంటిన్యుయస్	14
▁గ్వానిడినియం	14
▁మ్యూచ్యు	14
▁రోగులలో	14
▁ఎడము	14
▁బంధిత	14
▁రోహ్	14
▁బాక్టీరియ	14
▁ఫలకం	14
Fz	14
▁ప్రియరీ	14
▁సాధ్యము	14
ిన్నింగ్	14
వ్యక్తీకరించవచ్చ	14
▁ప్రతిచర్యలో	14
▁sinh	14
డియం	14
▁తయారైనది	14
▁వివరించారు	14
▁అపకేంద్రీకరణ	14
▁డోడ	14
▁శిశువు	14
▁రోహ్తక్	14
▁సేకరించబడును	14
▁Aj	14
▁సూచించదు	13
▁నిమిషంలో	13
▁ప్రోగ్రామ	13
▁యాంగిల్స్	13
▁గాడ్జెట్	13
▁టెల్	13
▁చాక్	13
వైట్	13
▁మిటర్	13
▁ತಾ	13
▁నిర్మించబడ్డాయి	13
▁చూపుతారు	13
యమ్	13
▁ఎత్తైన	13
▁బహుళమాధ్యమం	13
▁నవీకరించబడతాయి	13
▁విచారణలు	13
▁మత	13
▁స్కానర్లు	13
▁అమర్చడానికి	13
▁హ్యూ	13
▁నమూనాతో	13
▁మిగిలిపోయి	13
▁ఉపన్యాస	13
▁డిసె	13
▁నటించ	13
▁ఫెసిలిటేటర్	13
▁బోధకులు	13
పూర్తి	13
▁మారలేదు	13
▁ప్రమోషన్లు	13
ದು	13
▁రాయాలి	13
▁గు	13
ಗಳಿವೆ	13
▁ನಂತರ	13
▁సెమి	13
▁పడిపోయ	13
ld	13
▁ప్రయత్నానికి	13
▁సర్షన్	13
▁ఇన్స్ట్రక్షన్ల	13
ాగం	13
▁అగ్రిగేట్స్	13
▁తొలగించగల	13
▁GMM	13
▁పెన్నులు	13
▁క్లాడింగ్	13
▁రంగులలో	13
రోజు	13
▁చేసుకోబోతున్నాం	13
▁తగ్గించాల	13
▁సంభాషించడం	13
▁బ్రిక్	13
▁స్నో	13
▁నియమావళి	13
▁పార్శిల్	13
▁పెరిఫెరీ	13
▁అస్	13
▁ಅವುಗಳೆಂದರೆ	13
▁ಪ್ರಕ್ರಿಯೆಯ	13
▁ప్రతిభావంతులైన	13
▁చో	13
▁శక్తులు	13
ಲೆಯ	13
▁ಮಾ	13
▁ಮ್ಯಾ	13
▁గణించ	13
వేరియంట్	13
మైక్రోవేవ్	13
▁నేర్చుకున్నది	13
▁రిప్రసెంట	13
▁డార్విన్	13
▁రౌటింగ్	13
▁హైరార్చి	13
▁యానిమేషన్స్	13
▁క్యాస్టింగ్	13
▁విశ్లేషిస్తారు	13
▁అత్యాశ	13
▁లెక్కించారు	13
▁నియంత్రించబడును	13
చూసిన	13
▁కల్పించాలి	13
▁పాఠ్యపుస్తక	13
ేళ్ల	13
▁బోరువ్కా	13
▁చొప్పించడానికి	13
▁వనిల్లా	13
▁స్మూతింగ్	13
RT	13
▁అభ్యాసాలు	13
▁ఉపన్యాసాలు	13
▁నేర్చుకున్నారని	13
▁హెన్ర	13
ీజియన్	13
ర్నమెంట్	13
▁జ్యూరిస్డిక్షన్	13
PI	13
▁పరచాలి	13
▁గ్రహించి	13
▁ನಿಮ್ಮ	13
▁ವ್ಯಕ್ತಿಯ	13
▁అన్వేషించాలి	13
డాక్టర్	13
▁ప్రతీకాత్మకంగా	13
▁మేఘం	13
▁వారాలలో	13
▁చిట్కాల	13
▁ఆర్కిటెక్చర	13
▁రికార్డ	13
▁రూమ్స్	13
▁స్పందనలు	13
సెంట్	13
▁ಗುರುತಿಸಲ	13
▁ಬೈ	13
▁తీసుకోవట	13
▁నిర్బంధ	13
▁యం	13
▁ప్రె	13
▁ఇచ్చార	13
▁దృఢత్వం	13
▁అవసరమైనంత	13
స్తా	13
▁ముఖ్యాంశాలు	13
▁టన్	13
▁ఫోల్డర్స్	13
నలుపు	13
ాయో	13
▁పేపర్లలో	13
▁మెనులను	13
▁ప్రాక్సి	13
▁రాకపోతే	13
ొరీ	13
▁రిటైలర్	13
ళిక	13
కీబోర్డ్	13
▁చాటింగ్	13
▁అప్లికేషన్లలో	13
▁అబ్బాయి	13
▁ఉంచుకోండి	13
▁కోసమ	13
ಡರ್	13
▁అంతరిక్షంలో	13
▁కిందివి	13
▁వివరించింది	13
▁వర్గీకరిస్తారు	13
▁చైన	13
ీలు	13
▁వర్తింప	13
ూపింగ్	13
▁అనుసంధానించబడ	13
బ్స్ట్రాక్షన్	13
జాన్	13
▁సింగ్	13
రూ	13
▁రెండింటిపై	13
▁పెంచింది	13
▁విధులకు	13
▁ట్యాం	13
▁ಮೆ	13
▁తెలియజేయండి	13
▁ఉండాలనే	13
▁అంగీకరించడం	13
ర్న్స్	13
▁పాలుపంచుకున్న	13
▁రూపురేఖల	13
ఫ్లేక్	13
సూచన	13
▁చెయ్యాల	13
▁సమర్పించిన	13
గ్రంథచౌర్యం	13
▁మూలక	13
▁పొందుపరచవచ్చు	13
▁స్టుడెంట్	13
▁కతా	13
▁హీటింగ్	13
▁పరిశోధించడం	13
▁వీలైనన్ని	13
వారం	13
▁కీలకపదాల	13
▁బైజాంటైన్	13
▁ఇలాంటివి	13
▁హానికరం	13
▁ఐచ్ఛిక	13
ప్రత్యేక	13
ಪರ	13
▁దశాబ్దం	13
▁IR	13
ఫా	13
▁విపరీతం	13
▁ಯಾರ	13
▁చింతించకండి	13
▁చేయబడటానికి	13
▁ఉపయోగించాలనే	13
పాస్	13
▁మెగా	13
▁చార్ల	13
▁టోపోలాజీలు	13
▁HD	13
▁హృదయపూర్వక	13
▁అవార్డు	13
▁నెరవేర్చడానికి	13
తీసుకున్నట్లయితే	13
▁డిటెక్ట	13
కార్యాలయ	13
▁ಹೊಂದಿರು	13
▁ఆమోద	13
▁కాన్సెప్టువల	13
లైటర్	13
▁కంప	13
▁పత్ర	13
▁క్లే	13
▁గోళాకార	13
▁వాలిడిటీ	13
▁ఇట్	13
ప్లేనార్	13
▁స్పాన్సర్	13
▁ఆవశ్యకతలు	13
▁చర్చించింది	13
▁జిప్	13
▁చేయబడున	13
▁en	13
▁రేట్లలో	13
▁ವೈ	13
▁ಅನ್	13
▁పొందుతార	13
▁నిర్మాణాత్మకత	13
▁కొనసాగించ	13
▁సూపర్విజన్	13
▁చట్టవిరుద్ధ	13
ಗಳಿಂದ	13
▁ఐడెంటిటీను	13
▁స్ట్రైక్	13
ರೆ	13
▁ఇన్ఫర్మేషన్‍	13
ార	13
▁స్పూల	13
▁చెబుతున్నాయి	13
▁చిరునామాల	13
మార్కెట్	13
▁వెస్లీ	13
▁మూడవదాన్ని	13
▁సమయంతో	13
▁పాఠ్యపుస్తకాల	13
సింగిల్	13
ానని	13
▁మెట్టు	13
▁నివేదికల	13
రూపకల్పన	13
▁అతితక్కువ	13
▁మరికొందర	13
వీటిని	13
మాట్లాడబోతున్నాం	13
▁vj	13
▁జాగ్	13
▁ట్రంకేట్	13
▁ఫ్లా	13
▁పోర్టు	13
▁బాక్సుల	13
వైడ్	13
థర్డ్	13
షి	13
▁కీటకాలు	13
▁ఫెసిలిటీ	13
▁వక్రతలు	13
▁అందిస్తే	13
పరుస్తుంది	13
లోడ్	13
▁తత్ఫలితంగా	13
▁చదవగలరు	13
▁భావించినట్లయితే	13
▁XML	13
▁పూసిన	13
▁నిర్మించారు	13
▁అప్పగించ	13
▁ఓసిఆర్	13
▁అధిగమించవచ్చు	13
▁డేటాబేస్లు	13
నాణ్యత	13
▁గదుల	13
▁వివరిస్తాయి	13
▁మిగిలిపోతుంది	13
యడం	13
▁డబ్లు	13
▁క్రిప్టోకరెన్సీ	13
AC	13
▁PaaS	13
▁ఎనిమిదవది	13
▁ಯ	13
▁అసలైనది	13
▁సేకరించబడతాయి	13
▁రిడ్యూస్	13
ంగర్	13
▁పిలవబడుతాయి	13
డ్స్	13
▁పరిమితమైన	13
?"	13
▁తీసివేస్తాము	13
▁ಬಳಕೆ	13
▁అంతరాయ	13
చె	13
▁కొనసాగిస్తుంది	13
య్యాయి	13
బ్యాచ్	13
▁నిర్ణయించా	13
▁ఉద్దేశాల	13
▁విఫలమైతే	13
▁రియల	13
▁వేళ్ల	13
▁పరిశోధించ	13
▁ఎత్త	13
▁అథెంటికేట	13
▁రిజిస్ట్రీ	13
▁సృష్టించబడ్డాయి	13
▁సిఎస్	13
▁అశ్లీల	13
లేనందున	13
▁ఇవ్వబడ	13
▁యాం	13
▁వేగ	13
▁ప్రతిదానిలో	13
▁ఉపయోగపడుతుందో	13
▁డెబ్బైలలో	13
▁చవకైనవి	13
▁నిర్వచనంతో	13
▁చెప్పగల	13
▁పదజాల	13
▁చేసుకునేలా	13
▁ఎన్క్రిప్ట	13
ర్ణయించేటప్పుడు	13
▁వ్యయాల	13
▁వెళ్లగలదు	13
▁ಚ	13
▁కన్జ	13
▁వీటన్నిటి	13
▁లెక్కించేందుకు	13
▁class	13
▁ఏర్పరిచే	13
▁పట్టించే	13
జిపి	13
▁ట్రాన్స్పోస్	13
▁గ్రహీతలకు	13
▁అదృశ్యం	13
▁అనేదే	13
▁జుట్టు	13
▁చౌక	13
ిస్తున్నాను	13
▁టాప్స్	13
▁సప్లిమెంట	13
▁we	13
se	13
▁చేయకపోవడం	13
ముగా	13
▁రేడియన్	13
▁వేశారు	13
▁వాతావరణానికి	13
▁పరిసరాల	13
▁ఎలిప్స	13
▁వచ్చేలా	13
▁ఉపగ్రహాలు	13
▁పొందాలంటే	13
జియన్	13
▁నిర్వహించబడాలి	13
గ్రీన్	13
ఎటిఎమ్	13
▁ಮುಂದಿನ	13
▁సరిపోల్చడ	13
▁మార్చుకోవడం	13
▁రెం	13
▁ಅಂಶಗಳ	13
▁ఇథి	13
▁చేపట్టిన	13
▁వెచ్చని	13
▁వర్ణద్రవ్యం	13
▁కథకు	13
▁జ్యామితి	13
▁చూస్తాయి	13
▁యాన్	13
▁చూడవలసిన	13
▁తులనాత్మకంగా	13
▁పునరుద్ధరించ	13
▁సరఫరాదారుల	13
మాంస	13
▁ఫో	13
▁హోస్టింగ్	13
▁ఈసారి	13
ప్లై	13
▁రాబర్ట్	13
▁కోణీయ	13
విల్ల	13
ఇమేజ్	13
▁బ్రోక	13
▁ముఖాల	13
ೆಂಟ್	13
▁గిగాబైట్	13
ೈ	13
డంలో	13
▁ఆట్ట్రిబ్యూట్	13
▁రియాక్టివ	13
▁ఇంటలిజెన్స్	13
▁పెరిగిందని	13
▁దృశ్యాలు	13
మద్	13
▁రాబిన్	13
▁ర్యా	13
▁చెబుతున్న	13
▁తెలియజేస్తున్నా	13
▁డిక్రిప్ట	13
▁గుటెన్	13
▁పాలన	13
▁vk	13
ర్మ	13
▁గోడల	13
▁అవుతాయో	13
▁ISM	13
▁గుణం	13
దైతే	13
గ్రౌండ్	13
▁హించుకోండి	13
▁పొ	13
▁చెట్లు	13
ుకొని	13
ియేషన్	13
▁బోధిస్తున్న	13
▁ఏర్పడుతాయి	13
▁లక్ష్యాలతో	13
▁గ్ర	13
▁అడుగుతున్నాను	13
గలిగినప్పటికీ	13
రకమైన	13
▁మూవీస్	13
▁విధించడం	13
▁ప్రతిస్పందనల	13
పాలిట	13
▁సురక్షితమ	13
▁వ్య	13
▁స్పిన్	13
▁చూసుకుంటుంది	13
▁జనరేటెడ్	13
▁అభినందించ	13
▁చెక్కులు	13
▁ప్రోబ్లమ్స్	13
▁పెట్టబడింది	13
▁జవాబు	13
▁వెళ్లకుండా	13
ಕ್ಟ್	13
▁ఉండటంతో	13
చేస్తాయి	13
▁అందించాలని	13
▁చేరుకోవ	13
▁షేకింగ్	13
మెమరీ	13
▁వ్యవహరిస్తాయి	13
ంబీ	13
▁ವಿವರ	13
▁పిలు	13
▁ఫ్లాయిడ్స్	13
vt	13
▁లాప్	13
▁నిలిపి	13
▁ఉన్నదా	13
▁ఆదర్శంగా	13
▁వక్రీకరించ	13
▁డిలీషన్	13
▁కలిసిపోయి	13
▁సరిపోలితే	13
▁డీగ్రేడ	13
▁అలైన్మెంట్	13
▁చతురస్రాల	13
▁కోల్పోతాయి	13
▁ఆంగిల్	13
▁మధ్యవర్తిగా	13
బ్రౌజర్	13
ಯು	13
▁పారాలా	13
▁తగ్గించిన	13
▁కనిష్టీకరించడ	13
▁మార్కెట్లు	13
▁ప్రసంగం	13
▁సారాంశాల	13
▁ఇస్తున్నారు	13
▁ఎక్స్పర్ట్	13
▁వస్తువులపై	13
యాక్సెస్	13
▁ఇలస్ట్రేట	13
▁అందించినది	13
▁వేస్	13
ఇఫ్	13
▁ఏద	13
▁రాశాను	13
▁పార్టుల	13
▁సమూహపరచడం	13
▁డిఐ	13
నెలా	13
▁పొడవులు	13
▁జీబ్రా	13
వాది	13
▁రెక్కలు	13
సిఆర్	13
▁వైద్యం	13
▁ఇంకేమ	13
కోఆర్డినేట్	13
▁నిరూపించాను	13
▁ఏర్పరచడానికి	13
▁భార్య	13
▁అరెస్టు	13
ఫ్యాక్టర్	13
▁అందిస్తున్నాయి	13
▁గమనించబడింది	13
▁కట్టడం	13
▁అనుగుణ	13
▁ఫ్యామిలీ	13
కోర్స్ఎరా	13
▁రికర్సివ్	13
▁ಪ್ರಕಾರ	13
▁ప్రచురించబడింది	13
▁దానంతట	13
▁ఇంతకముంద	13
▁new	13
▁అందిస్తున్న	13
▁పుట్టుకతో	13
తా	13
▁థ్రెట్స్లు	13
▁దుకాణాల	13
ఎక్కువసార్లు	13
▁హెడింగ్	13
▁అనుమితి	13
▁అన్నిటికీ	13
ప్రకటన	13
▁ఇన్వర్ట	13
గే	13
ులుగా	13
▁ಹಾಗ	13
▁సంభాషణలు	13
▁సహకరించడం	13
ించకూడదు	13
సాలిడ్	13
▁అప్రూవల్	13
అనేవి	13
చేయ	13
ఖ	13
▁అనువ	13
చేసుకోవాలనుకుంటే	13
▁రెడీ	13
▁లోనవుతాయి	13
▁మారినవి	13
▁ఆసిడ్	13
▁ఉన్నతమైన	13
▁ఇవ్వవు	13
▁స్పై	13
▁క్రిముల	13
▁రెండువందల	13
▁ఉపగ్రహం	13
▁కనిపిస్తున్న	13
▁అస	13
▁ఓఎస్	13
▁వలయాల	13
▁దృగ్విషయాల	13
▁అన్వేషిస్తుంది	13
▁పోటీదారులు	13
▁తగ్గించగల	13
మరి	13
గో	13
▁అమ్మాయి	13
క్యుములేట	13
▁హాజరయ్య	13
▁చెందదు	13
▁కలుస్తాను	13
▁సాధిస్తుంది	13
▁పైల	13
బోన్	13
▁అంగుళాల	13
స్పెరిక	13
ిగ్	13
▁పెట్టబడిన	13
▁ఆమోదం	13
▁ప్రతిదాని	13
▁డైరెక్టర్లు	13
స్తున్నాను	13
▁రీసోర్సెస్	13
మల్	13
▁ముద్ద	13
▁పొందాల	13
und	13
▁కదిలిస్తాము	13
నుకొని	13
▁పిలుద్దాం	13
▁చిత్రాలలో	13
▁తిరిగే	13
▁rad	13
▁స్పిల్	13
▁ఉంచబడ్డాయి	13
▁భద్రపరచబడతాయి	13
▁హెక్	13
▁స్పెల్లింగ్	13
▁టేబుల్‍ను	13
▁సేకరించాల్సి	13
▁వివరించబడిన	13
▁తాత్విక	13
ఎఫిషియంట్	13
▁జాకెట్	13
▁పదిహేడ	13
▁డిస్క్రిమినేటర్	13
గణితశాస్త్రపరంగా	13
▁టెలిస్కోప్	13
▁జిమ్	13
ెన్సీ	13
▁వర్తింపజేసాము	13
▁ఉపయోగిస్తున్నామ	13
కన్వర్ట	13
ol	13
నిర్వహించబడవచ్చు	13
▁డయాగ్నస్టిక్	13
▁చార్జి	13
▁కన్వర్జ	13
▁సూత్రంతో	13
▁మాగ్జిమా	13
ంప్సన్	13
▁పరిపూరకరమైన	13
▁బడ్	13
▁మారుతుంద	13
స్టేట్	13
స్కాలర్లి	13
కులు	13
▁విభజిస్తాము	13
▁ఊహిస్తున్నాము	13
గ్రాఫికల్	13
▁వల్లనే	13
▁టెక్నో	13
గానీ	13
mn	13
ధన్యవాదములు	13
▁తలంపై	13
▁హెర్మ	13
▁SP	13
▁తేల్చవచ్చు	13
▁है	13
▁నిత్య	13
▁సీజ	13
▁భాగించగా	13
▁రాబట్ట	13
ఫీ	13
▁సిస్ట	13
▁ఫైకాల్	13
▁NNP	13
▁కలరిమీటర్	13
▁క్యాట	13
((	13
▁బెర్గ్	13
▁బాక్టీరియాలో	13
II	13
\,.....\,	13
▁హెపటైటిస్	13
nh	13
▁కొనడం	13
▁క్యాన్సర్లు	13
▁ధ్రువ	13
)]/[	13
▁cosec	13
▁డిఎన్ఎలో	13
▁సెరీ	13
▁అనువర్తింపజేయ	13
|/	13
▁అప్టిమ	13
▁tR	13
▁సర్ప్లస్	13
aijxj	13
ఇంటిగ్రల్	13
ప్రియర	13
▁ఊహిస్తూ	13
▁సిల	13
బిసిఎ	13
▁{...	13
యెంట్	13
di	13
లాప్లాస	13
రోజెన్	13
▁ఎలైసా	13
ీభవనం	13
▁తీసుకురావచ్చు	13
▁రాబట్టవచ్చు	13
▁సూక్ష్మజీవుల	13
▁మాలిన్యాల	13
▁జోడించబడి	13
]/	13
▁విస్తరిస్తే	13
▁ఫాస్ఫోడై	13
▁సమగ్రమైనది	13
▁సిస్టీన్	13
▁ధనావేశం	13
▁స్టన్స్	13
PC	13
శాంపుల్	13
▁టన్నుల	13
[...]
